t h
i n
th e
a n
r e
o n
e r
a t
e n
s t
o r
a l
a r
e d
o f
i t
i s
t o
e s
o u
in g
an d
a s
i c
i on
en t
r o
l e
i l
c h
s e
o m
b e
d e
v e
f or
c t
i d
o l
a d
l y
at ion
w h
u n
a y
c on
c e
w e
a m
th at
s u
l o
i m
v er
i g
h e
c om
u t
n o
i r
m ent
p e
g e
p ro
u r
a re
n e
r a
w i
p er
re s
ou n
il l
t er
t e
a b
u s
m o
wi th
l d
a c
b y
k e
p o
s h
r i
s a
at e
i st
e x
t s
er s
h a
a g
w as
l i
u l
l a
s o
al l
y e
m an
f e
g o
m e
a p
ar t
m a
t a
p or
sa id
o p
ro m
the r
f rom
ou t
no t
i es
ig h
es s
it y
c o
ou ld
h as
q u
i al
w ill
d s
c ent
i f
ha ve
ou r
on e
0 0
i ve
b ut
d o
1 9
th is
i e
p r
it s
d u
p l
ic h
t r
m ar
ye ar
com p
w or
por t
d ay
en d
s i
wh ich
c oun
i v
re d
p res
an t
e m
ct ion
g r
st r
m in
b o
a f
ne w
p art
l l
h o
a u
re n
on g
f o
u p
g h
of f
ar y
h is
the y
c l
ar d
w n
com m
om e
d er
b er
f a
u m
p a
wh o
re e
ic e
t y
p ol
is h
t im
k s
igh t
an s
u st
an y
in e
ig n
ic al
u d
t ra
po s
ation s
b l
be en
w ould
the ir
ou gh
ou s
i a
k ing
an ce
o ther
h ad
we re
u re
b r
m r
at ed
mo re
for m
s er
c or
c re
p re
t ing
i p
the re
it ion
a ge
o ver
lo w
19 9
f in
l ar
o d
ver n
fo re
e v
i re
go vern
f t
n ation
a ch
in t
c an
w o
d is
c ial
i an
f ir
b an
m on
e l
s ome
ab le
ac k
a in
b le
ab out
an g
e st
c r
govern ment
th an
id ent
i z
a st
or s
in ter
d ing
as s
j o
al so
e f
am e
con t
nation al
mar ke
s pe
an ge
min ist
c k
la st
ion s
f r
oun ds
re g
at es
w ay
no w
c ur
t wo
t ed
oun d
s p
af ter
st ate
en ce
e con
econ om
as e
y ou
pe op
t ur
u e
wh en
p ounds
ol d
peop le
c ess
p u
wor k
a v
en s
1 0
c es
ver y
p ar
al ly
in d
un der
pro v
fir st
n ing
a ct
s ay
tim e
b u
a ir
re st
lo s
st er
ve st
c al
pu bl
it ies
i le
c ol
g en
re port
c ar
ou p
mo st
m ay
p h
be t
in vest
ment s
x t
c ed
e u
i de
v ie
on ly
pro du
s y
ct ed
l and
comp any
t al
a k
is e
it e
h igh
00 0
p t
g u
in to
e le
c y
marke t
at er
s on
wh e
b us
c er
le ad
ser v
m ed
j e
gr oup
c au
ro w
il y
ol lar
wh at
f ul
at t
ma in
the m
i ous
year s
g er
v is
ct or
off ic
o per
f l
com e
ve lo
s ch
ge t
d ollar
o k
de velo
publ ic
su r
sh o
ct s
p ut
c ut
ta in
cau se
h er
w ar
ag ain
m s
s he
n or
r ic
9 4
su p
li ke
is s
in te
l es
man y
th ing
tr y
sh ould
de c
r y
develo p
str u
sh are
pres ident
c ould
le g
c le
at ing
e ar
t ri
eu ro
in du
d es
pol it
b as
c i
se t
we e
r us
or y
u k
st e
v o
j ust
an n
dollar s
er al
re l
su ch
ic es
su b
be cause
s al
se l
ban k
con d
m y
me m
it al
it ed
in ess
in cre
euro pe
d on
econom ic
f un
t on
l ong
v al
c ap
19 8
at ive
we en
en g
d ire
th ree
pr of
bet ween
o wn
is su
mon th
bus iness
st o
g an
pl ay
do wn
rus si
re at
p ri
sh ip
ur ing
f ic
c u
1 2
in ce
wor ld
r ough
d a
res s
u res
we ll
ill ion
v ol
the se
ev en
ad d
o se
part y
v ing
b ack
fe ren
in cl
c all
m u
fore ign
1 5
offic ial
ma de
ent s
new s
ch ar
su l
o g
whe re
st em
ic t
w er
he ad
wh ile
again st
ex p
b ro
th rough
il ity
re ad
ul t
th ough
pres s
p on
vie w
minist er
2 0
tur n
st ri
l ess
ch in
p le
s an
inte rest
la w
sy stem
inter national
c ity
ta x
me e
d if
st and
h im
polit ical
s ou
i ed
v ed
w r
u al
wee k
ho we
ve l
d r
v en
ction s
m il
howe ver
comp an
tim es
be ing
em p
o b
ter s
if ic
l ed
199 4
s ign
p ay
ex pe
1 1
l in
s id
3 0
cont in
the n
comm un
c a
s en
m er
pl an
be fore
ver s
pres ent
k o
cle ar
coun try
say s
us ed
b n
p p
ne ed
se e
c our
bu il
po int
s ince
th ose
ut ion
compan ies
he l
or t
ta ke
ge st
er ic
b ar
pro ble
ma ke
es e
st it
co st
gr am
s m
i o
le t
h ol
5 0
ac cor
d ist
d id
comm it
f ar
ye ster
yester day
ty pe
ap an
ic s
v es
st ill
j apan
ic k
tr ans
p s
im e
de f
al s
g row
pol ic
f ol
as on
res pon
b or
te xt
d uring
or gan
m ust
c il
pro gram
ist s
fa ct
ag ree
gen eral
am eric
cur ren
tra de
incl ud
j or
ho w
ul ar
in s
mu ch
te m
1 4
ch ange
f our
p la
t i
n er
op en
j an
tr ad
v ent
r un
b ers
por ts
as h
br it
iss ion
f er
in de
is ion
pos ition
k es
fin an
h ou
1 3
si de
cont ro
j un
m at
develop ment
str y
sho w
u se
su re
n um
c lo
are d
se cond
m en
e qu
re al
ne xt
da ily
t le
2 5
h al
e very
s co
st ates
coun cil
per cent
lo y
l ish
re sul
m one
go od
w a
c am
sel f
s ol
m illion
k ed
indu stry
re qu
te ch
h and
po wer
t en
im port
se cur
c us
b ur
to day
ol og
e p
h u
ic le
o c
st ud
pos si
ar ch
ct ive
re cent
mee ting
an ts
tri es
bo th
b is
1 8
w ard
sch o
we st
b al
f ed
pe t
per i
th in
f ur
su m
b ig
s k
be li
de m
h ome
europe an
un ited
is m
hou se
r is
k en
is ed
scho ol
per son
sup port
d ra
f n
coun ty
accor ding
iv es
coun tries
u es
te e
fol low
o t
w ant
cent r
wr it
incre as
1 6
l ine
tech n
th or
g ed
pri v
u g
an other
sou th
so cial
part ic
do cu
ma jor
mil it
pla ce
ie ld
te le
ch air
b fn
s it
f bis
s ame
form er
do es
s im
le y
read y
n ed
le vel
g re
ce pt
hel p
d i
ch ang
z e
ro s
ap r
1 7
w in
de mo
de al
r ight
u ary
te st
un t
ap pe
m i
g ress
official s
art icle
polic y
d iv
re main
st art
con cer
d en
l it
mo ve
he re
a ce
am ent
in c
ent er
e ast
a z
pro pos
m or
invest ment
k now
l on
m it
ne t
g y
af f
nor th
r ate
milit ary
b on
ch e
b en
v ir
qu ar
h n
il d
de part
c ra
chin a
finan cial
l s
v i
mem bers
b re
p ly
c la
cap ital
russi an
lar ge
lo cal
mone y
l im
un ion
9 3
expe cted
con tra
u ation
t re
ag o
p ur
issu e
ion al
end ed
li fe
f all
sal es
month s
y s
je ct
docu ment
h ar
chair man
igh ts
g ra
qu est
pr is
f ut
in ed
ri but
ange les
dire ctor
num ber
f ive
s w
g iv
re form
au thor
indu stri
b ri
or d
on s
hal f
sm all
n at
re cor
l ab
su c
end ing
c ame
commit tee
at ic
re du
te am
am ong
p at
l ing
id ed
s ing
pr ice
se cre
los s
n es
man ag
spe cial
re f
f am
comm ission
f ree
agree ment
sto ck
t ary
b s
curren t
econom y
st aff
pr ices
fur ther
in ts
pa st
share s
bas ed
centr al
jo hn
n ess
in form
stru ct
pol ice
b all
feren ce
s c
incre ase
go ing
en se
ex e
to o
re ce
v an
a il
f ac
ef fe
n ia
secur ity
ne ar
ann oun
comp le
iz ed
oper ation
includ ing
9 2
pe ace
with out
en cy
al low
lead er
be g
exe cut
ing s
l ate
o s
iz ation
se arch
call ed
off ice
pro per
f ound
grow th
russi a
4 0
th ir
thin k
pro cess
a th
p ass
c ast
in fl
al th
ac coun
man age
de l
n u
for ce
de b
ie f
le ft
str ong
de cl
col le
dem and
buil ding
al ready
e ach
bo d
h old
u c
lon don
c ing
am es
ch ief
f ig
al though
m al
i b
ta il
fa ir
l ang
possi ble
serv ices
b ud
emp loy
way s
g a
mo t
m id
u de
r ation
brit ish
mem ber
y our
c ase
to tal
americ an
1 00
si x
me as
se ll
import ant
in stit
ab ility
fe w
i or
produ ction
bu y
c as
ar ound
n ight
p ra
ele ct
re public
2 2
bo ard
lo t
proble ms
w al
ros s
marke ts
mar ch
fun d
g reat
p ho
cour t
r ad
se ver
h ard
ad minist
m ight
c are
t ar
so ci
unt il
re ed
for ces
re co
lang u
w om
j u
ab ly
s po
demo cr
serv ice
po p
con sid
re turn
e t
ag es
it or
suc cess
are n
ical ly
ex am
2 4
lit tle
r ates
contro l
w ater
act iv
fut ure
w on
is l
ab lish
ul ation
manage ment
ough t
i ans
vie t
e as
d ou
ch ild
clo se
sever al
pa per
to p
est ablish
f ield
cer tain
g l
prof its
be come
ch o
com pet
sit uation
as se
to ld
ish ed
h am
p end
n on
langu age
r an
he ld
199 3
ne ver
thir d
2 3
v ar
po st
in vol
re present
or der
day s
with in
ition s
ut e
are a
ar ds
depart ment
b ill
g ame
d an
sh ort
v ious
ful l
as soci
o il
ap pro
lo ok
er ing
p ed
ef for
b lo
ne go
i um
nego ti
quar ter
se em
nu clear
l ight
dis cus
pho to
cla im
at s
g es
ear ly
s at
d ri
re ach
dr ug
pr ime
m ber
techn olog
p al
dec ision
m us
c red
tal ks
fr an
de put
ger man
ro ad
2 7
ar s
dif fic
6 0
he alth
po ints
vis ion
u ally
i red
h un
ate ly
inform ation
dif feren
giv en
2 8
b a
e ve
ma king
be st
bri ef
ur y
a de
s un
whe ther
2 1
cal i
fa il
re ason
su g
dire ct
add ed
pro m
at or
ko re
ke y
if ied
t ro
in ing
ex change
199 2
re search
r u
en c
bud get
industri al
like ly
cr it
pro te
rel ations
se ctor
proble m
2 6
ban ks
ter r
g ain
b ed
ther n
qu e
fr on
a ction
ta ken
discus s
stru ction
ye t
execut ive
l ist
d ro
contin u
f il
ha pp
ren ch
pro ve
r ul
fed eral
quest ion
on ment
un i
commun ity
cali for
apr il
par li
id ay
r ights
secre tary
k er
partic ular
cent er
ent ial
at ors
d ie
bet ter
an al
se ason
en vir
minist ry
j ud
beg in
man u
diffic ult
s ent
spe c
m ic
ter m
peri od
er ation
parli ament
me an
high er
envir onment
ke ep
priv ate
g ive
califor nia
h ing
o v
en ds
mar k
is ation
un ch
f ri
o ds
pl ac
low er
report ed
pl ans
at ch
le ast
y or
s ci
leg al
issu es
t t
to ok
des ign
it ive
def ense
is ra
fun ds
id ence
cor por
f rench
produ cts
con f
st ree
p li
st ic
ou ts
n am
t reat
w ed
vis it
ens ive
s our
jun e
ur al
ne cess
comm er
ele ction
l ater
su per
follow ing
im in
7 0
b ra
h our
i ent
recor d
japan ese
com ing
ger many
ben ef
iv ed
manu fact
c ust
qu al
a ver
fir m
str ate
prov ed
r on
ro se
m iss
proper ty
ro le
ur s
beli eve
wor king
prof it
work ers
k no
respon si
ch an
con ference
is ing
c los
st op
p aren
so c
dist ric
ach ie
h ist
invest ors
yor k
n al
resul t
jan uary
ta king
g ing
c it
l at
con stit
s old
in come
k y
li ber
g as
i er
sug gest
ne l
l er
bod y
wi de
um n
b illion
de ter
ning s
con struction
n a
fin ance
r ange
ord in
h it
g ar
cost s
invest ig
differen t
r ise
ex t
on es
d av
on ce
a id
am oun
se p
to wn
ir a
announ ced
in it
can not
fron t
l u
technolog y
b ase
su f
fam ily
be l
pl ic
ie ty
ac qu
pra ct
h ous
c iv
are as
li er
trad ing
go t
7 5
lo o
fin al
2 9
y oun
add ition
re ports
contin ue
po t
ro om
inde pend
c ri
cl ass
as ked
jo int
ster n
wo od
ed uc
resul ts
pa ce
val ue
vi ol
sur ance
v ict
t ies
au g
c ks
fe el
199 0
i th
chang es
p an
op t
res ol
a way
lead ing
wh ite
reg ard
lin es
democr atic
bo s
im prove
lead ers
pre vious
ra ther
cour se
child ren
uk ra
r ich
cust om
ex ist
sh ar
off er
so viet
wh y
h y
ple ment
to u
en ed
st at
th reat
ar my
ex press
ce ed
re le
in a
3 5
ear lier
al most
ser ious
v ice
i ther
e c
increas ed
pris es
or ange
for d
as k
me ans
tr ust
reg ion
b ility
con gress
fin d
3 1
ne y
c and
ind ic
du e
com b
st ren
s ess
bo o
comp ut
pro ject
us ing
il ities
inde x
ch ri
infl ation
fa v
we stern
cam pa
fe ll
administ ration
meas ures
k ill
sa fe
ele ctions
campa ign
8 0
a ke
g g
fa ce
199 1
chin ese
cred it
ou ra
b ly
pos ed
at ives
gr ound
a h
w ent
stren g
p en
f ire
al e
d am
cond itions
leg isl
re view
kno wn
distric t
r ound
c ir
reg ul
recent ly
at tem
necess ary
k ers
em er
med i
fo od
other s
m c
ch am
in surance
was hing
ar ab
ke t
af ric
5 00
iz e
to ur
me t
ac c
he av
ct ing
deput y
hu man
ful ly
pp ed
p ing
civ il
beli ev
m ater
ag reed
ab o
for man
m is
b ul
m es
ste ad
bro ad
se ven
pl ant
stree t
2 00
thing s
enter prises
bl ack
en er
jo b
c up
m ing
consid er
h ong
com es
an a
en ough
fr iday
at a
exam ple
cont ribut
who se
w are
concer n
al ways
educ ation
st an
t ues
est im
im plement
wor th
part ies
hol ding
h op
je cts
commun ic
lo st
ap point
gen er
e ver
ag ue
ex per
fr ance
partic ip
per forman
b id
iv id
no v
col umn
tele vision
washing ton
accoun t
prov ide
writ er
ac ks
sign ific
aver age
id es
effor ts
co al
commer cial
lar gest
eng lish
c ro
co ver
9 0
it ch
r up
oper ations
st ant
b i
stand ing
ent ion
if y
employ ment
ad van
main tain
ar ing
ear nings
sen ior
pro b
group s
equ ip
author ities
d ome
ro y
car ri
cand id
pres sure
i k
h ill
ag ency
y st
fig ures
par k
4 5
sel ves
ut ions
youn g
rece ived
al ong
mater ial
b it
tues day
op s
d one
vo te
some thing
ha ving
t or
bas is
se en
br ing
fe br
mon day
de st
febr uary
la unch
f i
ex peri
ens ion
wa it
contra ct
li ve
om in
ind ivid
fe red
person al
wom en
c ul
res pe
we l
ve y
ho pe
f le
f ight
be ach
de ce
st ar
t un
is ions
s l
con du
b ad
state ment
m ag
lab our
eng ine
sa ge
wi re
f lo
war ds
in o
th us
n ame
sing le
k ong
po se
al li
deter min
m ass
bo ok
to ge
toge ther
dome stic
individ ual
as ed
ber t
st y
th urs
ag ric
re t
af fair
we ap
co operation
p ack
ant i
be gan
clos ed
increas ing
fe b
lo c
lab or
re ally
un ity
wed nes
pa id
ter ms
respon d
thurs day
f ra
g old
sub sid
re ven
r am
wednes day
outs ide
in ian
soc iety
ann ual
brit ain
des p
fo ot
c ash
comp ared
expe ct
t it
effe ct
uni vers
it self
co ach
en ing
incl ude
a head
te l
stud y
er n
v ic
mee t
ist ic
y u
who le
res ident
of ten
p as
dece mber
div ision
ch ance
propos ed
comm and
performan ce
g n
desp ite
m ur
int ro
prof ess
oper ating
st ra
a ve
loss es
gr ad
d re
op position
k ind
interest s
in st
es pe
trans port
reg ional
in es
lo ye
intro du
chri st
mo der
signific ant
h ind
emp loye
pur ch
equip ment
var ious
constit ution
spo kes
dec ided
ass ist
wee ks
le ague
deb t
system s
ge or
a im
m ex
il ar
kore a
ar gu
i y
die go
con sul
organ ization
f u
st age
con cl
av ail
negoti ations
op port
requ ire
u b
so on
re tail
k a
ult ure
i ble
bre ak
struct ure
ac cept
invol ved
h or
res er
g ree
cas es
abo ve
ener gy
spe ct
be hind
s pr
com ment
op in
cial ly
m ac
ira q
us h
ta ge
ph one
sou thern
rad io
anal yst
val ley
pro gress
pal est
amoun t
sco w
wor ks
though t
char ge
ch em
comm on
ev ent
asse m
try ing
r s
car ry
produ ct
tur al
no thing
198 9
ser ies
un it
americ a
p ac
isra el
let ter
to m
espe cially
id ing
priv at
cit iz
con s
pot ential
cr is
ref le
sim ilar
mex ic
mo scow
des cri
we ak
m ission
ent ly
ma kes
con serv
prob ably
stud ents
ra p
pre p
m un
3 3
particular ly
mor ning
fa ctor
activ ities
en ces
dra w
b ir
er y
cr imin
ar med
say ing
them selves
d ut
continu ed
dav id
t ic
rup t
reach ed
tem ber
de ath
d le
ar an
te ll
ju ly
w atch
tra f
pr s
minist ers
in v
sess ion
bon d
b and
a ut
ph il
comple te
st ory
trad ition
sign ed
appro ach
cess ion
sep tember
j prs
comput er
la v
curren cy
hour s
univers ity
m ill
inter view
5 m
san ta
pa in
t an
pre vent
avail able
sun day
near ly
affair s
pro jects
bus h
sal e
n ations
weap ons
b il
ll ed
need s
elect ric
c ab
sat ur
att ack
al leg
p ted
f ill
ge ts
cra ft
sa w
qual ity
start ed
ang er
at tra
se cut
ar rest
char ges
mat ter
im medi
paren t
chang ed
e red
198 8
ex port
h on
tur no
land s
gre en
g or
long er
own ed
af fe
mus ic
compet ition
exp la
jo bs
cr ime
re li
sp ending
de p
3 4
r ing
ac ce
cr u
asse ts
grow ing
ho sp
dist ribut
communic ations
s il
f ish
u su
hold ers
mo ved
n ers
buil d
d m
n ic
h om
ag ed
wom an
pop ulation
ar ies
open ing
e ight
seem s
sur vey
ro b
sup ply
act ive
to ward
ad vis
st ress
de tail
de fic
iv al
turno ver
ar ri
le ar
te ach
set tle
need ed
ut es
ne igh
e ither
hosp ital
ukra ine
p c
or ig
traf fic
d ate
st ation
at ory
associ ation
tra ining
ve red
19 7
tr u
pa ct
ed itor
au to
independ ent
ex tra
i j
manag er
i am
enc oura
hist ory
3 6
pro mo
3 8
ist an
se a
9 5
x ed
do ing
big gest
crit ic
pt ion
qu ick
inc ip
ste p
ch es
loo king
level s
fri end
c is
of t
far m
div id
om b
i i
w all
pr incip
if f
news paper
g lo
en e
vict ory
ific ation
environment al
ide a
sch ed
reg ist
d ata
l an
res our
us es
3 7
de leg
ct ors
hous ing
z a
ad a
per s
s qu
r id
cris is
fed eration
se par
br ought
att le
want ed
a king
effe ctive
con su
med ia
pr ise
reco very
manufact ure
t able
dou b
satur day
sp ir
n y
chem ical
re vol
b un
gre ater
st ay
gu aran
go ods
sol id
se qu
char act
h an
pl ann
l t
mid dle
orig in
part ner
m ult
bor der
s ir
achie ve
p red
opin ion
oc to
spokes man
e li
ga ve
ris k
assem bly
f f
m art
ent ire
k in
s low
octo ber
no ve
con fl
pa ge
fe at
p ie
major ity
tre as
for ced
d ed
n ar
ch all
3 2
o re
s pace
ac ross
fa st
program me
did n
business es
v in
sm ith
m om
him self
polic ies
begin ning
be came
6 5
late st
leader ship
on y
per form
c li
w ants
por ters
plac ed
ho st
4 8
po or
sup pli
prote ction
fore cast
tro ops
move ment
run ning
employe es
av o
colle ge
u me
con ne
ex cept
ch i
concer ned
in stead
c op
ve h
w il
cl ar
nove mber
heav y
infl u
turn ed
g un
bal ance
s am
h all
corpor ate
in ation
oc cup
ac y
organ iz
there fore
inte gr
y ield
pl om
el se
fig ure
di plom
secur ities
wor ds
for ward
y es
198 0
play ed
pol l
sour ces
bas ic
ha ps
sa ving
ha el
establish ed
will iam
n ine
moder n
coun ter
sell ing
m ir
over all
pre mi
air craft
ter n
exp and
publ ished
per haps
h ur
ar m
su it
own er
init i
med ical
int on
al i
rul es
sci ent
mic hael
buil t
b ass
nor thern
con tain
ce ll
me th
plan ning
pr im
ra ise
rel ated
ra il
att ention
school s
remain s
de ep
consu mer
s lo
g ames
ro ll
str ict
offic ers
propos al
instit utions
mit ted
pl es
min or
four th
w ers
east ern
5 5
experi ence
de mon
appe ar
p ul
blo ck
allow ed
0 7
3 00
ad o
plann ed
develop ed
de ad
4 7
net work
pop ular
gu ard
liber al
ta ct
play ers
ver t
re cession
reco gn
pre ad
co ast
g ent
s cal
li ving
issu ed
us ion
comp la
m oun
l ack
4 9
redu ce
sch e
cl inton
exist ing
se le
sum mer
r ay
any thing
le ave
f low
mar g
con sum
resour ces
p ion
mo d
l ic
bon ds
sour ce
call s
t v
p ts
cre ate
fic ient
every thing
prov ided
sen se
stru gg
w an
tra vel
get ting
g ic
sid es
ra ised
re comm
k u
j er
sp an
m p
it z
str al
fail ed
analyst s
activ ity
w s
c ise
ad v
m as
j our
ro bert
cra cy
ex ports
qu ite
comple x
b ol
ap plic
i ation
bro ther
ky o
ban king
par ts
am a
ar ts
kore an
un its
develop ing
pl us
effor t
vol ume
administ r
fo cus
ve re
cut s
cam p
cap ac
defic it
tal k
u red
sho t
cl ub
lim ited
ar ily
includ ed
aug ust
b at
su sp
requ est
lo ans
ta kes
d ig
g ro
le av
d y
express ed
d anger
ex tre
pos itive
att or
rel ation
je cted
ch ed
tit le
law s
charact er
c oup
t es
instit ute
sub stant
divid end
on d
responsi ble
consul t
accor d
ev idence
au stral
m ut
pac ific
isl am
elect ron
t ren
afric a
4 4
under stand
quest ions
c ard
st ake
help ed
3 9
bos nia
ar ms
th om
propos als
coal ition
show s
ir an
current ly
pri or
resident s
tr ue
se ction
w ish
fam il
author ity
spe ed
pro test
$ 1
1 m
gr ant
ap proved
stand ard
of fered
gr and
st on
stand ards
techn ical
re v
198 7
b ure
0 8
ic ip
st or
strate gy
treat y
br an
be ij
conf idence
side red
con sidered
appoint ed
benef it
ch er
is es
sh op
beij ing
revol ution
e th
citiz ens
program s
believ es
mot or
ous ly
c ities
claim s
safe ty
dri ve
dis put
sto cks
s mo
add ress
pris on
redu ced
im um
2 m
h us
de fin
in k
ste el
f reed
terr or
ital y
th ous
show ed
share holders
pas sage
capac ity
custom ers
mean while
nat o
v ill
j ames
tr ou
ine t
k im
fav or
v a
ser b
thous and
responsi bility
decl ine
ship s
w ing
fa ther
ex er
o ct
c ross
be y
h en
4 6
be low
social ist
mo ther
i ro
d ers
rel ative
sat is
k id
ac cess
enc ies
res ign
spe ak
tele phone
sci ence
0 6
dra ft
del ay
trans fer
he art
r at
respon se
sp ent
is on
init ial
mone tary
prep ared
sub ject
fu el
hop es
n av
car s
bl ed
sty le
ma x
carri ed
jo y
cor re
ta i
f res
ye l
announ ce
l ad
not ed
attem pt
ch ur
invest ments
success ful
it ted
m ad
s oft
viet nam
min utes
equ ity
n i
ra ce
industri es
w ast
ap parent
3 m
giv ing
o ts
direct ors
spec ific
h ib
cor respond
f is
jud ge
treas ury
bure au
meas ure
legisl ation
represent atives
ad or
as ia
im pact
ur a
b c
fil m
re pe
prov ince
requ ired
stri ke
b es
polit ic
cab inet
contra cts
reg ular
polit ics
bro wn
sched ul
tra ck
estim ated
saving s
follow ed
en sure
reform s
l or
co vered
lo an
cre ated
pro secut
mom ent
b attle
p il
l ay
sh a
si ze
p ick
investig ation
just ice
d ar
work ed
mexic o
benef its
ist ics
emp has
isra eli
sim ply
nat ural
g ian
c um
p es
subsid i
hist or
fir ms
through out
4 00
b ay
fir med
see king
president ial
substant ial
9 9
demo cracy
commun ist
com mod
ru le
kill ed
um p
g ir
cent ury
respe ct
min d
be at
im ent
open ed
ex cl
p ict
pro ceed
go al
bo y
associ ated
palest inian
e ch
prov in
vent ure
drug s
opport unity
ad op
geor ge
to wards
ap art
m ig
cle an
pract ice
a i
scal e
p ension
govern or
deput ies
sol ution
organiz ations
con centr
appe ared
hill s
in spe
ap prov
wi fe
d omin
air port
g ard
0 5
de red
pay ments
buy ing
s ite
re y
government s
ob ser
ca used
cent s
ber g
d in
cent re
sy m
will ing
ass ess
def ence
mar ks
clear ly
ra ph
cho ice
acqu is
possi bility
ho tel
t ask
ar a
inc ident
ater al
play ing
ind ia
rap id
h ab
ag ing
a ctions
sh all
out put
demon str
cond ition
vent ion
6 m
pr in
manag ers
sco tt
su pre
i ers
ly ing
addition al
rich ard
ob tain
no on
pe ter
reven ue
tax es
agric ulture
4 m
br id
manufact uring
go es
in stru
mo ving
to kyo
bur g
fin ally
m and
f fr
stat us
eng land
material s
te red
d p
ic les
par is
ans wer
up on
coun t
gra ph
w ise
b our
offic er
ad es
il es
de li
me chan
z il
st ability
an im
6 8
descri bed
fr u
avo id
pack age
dro p
design ed
se as
appe al
freed om
for tun
ev ents
span ish
person nel
be ll
nor mal
fac ilities
ment ion
eas y
un employment
tar get
ro man
lim it
produ ced
appro pri
vo ters
schedul ed
fran k
ol y
w it
v ide
confl ict
tou gh
qu o
own ers
ital ian
pass ed
attor ney
spr ing
ri ver
t end
deb ate
7 m
every one
produ ce
engine ering
continu ing
s light
marke ting
tradition al
dec isions
bor row
pro spe
wor d
rul ing
recor ding
supre me
4 2
fight ing
k istan
j ian
j im
tri ed
p ush
quar ters
run s
ul tural
boo st
week end
fres h
instit ution
tr an
meeting s
increas es
ho od
f are
war ned
n ames
reason s
bo x
wr ong
no te
6 6
z ed
m ist
tai wan
streng th
s pread
cham pion
tem por
it ory
ish ing
go s
ren t
vers ion
jour nal
agree ments
olog ical
candid ate
so v
lo ve
advan tage
al one
quick ly
acc ident
tou ch
al d
hom es
includ es
dou ble
he ard
conserv ative
rece ive
extre me
g one
im proved
inter nal
cl im
cor p
pro ced
p itch
mot ion
bo t
c s
ma kers
does n
ton nes
bra zil
198 6
m ort
1980 s
as su
candid ates
r ang
redu ction
ck ed
fri ends
main ly
tri al
8 5
re ve
n s
hous es
alli ance
y ard
exper ts
li e
certain ly
sco red
fr ame
oc cur
regard ing
glo bal
remain ed
iz ing
er r
pre par
ob vious
ne g
gain s
tur ning
it em
sel s
keep ing
la p
settle ment
form ed
do w
stress ed
agric ultural
ke pt
alleg ed
launch ed
s ound
com pe
v ine
afric an
neigh bor
he ar
du m
fe ar
om itted
corpor ation
accoun ts
au d
point ed
4 3
rele ased
discuss ed
comple ted
j ul
ad vert
u gh
crimin al
s or
regul ations
sche me
treat ment
blo od
st ated
any one
mo s
shar p
high ly
g ang
ordin ary
terr itory
foot ball
writ ten
a ur
pa ul
fe e
l ou
organ isation
se x
s cre
8 m
f ine
ri es
exp lo
exp ans
achie ved
9 1
y ards
do or
hand s
pa th
law y
co t
serv ed
it ar
br and
enter prise
sur v
ph ys
reg ulation
set t
s and
roy al
d ial
writ es
he st
bl ue
act ually
purch ase
c ze
deleg ation
immedi ately
re struct
head s
co ordin
c row
ud ed
plan ts
il ed
sw ed
streng then
j ur
f igh
a ware
cro at
may or
me tal
at ure
te es
v ia
opt ion
small er
z h
demand s
est ate
viol ence
stan ces
vic tim
cre ation
parliament ary
v il
b ought
we ight
6 7
wh om
bas ket
gen cy
mil es
set ting
fund ament
ar range
ic ed
see k
w at
jo in
sum mit
suggest ed
improve ment
sto re
position s
believ ed
li ft
res ist
en ced
correspond ent
b ing
c ate
rest aur
pa ir
c ers
cze ch
r ou
over seas
pl ed
an ces
im press
care er
spe aking
paren ts
expans ion
fe lt
squ are
arrest ed
approv al
resol ution
ic a
sto od
c at
h ig
strate gic
pre t
ins ist
li ves
detail s
some times
en a
it a
cons ist
adop ted
ur ban
8 8
islam ic
ris ing
a er
port ion
doub t
dro pped
b in
it ors
wast e
ad just
part ners
15 0
influ ence
og ue
n d
claim ed
pay ment
re fer
li qu
b ound
s ports
ele cted
er a
vir t
chur ch
nam ed
l am
fe st
it ude
ic ted
fin ished
g il
strugg le
n one
g ers
vo ted
ro ck
so ph
an e
e ase
4 1
nat ure
spe ech
appe ars
jor dan
ord ers
un ions
f if
s ong
st re
le v
val u
g ol
sign s
return ed
s pl
distribut ion
su s
ind ian
usu ally
i res
al tern
ab road
num bers
broad cast
def end
inde ed
ke l
after noon
6 00
re act
en joy
ri val
import ance
w id
ess ential
gra de
sh if
ear th
pa kistan
view s
z one
s ens
fail ure
sk i
restruct uring
to t
ll ing
gu ide
prom ise
t ight
in side
privat isation
c ure
ts in
el imin
de pend
fis cal
d ict
op tim
$ 2
fe ct
ag u
yel tsin
phil ip
con firmed
bo w
u ge
con sequ
chall en
super vis
oper ate
electric ity
some one
te x
b omb
char ged
reg ions
st ain
w ild
ib ility
p un
d om
princip le
g ary
ho t
po wers
vo tes
fran cis
jo se
constitution al
s li
boo ks
ukra inian
reven ues
equ al
ch est
bey ond
p i
inst all
k ar
s es
z en
ke ts
an cy
origin al
por ter
5 7
not es
on a
se ctors
5 8
oun ding
e z
y en
col or
ce le
vide o
ser ve
g m
spir it
ab les
dam age
d ied
relative ly
g ul
ca pe
determin ed
hu ge
ak h
ele ctor
terr itor
tur key
the less
z z
reg ime
fun ding
p y
bl es
loo ks
difficult ies
ri ed
ll ig
inte llig
americ ans
v ak
ag encies
ul tim
hol iday
ko v
fe et
a str
rupt ion
oc cas
and re
increasing ly
manag ing
re strict
acc used
inter im
comp ar
ob je
start ing
s ac
aim ed
w age
st u
re ly
t w
e gy
implement ation
profess ional
independ ence
199 5
b ab
subsidi ary
can ada
manag ed
em bar
br us
suf fered
transport ation
bor n
ap pli
advan ced
re place
politic ians
9 m
sk ill
f al
contin ues
compet itive
team s
chan nel
mort g
relation ship
democr ats
direct ly
au di
5 6
en ess
li es
off ers
c ies
ra id
un less
bo b
initi ative
ric k
o x
it ation
administr ative
de pos
egy pt
sold iers
remain ing
g ross
ident ified
ste in
win ning
you th
assist ance
manufacture rs
dec ade
g ue
is land
offic es
thousand s
adv ance
im ports
sc ri
med ium
mon t
prote ct
8 00
anal ys
sto res
au gh
interest ed
fact ors
separ ate
gos lav
leav ing
a ward
z y
aid s
l ord
r ural
fin ding
writ ing
a ther
yu goslav
ou l
command er
b ac
christ ian
mi ke
ste ps
ag gress
b ak
ma ker
9 7
secre t
n ik
i ency
happ ened
ll or
john son
sh er
f requ
cele br
per man
er t
large ly
lo se
fi xed
led ge
mes sage
emer gency
hol ds
a ks
require ments
r um
198 5
mat ch
be coming
hol ly
9 8
ad ding
g ives
me ant
gener ally
off ering
o th
sho wn
ens ions
tren d
plac es
cir cum
appropri ate
c able
o bl
l loy
sen ate
reve al
invol ve
ra ising
liqu id
the at
comp ens
ma chin
ol a
ne ither
pp ing
th row
decl ared
pur pose
hig hest
brus sels
rele ase
cul tural
play er
happ y
slight ly
promo te
wait ing
pay ing
sp here
san ctions
g reg
rel ig
condu cted
g i
apparent ly
c ulture
famil ies
docu ments
opt ions
se y
pres ence
tempor ary
prospe cts
challen ge
de fe
k r
concern s
mo del
suf ficient
announce ment
dire ction
shar ply
ap ply
v it
opport un
in ct
con ver
exp end
contin ent
acce pted
yu an
ens es
ref uge
dec ide
s pain
as ing
cut ting
and a
basket ball
j ury
previous ly
u an
pur su
suf fer
w is
mun icip
decl ined
tal king
chance llor
o ting
che ck
go d
municip al
j ack
re jected
altern ative
percent age
b ag
mem or
under standing
holly wood
scient ific
fut ures
base ball
obl ig
wr ite
mar y
usu al
corre ct
jo ined
ster ling
indic ated
9 6
dra wn
provin cial
expend it
c ad
commit ted
finan cing
arri ved
st ations
ul ated
am ed
comp on
al u
pres ents
guaran tee
ref used
g all
com ed
ch a
lo ad
mart in
sp end
cy cl
v ac
brid ge
prin ci
l as
power ful
dest roy
recomm end
fif th
p sy
present ed
c so
mar ked
pie ce
affe cted
tra in
in qu
l ag
k h
contro lled
olog y
as pe
field s
play s
ra in
un likely
n ian
sh ire
farm ers
o w
immedi ate
me l
ir ing
mo b
5 2
prov iding
mag az
sim ple
ak es
coup le
spo t
le ct
even ing
tele communications
i ents
lar ger
wit ness
7 7
ab il
form s
seem ed
do g
veh icle
s ort
represent ative
c old
mus lim
den ied
establish ment
carry ing
frame work
b ach
introdu ced
prov isions
un g
support ed
am end
s r
re new
se at
consid ering
dial ogue
ir vine
crit ical
thin king
moun tain
comb at
found ation
expla ined
5 1
head ed
premi er
en force
im prov
h i
j ail
p has
teach ers
mat ters
il legal
le on
pris ing
mr s
ire land
en em
as ian
depart ments
c king
int ended
ers on
min ing
francis co
k new
sk y
factor y
fundament al
disput e
im age
thom as
c atch
t u
ver se
effe cts
fav our
fl ight
suc ceed
po ol
condu ct
p ic
6 4
f at
austral ia
8 7
am bass
ath let
sa ve
veh icles
h l
co re
gen eration
st one
analys is
ack now
ch ic
mut ual
con cept
re feren
stud ent
dr am
concer ning
dut y
pres er
mo ves
deal ers
won der
go v
pan el
ig or
y ing
p f
ade qu
u ct
min imum
enter tain
chang ing
princi ples
commit ment
on ia
bun des
minor ity
ex hib
fe ars
con solid
opportun ities
f it
holding s
g al
s end
fun ction
sc ene
are s
item s
meth od
tran sa
flo or
s wee
ic ts
s ought
vo ting
bil ateral
lin k
extreme ly
look ed
we u
p lo
6 2
n ap
as es
6 3
5 4
ke e
develop ments
pict ure
head quarters
happ en
g att
as ks
fac ing
lin ked
produ cers
exp ensive
tar gets
comp re
ma ch
n is
fac ed
lat in
discuss ion
mob ile
h um
mu se
tur k
1 bn
encoura ge
loc ated
fall ing
individual s
reser ve
call ing
partner ship
mor row
state ments
fac es
gul f
building s
vo ice
lo ck
sh or
p in
we alth
event ually
vo c
st ance
soft ware
bod ies
conne ction
su stain
prov ision
prov ides
it es
iv ity
member ship
su res
tri p
an c
repe ated
pre ci
expect ations
diplom atic
com for
8 9
fe es
r out
air lines
particip ation
ag ents
know s
ch ain
form ation
li f
t in
con ta
execut ives
s ate
sco re
bos nian
5 bn
muse um
wor st
war ning
he im
pos es
ext ent
am s
premi um
f ash
5 3
im ag
sp ite
ie t
satis f
consum ers
perman ent
att acks
part ly
se ats
la ke
h one
he aring
contra st
sw itch
appoint ment
v ast
christ mas
conf ident
to morrow
ti red
dif ference
pol and
accoun ting
ant ic
stat istics
sate ll
plan e
deal ing
un able
ex cess
im possible
mo de
prom ised
or ient
st able
pre fer
cor ruption
hu a
ku wait
produ cer
intellig ence
a w
& hy
show ing
sy ri
att end
og raph
comb ined
re tain
2 50
she l
y ang
ex ceed
invol ving
be ar
hus band
ha i
ber n
im mig
ret ire
put ting
cap t
neg ative
ay s
&hy ph
circum stances
o red
fic iency
vict or
los ing
estim ates
lap se
att ribut
br ad
pre ced
tar iff
de als
con stant
editor ial
brother s
we red
re ut
eth nic
iv eness
recor ds
regist ered
was n
mar ine
mortg age
ip s
se vere
miss ed
acquis ition
in ary
j ones
dis pos
un certain
6 9
meth ods
tw ice
real ity
sco t
cre ating
process ing
er o
reli ef
r ating
fra ud
compre h
consider able
electron ics
med ic
complete ly
owner ship
elector al
de gree
g on
op pon
re action
ly n
g ri
x in
id a
w ro
d or
av en
it ing
y an
commer ce
list ed
fa ction
char les
d augh
b ou
ac re
republic an
ide as
ab sol
stud ies
marg in
per su
test s
bir th
fash ion
ha z
mention ed
expe cts
differen ces
lo g
jian g
p ting
ch ap
p ound
wro te
loc ation
dig est
on om
gain ed
employ ed
2 bn
6 1
respe ctive
7 00
clos ing
chall eng
ma ster
ex act
vent ura
re in
wal k
ambass ador
att itude
wor se
attem pts
exer cise
us ive
mer ger
mo vie
h es
fac ility
nav y
k az
virt ually
rob in
le ban
e ye
ie l
occup ied
lear ned
legisl ative
cham ber
as set
more over
g ment
u gu
ar men
ur ged
12 0
is n
fol io
ich t
ul a
il ing
sup porters
y a
port folio
ser bs
5 9
w ind
end a
su d
bill s
ph en
de te
assist ant
val ues
gl ass
mal e
n ament
sho oting
t ass
person s
bundes bank
exper t
ex cer
jun ior
ye men
k i
le ts
le e
pro p
0 4
um b
her o
inst ance
n and
integr ation
se es
trou ble
min ute
az a
nar row
ab and
fle x
bran ch
mach ine
spl it
william s
r ally
int ed
contro ls
co ok
eas ily
co s
serious ly
0 3
advert ising
lear n
s cr
bl ing
ph ar
act ing
min e
con front
let ters
ro l
absol ute
op posed
kid s
k ra
me tro
pos ite
or dered
ass n
know ledge
trans ition
never theless
ac com
s in
cal cul
az er
profess or
ify ing
iv ing
mon itor
man n
deli ver
stree ts
strong ly
fall en
con tact
ar gent
k ur
bro ke
col lapse
bur y
ad mitted
beg un
lo b
f ly
dre ds
hun dreds
iraq i
com ments
ob ject
ele ment
follow s
im posed
pred ict
sh ut
0 9
be long
compreh ensive
la ugh
r al
sud den
prior ity
improv ing
tour nament
un a
ab d
j um
mal ay
can ad
slo vak
concl uded
o ce
su spe
reser ves
mur der
im es
press ed
in fra
19 70
fil ed
wh ate
ma astr
be aut
maastr icht
ce re
pat ri
acqu ired
te en
re porters
whate ver
feel ing
h ang
gard en
obje ctive
br u
s om
fe l
employ ers
princip al
critic ism
re b
most ly
an o
danger ous
k il
read ing
mer ch
y o
f re
sa ud
ul ate
per fect
$ 3
pre cise
bro ker
gl as
ag ues
l eng
de cre
i as
au stri
discuss ions
maintain ed
it er
re presents
prim ary
er ia
fest ival
co ca
magaz ine
fl at
suppli es
fore st
rad ical
other wise
af ford
cap able
back ed
wil son
chemical s
ex cell
p it
as sa
hun ting
go als
bot tom
sw iss
restaur ant
5 p
mis si
bur den
r are
n omin
co oper
ef ficiency
en thus
dav is
fill ed
ev o
col omb
la h
pro portion
cont ent
audi ence
r ust
mexic an
n ig
ch u
trad ers
ic ing
v ital
g ans
gar ian
air line
test ing
con ce
al le
malay si
g ap
ra w
record ed
li th
sur plus
sug ar
vill age
stop ped
suggest s
for th
inqu ir
r ants
a x
wide ly
organ ized
ha w
ol es
cli ents
theat re
turk ish
redu cing
figh ters
man ner
as ser
chic ago
decl ar
b ilities
ir on
d ur
ed s
rele v
m ap
pen al
r ice
arch ite
te ls
on to
lloy d
in ting
allow ing
colle ction
determin e
stre am
gu il
i que
re cru
m ol
lat ter
ty pes
consum ption
us al
vere ign
so vereign
take over
accord ance
citiz en
m ile
r ant
ac a
custom s
7 2
ir ish
c ket
quo ted
resol ve
ag ent
else where
gr ounds
198 4
be comes
ste ve
clo sure
k ins
dri ving
sc and
ty p
d ish
pro spect
for um
or ation
applic ation
ag enda
threat ened
road s
form al
serv ing
r ig
pat ients
bring ing
publ ish
aband on
fall s
than ks
s ara
ic op
ra de
photo graph
ad vice
gre w
ex ter
phas e
tru th
t ack
acknow led
proced ures
clo ser
hel icop
ma il
ic ial
sol ve
trad ed
0 1
struct ures
cau gh
enforce ment
re mo
7 8
mon y
un d
exp los
fl ag
ri f
miss iles
se ts
caugh t
ris es
lin ed
inter ior
lit er
act s
w inter
ass ign
return s
ed ge
electron ic
aut onom
institution al
av iation
bro kers
dra wal
victim s
hon or
with drawal
oce an
gir l
acce ler
lu x
b ish
oper a
f ired
it im
g am
so le
num er
mechan ism
re con
w ol
sh ang
ba i
d un
ele ments
oly mp
o h
ad ds
ul ty
u el
j a
draw ing
ve ter
newspaper s
7 6
lith uan
leng th
close ly
g ate
requ ires
c ited
m ou
t ap
se cure
max imum
room s
heav ily
mo dest
i ar
commod ities
ton s
att ended
restrict ions
leg itim
tru ck
be ha
entertain ment
gu est
dis ci
represent ed
j ef
sk iy
contribut ion
as king
territor ies
pro s
l en
sign ing
il i
ollar s
daugh ter
consid eration
produ cing
not ice
emer ged
hop ed
writ ers
inspe ction
ad ollars
sc en
tr ig
b ic
des ire
aven ue
appli ed
stra ight
ent ered
enem y
ga ther
sup posed
t ay
w ages
tre ated
ious ly
cl in
com plic
particip ate
z o
cr ash
sur prise
deb ts
re member
cour ts
the ast
saud i
struct ural
scott ish
qu iet
ab ort
b low
and er
may be
iss ions
occur red
gra in
ob last
rul ed
inte l
vil le
al an
ud es
pre c
journal ists
lin ks
fle et
ev a
ic i
inter vention
ap preci
dep loy
sal v
swed en
du p
disci pl
i vers
pret ty
contribut ions
x im
e yes
lo ts
cu ba
gu y
po inting
co de
concl usion
canad ian
ch ris
manufacture r
bo ys
re porter
referen dum
prof ile
f red
pract ical
continent al
t ie
sch em
c ou
yugoslav ia
at ta
dis count
at l
relig ious
j i
obser vers
grad u
bar ri
gree k
e a
compon ents
occas ion
new ly
m ps
dre w
conta cts
re su
im per
accept able
dut ch
plac ing
in ians
we ather
month ly
the ory
int ention
int ent
e ld
proper ties
comput ers
act ual
od y
int en
adequ ate
arrange ments
ren ce
inform ed
ear ned
ind ones
organ is
un fortun
friend ly
infra structure
contro vers
as sum
m ous
sk r
tex as
w ine
wel come
lim its
st abil
at mo
no vel
n ut
pract ices
gov ina
ef ficient
relev ant
cer t
grant ed
rou te
r and
w ound
dut ies
rus h
0 2
cept ion
t ory
b la
f an
l ending
fel low
ag an
pl at
f ro
revolution ary
austral ian
part ial
u le
pe p
commission er
ter min
ch en
refuge es
g ia
strong er
ext ended
3 bn
business men
spo ke
al ex
shif t
introdu ction
k an
ma j
con vention
satell ite
dec ades
vis ited
mill er
we ar
vo y
marg ins
re put
b bc
it o
k le
fa x
fru it
world wide
pe ak
declar ation
he at
invest or
eas ier
ris ks
int ens
pe as
min ent
pre lim
n it
the ater
j r
ut ical
s fr
j ac
exp enses
lawy ers
ind ist
fl u
possi bly
ma ce
jo e
prim arily
us ers
mat ic
buy ers
p ir
mor al
full er
c ue
p ad
m its
com promise
economic s
reveal ed
b acks
wal es
n ur
rapid ly
gro wn
contribut ed
off ensive
xin hua
gold en
refle cted
ie ties
shang hai
she ll
ab ilities
dis ease
hard ly
out standing
f oun
th ro
as ide
resist ance
mic ro
peace ful
con vent
beha vi
cre te
ent ry
e ag
sit es
terror ism
ud ing
negoti ating
b t
bank rupt
report ing
s ad
colle agues
be ls
j am
weak ness
g in
ar af
s ed
stru ck
1 10
indist inct
v lad
re placed
or ing
ine vit
ail and
out come
pres id
th ailand
d ress
forecast s
c of
compens ation
me rely
ho tels
st ers
ye v
ent re
araf at
g dp
g aza
mult i
qu ant
psy ch
se con
s le
j evo
c any
a po
liber ation
exter nal
bro ken
equ ival
ju red
sh ado
aca dem
ol der
dis covered
co ol
ant icip
r ical
con vin
com rade
ab s
atl antic
un ification
em bass
poll ution
itz er
stand s
prelim inary
vis ed
reco ver
rat io
the s
hur t
pos ing
secon ds
wor ry
scre en
sara jevo
missi le
famil iar
7 3
mill ions
di vers
custom er
ca th
off s
con firm
sub sequ
dis crimin
controvers ial
t ion
nor m
if ul
ben ch
exper iment
stri kes
respon ding
expla in
affe ct
os pace
spec ulation
fe wer
expendit ure
plan es
bai jan
argu ment
bur n
e eu
7 1
h ans
phys ical
azer baijan
pol ish
de v
phar mace
8 6
aer ospace
s ist
ment al
speak er
argu ed
trust s
in su
q tr
exist ence
hand ling
ple as
particip ants
convin ced
consequ ences
re mark
dis ast
in jured
c dollars
resol ved
st im
pharmace utical
qu es
mon op
palest inians
sh ops
ate st
ou d
bo om
aggress ive
gu ards
val uation
gre atest
fer nand
st ol
exact ly
m organ
hol der
st ret
c ia
re tired
p last
var iety
br ight
ig no
crow d
py ong
x on
al co
g ab
scot land
histor ic
en able
con ven
king s
sh r
wh it
up per
g if
t asks
accom pl
fish er
dist ance
colle ctive
pr ised
wel fare
implement ed
sub mitted
su peri
9 00
mi xed
aspe cts
every body
bar bar
net works
touch down
skill s
sur prising
pass ing
cam bod
significant ly
leav es
cent ers
re marks
d ance
li ved
see ing
attra ctive
gol f
po ver
to ol
chri stop
in i
effective ly
is ol
schem es
kill ing
7 4
jef f
con secut
consecut ive
n ol
war m
k g
7 9
bor is
the ning
b um
lawy er
ation al
as c
ton y
la x
establish ing
tem per
mo bil
attra ct
cost a
ay a
mean ing
pat tern
equival ent
sco pe
regard ed
obser ver
obtain ed
an x
lob by
employe e
re p
her ze
hun gary
regul atory
sh ir
cr imes
sh ed
ac cus
de feat
con crete
e ll
amoun ts
our s
free way
8 4
ex pl
st ad
stud io
sur face
health y
re move
un ified
pre ne
con dem
re pair
il s
k m
re moved
m d
199 6
high way
maintain ing
herze govina
pi pe
un changed
8 1
gir ls
$ 5
ab ol
perform ing
demand ed
dr in
bor ders
could n
extra ordinary
hor se
ad opt
ter y
lou is
advis er
appro xim
c c
short ly
sp ar
susp ic
pros per
all ed
archite ct
sett led
cy cle
resign ation
kaz akh
w y
per mit
o ak
new port
gor bach
assess ment
oppon ents
au ction
subsid ies
tay lor
be ver
bank ers
obvious ly
dar k
cons ort
r it
gorbach ev
back ground
lu ck
miss ing
invest ed
ext ensive
s ie
sho re
fuller ton
no body
che ap
atmo sphere
attribut ed
live red
fa ith
ac cur
sha pe
ex changes
ar ity
h ay
reason able
privat ization
le x
chest er
perform ed
h its
promo ting
sens itive
bal lot
l um
ma inten
own s
cor ner
equ ities
li a
mainten ance
c ance
compla ints
crit ics
six th
d ry
guaran tees
main land
applic ations
am id
streng thening
cof fee
la ps
entre prene
bow l
prom pted
at o
ti er
u cla
de livered
pol ls
bri an
civil ian
cl es
star ts
retire ment
hand le
distric ts
compe te
emer ging
found ed
program mes
h art
cre w
out look
beg ins
constit u
grad ually
help ing
encoura ging
us sr
s ight
le m
involve ment
technolog ical
cho sen
bab y
hab it
histor ical
determin ation
du ma
a wa
c oura
alli ed
i ver
appear ance
w art
ration al
superi or
hand ed
ris en
j acks
art ists
fran co
democr at
bur gh
in cent
suffer ing
cho ose
susp ended
aut umn
l us
ent ed
refle ct
sele cted
br on
ck er
jo ining
recomm ended
respective ly
win ner
con sen
mes a
abs ence
sub scri
se m
div ided
ca ut
inquir y
social ism
am i
p son
entire ly
th ai
n ice
ib m
sp on
o le
rang ing
under stood
whe el
pe l
n ie
beli ef
alleg ations
dram atic
ton ight
commit tees
con vers
un like
pain ting
acquis itions
fair ly
ana heim
s n
transa ctions
s port
ne st
l end
8 2
fl or
am b
b om
h k
e cu
an ne
christop her
fun ctions
do d
itar ian
scient ists
ag on
c pc
as y
can cer
vent ures
near by
8 3
mon d
sym bol
communic ation
car ds
50 m
um es
f ab
per u
encoura ged
des er
f ans
abort ion
la id
t z
support ing
except ion
t ied
shop ping
dispos al
act ed
econom ist
ite ly
allow s
pyong yang
s mu
st ick
rel uct
insist ed
ber lin
guil ty
re min
consen sus
198 3
ic ate
10 3
2 000
re turning
fam ous
pred icted
visit ing
ar bit
pres sures
con tr
t ree
estim ate
success fully
dire cted
ant on
dre am
don ald
defe ated
dri ver
lift ed
cover ing
li br
cu ban
k ans
ran k
rece iving
amend ment
fish ing
organis ations
embass y
reach ing
interest ing
would n
$ 4
k ash
f ers
barbar a
u bs
approxim ately
with draw
ro ber
i x
lag una
r oun
jacks on
ha ven
alco hol
alli es
do zen
convent ional
che a
wa ke
sp ons
din ner
ext end
tele com
r d
pat ient
ou red
sched ule
ch ile
fund ed
bas es
im plic
wor ried
ac compan
stu ff
12 5
$ 10
represent ing
prepar ing
si zed
y er
excl usive
se oul
con test
reput ation
croat ia
leban on
4 bn
or gans
p ure
sher iff
fa cts
experi enced
gen eva
robin son
ph y
special ist
some what
tre es
ro me
f ile
p ensions
le wis
geor gia
cany on
p ages
inv ited
fin ish
stead y
lead s
loy al
bel g
prep are
sign al
st ac
hun garian
suppli ers
ch ong
vietnam ese
b att
ze al
gh an
uncertain ty
ent it
pil ot
lo west
u z
t ables
g s
stor ies
def ensive
introdu ce
public ation
m t
stri p
cop y
machin es
ram s
intel lect
home less
cru cial
mass ive
presid ency
sy n
su its
advis ers
post s
qu ot
push ed
k ir
sur r
do ctors
l ights
over come
g ay
excell ent
special ists
sur ing
consort ium
bre aking
re agan
neighbor hood
roun dup
art ist
champion ship
econom ists
ac res
im f
wa ve
fal se
apo re
e igh
ul ts
fo c
big ger
in sure
be half
gm t
s cor
se ized
commod ity
il ateral
199 7
dou glas
chan ne
sing apore
ab use
be th
profit able
dri ven
h d
the red
detail ed
sur ge
republic s
numer ous
contribut e
prosecut or
mult ip
down town
in ning
watch ing
sw itzer
k ick
profess ion
do ctor
1 30
pre v
vlad im
d pr
sho ts
un usual
ro d
education al
eng ers
prom ises
cl ash
pie ces
d im
19 60
oper ators
proced ure
sal ary
gr an
ar gue
fru str
pass es
vol unt
t am
ut ed
put s
commun ities
hunting ton
ko hl
pick ed
croat ian
unfortun ately
sur prised
je an
al ban
b are
gu id
u ations
al ter
ver sal
bran ches
turn s
w ins
brief ly
n ad
re fin
shor tage
con trad
resul ted
in nov
ad ed
qu ake
me at
bon n
mi x
l ers
ed ition
real ize
disast er
st al
x ia
bal an
int ends
val id
dpr k
econom ies
har ris
al ger
sent ence
an k
res cue
emphas is
in ov
smo oth
ad voc
my self
use ful
syri a
initial ly
con v
tal ked
ob stac
nation wide
are t
c ult
how ard
regist er
ex em
col og
comp let
be er
character istics
expand ing
serb ian
n an
e at
feat ure
er m
s ar
fran ch
sovereign ty
am p
coun ts
ob serv
clar ke
ca iro
deli very
demand ing
visit ors
en or
d ated
ru b
coca ine
frequ ently
re cycl
c ros
ch ev
equ ally
pict ures
fa ster
super vision
wr ight
proper ly
expand ed
f ate
ac ade
under lying
ex po
bo at
l is
g ill
our selves
alu min
as ion
pro li
wel comed
en ger
mon ica
w ang
s we
satisf ied
pet role
borrow ing
switzer land
il it
bak er
par king
s now
pro motion
hy dro
se ed
p m
acade my
surr ounding
gree ce
n om
depart ure
ick en
ill u
w ick
nor way
thin ks
product ivity
is ms
ing er
p ier
swed ish
pass engers
il lo
gain ing
figh ter
198 2
adv ant
happ ens
pul led
dis closed
destroy ed
at om
vol un
iz es
err ill
absolute ly
precise ly
we igh
malaysi a
move ments
gu ys
do ors
apart ment
s add
guide lines
foc used
af ghan
ab led
m n
gu errill
10 1
re ference
share d
bo ston
wat ers
week ly
teach er
tax ation
en to
origin ally
har m
tour ism
sol utions
int end
vladim ir
m ich
resident ial
6 bn
petrole um
k ie
acknowled ged
sit ting
su spect
ld p
1970 s
r ance
accompan ied
e mot
ful fill
comb ination
publ ishing
belg ium
cere mony
impress ion
strate g
ur ugu
concentr ate
provin ces
cot ics
ke en
ig an
u ine
urugu ay
nor man
valu ed
if ically
sil ver
pol y
clim ate
clar k
p up
viol ations
con stru
o z
for get
pro hib
pr int
rid ge
austri a
attack ed
ha ir
jud icial
leg ally
tren ds
compet itors
coun sel
sh i
broadcast ing
kash mir
end or
bit ter
tot ally
cad res
ot ic
vir gin
indones ia
sw im
mou th
council s
deter ior
v igor
w ides
de ar
m ul
argent ina
p ap
os lo
dis ney
in f
var i
mil k
d eng
firm ly
j ump
re bels
feat ures
dep ends
dig ital
bul l
active ly
ing ly
h ut
lev ard
retail ers
bou levard
is ive
to x
ca uses
us hing
l ind
sudden ly
pur poses
kazakh stan
concer t
implement ing
wid er
ap t
she et
dec ree
pover ty
pat rick
elect rical
resign ed
investig ations
s ab
s car
pul l
bac king
prom ising
y ong
assu me
reco vered
contro ver
cit ing
recogn ition
re str
official ly
hop ing
work er
ve get
mo v
gr y
former ly
wides pread
min ster
form ing
tariff s
ex plan
comm ons
pr ince
form ula
ic ting
cli ent
b ors
stad ium
pen insu
refle cts
ne ther
res ort
mon te
require ment
h at
y r
v ard
int ense
chap ter
norm ally
le is
dead line
intellect ual
10 4
st ars
b read
fl ed
fe ed
controver sy
un expected
ad ena
ia ea
improve ments
ke i
nar cotics
care fully
public ly
mo od
ann ivers
sele ction
ran ks
cath ol
optim istic
confront ation
em en
je ction
compla ined
excess ive
terror ist
gi ant
en n
an i
technolog ies
1 15
en z
ar iz
pro minent
re es
sess ions
mor ris
con i
c av
te ed
seven th
hen ry
philip p
diffic ulty
oun ce
guid ance
conne cted
fernand o
sy nd
class es
min es
pe st
alleged ly
ab sor
gon z
delay ed
russi ans
weap on
n ick
con sc
orient ed
sub mit
hospital s
sch ol
cess ions
curren cies
fil ms
car los
fin ds
it i
mass es
refer ring
wh oles
prop ag
monitor ing
ul u
us c
peninsu la
de liber
youn ger
indic ate
pl ent
for cing
se pt
au x
k om
list en
dis play
pass enger
guaran teed
import ed
sol ved
conserv atives
president s
de ut
pers ist
quarter back
eigh th
nether lands
div isions
domin ated
political ly
char ter
re ject
f lying
recommend ations
sal aries
wound ed
depos its
ka wa
bern ard
transfer red
e gg
beaut iful
press ing
imper ial
c ig
vis its
so red
volun te
caut ious
re ck
scand al
d ick
je wish
re w
her it
mode ls
con vict
i ques
produ ctive
dy nam
jur ies
id er
je t
bo tt
solid arity
arri val
gr ass
academ ic
v ul
off set
confl icts
ten nis
ar ian
w ag
8 bn
con text
li by
lo pe
proli fer
prote cted
bl ame
d ies
1 p
behavi or
bl amed
friend ship
f ier
secre tar
uni que
sent iment
ban g
west minster
negoti ate
excer pts
supervis ors
annivers ary
sustain ed
e la
con vic
ta pe
m ates
yield s
ri de
chan ces
re tt
im pose
reported ly
ke vin
camp us
ad mit
bad ly
gu ang
bes ides
ho so
in fe
dan iel
traffic king
tr uc
spec ifically
anal y
n az
in vent
defin ed
ist a
mar ried
class ic
ra ge
real istic
foreign ers
af r
on t
se min
arab ia
comfor table
kin ds
consist ent
thir ds
max well
shado w
bankrupt cy
reut er
carri es
le ase
hoso kawa
car l
bel gian
mat ure
channe ls
cat al
198 1
gen uine
sa v
k ent
cate gor
f old
sou theast
h r
aim s
argu ments
gun s
bar rel
typ ical
g ence
anim als
doub ts
sh im
brazil ian
car ol
refer red
iran ian
f asc
at ures
ran ked
acqu ire
jum ped
ra bin
ar th
mac ed
in y
flor ida
s que
house hold
pl un
soc ieties
favor able
f la
m end
li ability
7 bn
z ero
develo pers
got ten
com posite
renew ed
v ian
col laps
amoun ted
de struction
advant ages
argu es
proceed s
resul ting
fin land
valu able
cra ck
10 8
spon sored
tax pay
flo od
man i
r as
thor ough
iv an
n in
tic kets
achieve ments
to bac
op ing
t at
mot ive
l unch
$ 100
ev ident
roman ia
neigh bour
ton ne
appro ve
n ich
happ ening
enor mous
phil o
coura ge
art icles
govern ing
ide ological
wh el
pas adena
ch or
ev alu
sh ap
qual ified
v y
ur ally
paper s
suspe cted
trust e
tun nel
ar i
p ian
except ional
discipl ine
brief ing
tobac co
in ch
operation al
n as
pro position
min im
ant ly
pl ate
h ann
t um
contr ary
p ending
soph istic
mus ical
ic ated
har bor
oun ced
fran c
ext ension
den mark
instru ments
az z
medic ine
contrad ict
work force
jose ph
tell ing
ip ped
11 1
blo c
resu me
exp ense
u ous
ca ution
clo thing
r ill
str ing
expo sure
complic ated
pr iced
philo soph
it iveness
congress ional
di am
br ings
contain ed
helicop ter
se al
neigh bors
necess arily
en h
anim al
jer usal
in juries
c ip
colomb ia
jerusal em
crit eria
ab u
disput es
pro to
jud gment
ut il
bo ards
en cing
investig ators
respond ed
cir c
re vised
hel ps
a a
con cessions
libr ary
tic ket
zeal and
gener ated
eld er
embar go
labor atory
tar ge
redu ctions
compet itiveness
de e
ic ks
elimin ate
ro ots
up set
entit led
fa ult
z ones
son s
cover age
10 5
prison ers
credit ors
german s
ie st
sh ak
ve to
im ents
im ony
athlet ic
pl en
ger y
in no
prosecut ors
re call
repeated ly
s &
n ative
t ension
reser v
rest ore
par ks
gr ay
finan ces
than k
lad y
merch ant
fo ster
to ll
territor ial
prolifer ation
andre w
coun ties
fl ights
phen om
sur ve
o y
convic ted
hur d
trou bled
he ight
e ing
sp ill
l ac
tact ics
ne ll
co pe
object ives
coordin ation
h ired
over whel
pan ama
ren tal
ri o
pat rol
ca a
second ary
rang ed
197 9
il a
2 p
cir cu
bl ess
be lar
d ale
occup ation
ca using
bever ly
ne ys
pro of
fo ods
exhib ition
an th
r w
ultim ately
muslim s
d ir
ra cing
ken ned
end er
t all
enter ing
wal ker
ens on
f m
sw ing
mac ro
pet ro
assu red
tan ks
en na
critic ized
preser ve
c bs
ro c
enh ance
crime a
nel son
engine er
cu red
d red
us ions
scor ing
v ous
ad s
cred its
3 p
s cra
in jury
gen e
tr ay
emp ire
con ced
minist ries
ken ne
p att
purch ased
ro t
de pressed
b ail
s dp
research ers
co ck
die t
14 0
r ass
cas ual
complet ion
threat s
bas ically
moder ate
ho le
st ro
regist ration
ar agu
immig ration
jud ges
g t
kenned y
col on
ro ger
re called
i h
nat urally
sim on
sa u
b io
town s
mar ri
accident s
belar us
cal m
mov ies
t il
restaur ants
inv itation
refle cting
jer ry
cert ific
k al
peop les
dis missed
press ion
rail way
opin ions
con temporary
rest ra
d d
feel s
cop per
lan e
y ar
machin ery
1 st
ch ing
sli pped
dec isive
lear ning
metal s
me ters
eng age
es cape
tra ined
ter ri
lic ense
oper ator
ce ase
ven ez
b b
plent y
ash ed
z hou
ur gent
ber lus
in n
10 2
nic aragu
legitim ate
accoun ted
in ner
that cher
ran king
gab ri
cr ude
ter ing
berlus coni
ue z
attem pted
persu ade
dou bled
foun der
prev ail
tra il
colle ct
pe re
is er
co o
eng aged
gu ess
t one
ch uk
plast ic
cor ps
smu gg
see ks
signific ance
hal t
leis ure
surv ive
cir cles
lithuan ia
salv ador
1 12
concentr ated
truc ks
and erson
k ha
the me
attra cted
inter pret
der iv
explos ion
consult ant
bre ed
a wards
to wer
end ors
mist ake
expla ins
que en
substantial ly
under ground
pil ots
spec ul
reut ers
sw ap
si ble
ident ity
pt ions
des ert
assign ed
award ed
sho ck
veter an
witness es
ok ed
phys ic
100 m
qu it
integr ated
condu cting
st ir
lif ting
st ip
col leg
g us
h ire
ren der
r or
cathol ic
arrange ment
react or
lar ry
assa ult
car bon
ev ol
dan ish
compar ison
ear n
nich ol
embar rass
e colog
mot iv
roll ing
har mon
kie v
egypt ian
oper ated
i ence
coast al
fail ing
ball ad
h id
diplom ats
viol ation
deut sche
xia oping
v as
all en
ul l
bal tic
responsi bilities
viol ent
share holder
mass acre
co tt
us dollars
kenne th
fe male
pr ud
bus y
great ly
cred ibility
con version
aren a
vul ner
ren a
dri vers
pursu e
m ers
associ ations
bru ce
suggest ions
claim ing
co inc
pun ish
deleg ates
th ri
hand led
m ate
install ed
emphas ized
view ed
at ically
tin y
wal ked
en han
sist er
bar cl
develo per
deal t
wor ries
atom ic
ro g
mo dif
soc cer
bish op
coach es
s ending
man eu
consc ious
ra c
me re
mem ory
enthus ias
threat ening
vol umes
sci ences
f ought
invol ves
k ok
3 50
af raid
th rew
e ts
igh ter
tr illion
cor responding
person ally
cent res
expl oration
demonstr ated
col labor
ul s
advis ory
real ized
str ange
ii i
was h
c key
all ing
abandon ed
cambod ia
sal t
pr icing
optim ism
her self
where as
republic ans
stor age
is lands
nav al
shar ing
enjoy ed
study ing
address ed
tack le
uni versal
performan ces
at lan
joint ly
invest ing
carri er
par ag
council man
ju an
vis ible
techn iques
impress ive
p ent
ne ut
settle ments
n ish
w av
op pose
question ed
sh am
test ed
zh ir
pr us
dam aged
depos it
to s
al bum
volunt ary
enthusias m
l uc
peas ants
ann ually
purch ases
conf usion
request ed
over night
tru ly
dep th
gabri el
imag ine
p ill
prom pt
bl in
war rant
cot ton
ra cial
deep ly
serb ia
$ 6
4 p
guest s
l n
emer ge
ple ased
human itarian
v at
prepar ation
ap ple
p ushing
adjust ed
em in
recon cil
am bit
fe in
op ens
comp at
olymp ic
stri king
gra ve
en vis
pli ed
def ending
exam ination
ap pointing
comfor t
ue la
comp li
slow ly
chea per
s d
g ory
inter medi
j in
z ing
ste pped
c en
test imony
my ster
vi k
p lot
on ian
ch icken
or i
in tim
i at
b ust
atlan ta
zhir inov
trans l
dis co
clo thes
si an
convers ation
ch ip
k ne
promo ted
af p
gr at
civ ic
contain s
bureau cr
tend er
coun ted
h ata
h in
sh u
10 6
tox ic
armen ian
gil ts
ug al
divid ends
spokes woman
s cept
hun ter
wo ol
18 0
m ud
re bel
acc um
read ers
pr oud
kans as
c n
purch asing
exam ine
ugh t
bre a
dro ve
sophistic ated
br ig
stud ied
el ig
multip le
ill i
oblig ations
bl acks
h s
a qu
ed in
mi ami
yemen i
vol at
ident ify
d ol
constant ly
d at
pra gue
ans wered
am o
tri als
doub ted
sac ram
ich o
prosper ity
be aring
10 9
balan ced
ab or
sle ep
tan k
sacram ento
bir d
om er
es cal
frank fur
ge ograph
deal er
emp ty
activ ists
des per
us er
resol utions
high light
n kr
challeng es
lic ens
associ ates
ner vous
sen ator
ang lo
rout ine
sub marine
process es
priv ately
un k
win dow
sho ot
hun dred
de valuation
ambit ious
nik kei
finan ced
legisl ature
alumin ium
flex ible
assu med
ser ge
expendit ures
regul ators
sit uations
thom pson
in cur
ran ch
k on
k c
proceed ings
lu is
wall s
ph ill
propag anda
t ag
sup ports
da ve
1990 s
st ed
en suring
willing ness
cate gory
b m
ple ase
replace ment
et c
compe ting
anth ony
host ile
consider ably
rout es
stay ed
w u
cro p
miss ions
cro wn
cl er
aspe ct
incident s
pe c
any body
head ing
so il
arab ic
remo te
ha ul
excl uding
bid s
int ensive
par alle
ish i
cy prus
enthus ia
in comes
watch ed
discrimin ation
a o
b ath
ap pla
reli able
penal ty
hk dollars
sent enced
sele ct
a del
jur is
n caa
bul k
tradition ally
sim ult
gall ery
fier ce
investig ating
hit ting
flex ibility
defin itely
un known
est onia
factor ies
simult ane
hard er
ph ony
mountain s
k itch
c m
re iter
excer pt
d il
10 7
n ag
commit ments
king dom
ale z
f lot
j es
pion e
kee ps
an te
gonz alez
te a
fri ed
spe ctive
od d
ta ste
act or
ar io
pal ace
monop oly
barri ers
cre ative
discus sing
op posite
dis appointed
hou ston
but ter
season s
mid land
ste phen
m ess
de gre
s ick
res idence
particip ating
ro of
w ich
well s
tra ve
t ang
lat ino
sha w
pres cri
satis faction
dr ama
dra g
minor ities
ber y
il ton
ou se
j azz
restr icted
net t
f y
further more
dis miss
the o
roll s
emot ional
to ler
k or
tell s
in spect
le an
d al
r ud
recogn ized
tour ist
ob served
achie ving
ut ility
alex ander
z ens
recycl ing
y i
r ated
safe guard
un anim
war ner
sque e
subsequ ent
fi x
do ws
degre es
ta j
mot ors
autonom ous
k n
ariz ona
mand ela
geor gian
z es
ch ern
de cor
tal ent
buy er
nat west
compar able
gener ate
auto matic
sur gery
un fair
he ll
inspe ctions
k am
p om
yel low
cir cle
8 p
pe ar
on ing
un employed
adjust ment
win dows
d ong
z er
l ists
at tain
p au
suit able
bul gar
ex ists
mag n
in nings
protest s
pla in
blo cks
j on
f ts
contro lling
profit ability
parag raph
ge l
mee ts
gr ants
or chest
comm issions
strict ly
under taking
per mission
essential ly
ex posed
ming ham
news wire
teach ing
k ol
regard less
mist akes
prior ities
crimin als
di ag
s is
repe at
bir mingham
st ages
gro ve
ch art
un identified
collaps ed
pipe line
pitch er
tr im
prefer red
se attle
inevit able
colle cted
port ugal
post ed
ed ward
the tic
subsidi aries
id o
1960 s
comment ary
hone st
ks and
e y
k as
nor we
sk in
bor ne
at ty
government al
decl ining
11 3
ut ilities
cam ps
dist ur
autonom y
we aring
orchest ra
ig e
in sp
lor ds
ir s
bul let
indic ation
con spir
advis ed
st ing
reluct ant
ce l
re construction
swee t
one l
j ar
ast ro
success or
s ino
sh ake
appe als
e k
illu str
corpor ations
negoti ated
consolid ated
author ized
loc ations
ma o
un ve
z i
or ies
cl ubs
be an
commun ists
har vest
law suit
pos sess
depend ent
carri ers
$ 20
bid ding
strengthen ed
ass ass
p ta
armen ia
1 19
fol k
suppli er
death s
rival s
ag rees
man chester
ing u
home land
bre ach
de regulation
sol ic
t ent
ug g
jer icho
ill ery
mil an
trans formation
9 bn
ri st
rough ly
kle in
ship ping
comed y
fab ric
wal king
transa ction
bu ck
sup plement
s la
prote cting
dict ion
im p
197 8
$ 7
inv asion
not ably
att ending
pri ze
m all
cu se
inflation ary
ide al
obstac les
potential ly
feel ings
cast le
conserv ation
h ence
win ners
zhirinov skiy
16 0
au th
col l
cor n
succeed ed
z ulu
ct ic
b one
hu gh
bro ok
b p
engine ers
p ist
investig ate
tact ical
explan ation
sell s
ar ranged
b old
cap tain
block ed
ad ams
spect ac
war saw
j ol
$ 50
ga thered
dr ill
barcl ays
10 m
remark able
an gry
g ates
dr ig
en de
mar ines
nit ure
fur niture
per ce
re ward
6 p
attem pting
way ne
mad rid
endor se
consid ers
just ified
de voted
ro drig
demonstr ations
some body
lux ury
smo ke
surv ival
dr ink
co vers
mos lem
arth ur
frankfur t
overwhel ming
lin col
distribut ed
lo d
bare ly
eng ines
je ws
reb ounds
suspe cts
tra ged
progress ive
end ale
lincol n
worth y
express ion
ay ing
bos s
charact ers
launch ing
brad ley
ev al
integr ity
tim ing
co w
instru ctions
ham mad
cont am
h end
achieve ment
ac o
advan ces
kra v
taj ik
rece iver
is o
fo x
st akes
temper ature
fin ed
suppli ed
initi atives
vi enna
sex ual
ange ls
neut ral
07 1
cham p
us a
peace keeping
min i
tri ple
arrest s
war s
list ing
s ounds
has n
vulner able
ch ron
ans wers
pe ters
ag ger
off ense
den nis
thro wn
text ile
clear ing
50 s
remo val
wholes ale
dist ingu
c ite
cre am
se c
es cap
as p
vill ages
am an
slovak ia
gor don
ce ment
finding s
re creation
eag er
om a
in as
con gl
st en
co operate
min ds
am az
do ck
ar do
fa ctions
ha ust
ex haust
regular ly
the rap
min eral
prosecut ion
possi bilities
lam ont
it able
ut en
politic ian
kid nap
moun t
ad am
gradu ate
gil t
al ing
maced onia
mechan isms
abo ard
recru it
not ing
calcul ated
associ ate
critic ised
pharmaceutical s
c in
wol f
gra ce
hid den
attor neys
al ive
lat via
consult ants
strugg ling
terror ists
favor ite
off shore
20 m
moment um
defin ition
pre ference
sub jects
rel atives
sa ges
to urs
su dan
suspic ion
cour ses
ra ises
ro lled
dam ages
b ie
exam ples
in al
hol y
auto mobile
art illery
fav oura
po w
scen es
indic ates
bar ry
pop ul
post pon
arri ve
if ies
immig rants
pro cure
err or
man s
pen n
clim bed
pre st
bulgar ia
expe cting
sing er
your self
li kes
aff ili
d all
ut on
inter pre
b last
t ian
ch ose
lope z
earth quake
wonder ful
polit an
y as
accur ate
congl omer
port ugu
inter ven
care ful
gian ts
t is
gl endale
sa ved
patt en
adel ph
consult ations
form ally
des k
per mitted
none theless
pass ion
inno cent
pos session
spirit ual
ad ult
ap p
hans on
spec ies
t ip
tre mend
krav chuk
exam ined
bol iv
k arab
re ply
ter ry
mi kha
con ting
eas es
edin burgh
dr um
haz ard
entreprene urs
c ree
fail s
bur ning
th o
bra in
trans it
any way
he y
no ise
mer cur
cros sing
administr ators
l li
any where
aud it
un dan
f fe
sh an
expert ise
herit age
ron ald
boost ed
nin th
n ak
phil adelph
are r
philipp ines
cooper ative
do zens
am ing
n bc
pled ged
ban ned
pack aging
red undan
se mi
se cured
sure ly
ire ct
dep ending
compon ent
play offs
philadelph ia
th ick
gather ing
ma th
ll er
em issions
concl ude
eas ed
phenom en
den y
contain ing
rad ar
ab c
ballad ur
pet ition
g le
break through
$ 15
s wi
text iles
man h
c art
7 p
tro it
compla int
diplom at
camp bell
a e
pep per
mag ic
be red
ne il
de troit
flot ation
ch ips
iy a
ra ces
cur b
dm 1
ph ones
serv es
anticip ated
mikha il
circu it
ber ry
contract ors
bour g
sol ving
czech oslo
$ 8
de em
rad iation
jo hann
deriv atives
t ine
re lax
sign als
k ler
mur ray
campaign s
gent le
ang ers
accompl ish
jan e
g art
kitch en
sp ur
uni form
elder ly
par amount
on ed
business man
crime an
atta ched
plat form
v ich
z am
tr ick
as surance
sy l
vik tor
ju li
fl our
rodrig uez
auto motive
cap abilities
car ter
dis closure
im ages
issu ing
incent ives
stan ley
susp ension
portugu ese
trans mission
m m
mo ore
franch ise
d ign
dis man
fr ing
n p
anton io
frequ ent
in sul
el s
ad option
syri an
palest ine
li p
mic hel
represent ation
prevent ion
dev ices
sub stance
pro jected
con tem
czechoslo vak
2 nd
war ren
luck y
re sum
30 m
bo eing
dist in
proto col
gif t
reconcil iation
bl ind
implic ations
war burg
ich i
col onel
convict ion
sco res
psych ological
truste es
ad mir
bir ds
em bra
holiday s
ang le
liberal isation
11 4
intent ions
in er
demon strate
j acqu
song s
v ary
quarter ly
rating s
pra ised
id ers
stead ily
lloy ds
f on
la us
sau ce
ro th
dis appointing
retail ing
request s
al ia
design ated
up s
ange l
in ations
gra v
for t
fac ilit
ko zy
o ta
lie uten
pat ch
ann y
ig er
ip ounds
se mic
inc umb
aggress ion
me yer
consult ation
oper ates
delay s
pro cur
gang s
supervis or
cell s
ad mits
rober ts
afghan istan
cle ve
r ho
h unt
priv ile
satis factory
al a
ad ing
element ary
introdu cing
con federation
v ista
diam ond
de but
be e
id s
meant ime
nol ds
traged y
o aks
schol ar
suggest ion
should er
ar o
g ut
brand s
common wealth
concentr ation
eval uation
k k
ov a
ev ans
in ated
ro cket
met all
stor m
karab akh
pay s
un doubted
ig ation
respe cted
minister ial
11 8
br illi
z ion
om on
quot as
experi ences
re ci
targe ted
cro ps
ind irect
du blin
eas ing
igno red
local ities
k haz
insure rs
e cho
war ns
popular ity
col umb
conver ti
cost ly
hear ings
round ed
t wi
en voy
there by
in corpor
er ies
capt ured
v d
fe as
ist ical
el abor
ped ro
h ors
kil ome
b ren
decre ase
cr yst
n ard
categor ies
b au
univers ities
col our
relig ion
mercur y
ne sty
2 13
sp d
lo gic
r ug
helicop ters
ksand r
beaut y
serv ants
mer gers
el tine
drin king
wish es
on du
ph r
broad er
reg ain
turn er
mich igan
ic ation
ide l
dis s
be c
suggest ing
semic ondu
m ong
mult ilateral
sub stit
tri um
accept ance
far ming
re ll
neighbor ing
modern ization
color ado
tour ists
rev ival
so vie
nor d
pa int
sc ul
design er
un preced
ref use
beat en
op ol
sovie ts
smugg ling
renew al
a ide
ative ly
v on
thor n
cleve land
recommend ation
op ard
per spective
comp art
re verse
smo king
bal let
am nesty
every where
he m
unpreced ented
17 0
cell ular
vir us
de re
tou ched
glo om
ad ults
taxpay ers
xt ure
consul ting
comb ine
spec ified
jordan ian
b out
kler k
far ms
sac rif
alger ia
g ib
ra b
h ide
3 rd
ol ine
trad es
disco very
stret ch
commun ique
bud gets
d ates
mur phy
ce iling
im mun
land ing
att an
marri age
it udes
cr y
dall as
rest oration
in adequate
flow s
pe te
memor ial
di ver
oh io
al located
ni xon
vol ks
ul ating
comment ed
procure ment
kozy rev
ay n
lo ose
columb ia
g ren
relation ships
con vey
indic ators
c d
p he
re ne
hand ful
jun ction
diag no
11 6
particip ated
auth ors
metro politan
name ly
arm ament
ict ion
str on
pre gn
du al
read iness
us s
ly on
x i
low s
le ap
condem ned
ab khaz
elimin ated
feren ces
st am
e pa
st aged
leban ese
account ants
oak land
tool s
500 m
per io
field er
ran cho
perio ds
euro track
dire ctive
civil ians
d ian
down turn
che cks
da i
consul tan
load ed
se in
gar cia
demonstr ation
rey nolds
ref usal
hes eltine
bre aks
je opard
similar ly
requ iring
privat ised
he t
dum ping
consist ently
fl es
r iding
bag hd
lo ved
prin ting
rel ating
batt les
t ensions
ine z
ox ford
law rence
be ating
de uk
deuk me
ge aring
subsequ ently
norwe gian
del ight
k at
econom ically
che ll
ur ies
ste wart
lo cked
lt d
sh in
north ridge
11 7
ran o
trium ph
ins ists
champion ships
jer sey
public ity
national ist
con stra
tra ins
ev ac
york shire
mo on
baghd ad
gr im
ro les
an ium
t ab
mat ur
be ef
know ing
be ars
lieuten ant
deukme jian
are st
aware ness
he ights
ren ts
op posing
equip ped
per mits
ge red
johann es
ultim ate
9 p
ator ies
n af
pled ge
mar ia
sym phony
legisl ators
employ er
con fron
inevit ably
re unification
cap ability
re vers
sho es
ific ations
accus ations
review s
re nov
25 m
ag er
gra ham
ta ught
mur ders
soph om
open ly
dis eases
se ctions
lin s
ex porters
concl usions
ind ices
cust ody
ul ous
min ded
guerrill as
f lav
ju ana
act ors
tun is
st a
tremend ous
pre m
s anti
interview s
pad res
plen ary
negoti ation
radio active
12 4
re ception
coun ting
announ cing
pan ic
circ ulation
acceler ate
amend ments
hit ter
compli ance
r he
undoubted ly
whe at
phenomen on
s q
re cip
free ze
man ip
fe ared
pe tr
ill a
santi ago
ce as
experiment al
$ 25
organization al
te c
del ors
cir cul
anx ious
decl ines
re plied
gas oline
ham as
dis cre
pa inted
profession als
n iss
d imin
cult iv
clo ck
ad verse
review ed
lic ence
in tr
pe ts
reg ret
up grad
pl uton
v ation
ang ola
avo ided
liquid ity
sh ield
less ons
tri bun
flo ating
shel ter
$ 500
s of
athlet es
cat astro
eli za
paralle l
recogn ize
pluton ium
pract ically
block ade
val ent
is a
gu ided
hus sein
ep ide
bang kok
prepar ations
reserv ations
ag ers
hard ware
bre wer
hand ic
om yr
mom ents
v or
pot ato
char ity
less on
eth ics
colomb ian
organ ize
vol vo
prospe ctive
fre ight
pre de
te h
omyr din
lithuan ian
chern omyrdin
prevent ing
12 3
sub ordin
we b
rece ip
re m
per sian
produ ces
prede cess
at i
sli de
cam era
ur ge
regul ated
rare ly
m are
effect iveness
consequ ently
nat ives
not iced
g ments
od a
ten ds
pr on
hol es
in sid
la u
mag ist
as pir
z hu
nicaragu a
ach es
ha wa
arch y
ro k
y ur
pl um
be ck
s ang
fo ol
li u
c p
influ ential
quo ta
t ort
deploy ment
termin al
gard ens
elig ible
comp iled
in aug
j en
mo le
cle ared
wor sen
o ke
car go
a q
25 p
postpon ed
y on
pro long
gold man
th y
citizen ship
threat en
favoura ble
acce pting
prov en
vigor ously
p ine
stol en
spons or
wav es
ac commod
de vice
deploy ed
ak a
at ol
roman ian
resour ce
po ison
ic ide
pri de
ber to
c ater
ask a
tempor arily
mart inez
ind ians
tri ps
prov oc
an ci
ro e
com position
75 p
entreprene ur
constru ctive
instru ment
sl ump
house holds
squ ad
dict ator
dete ct
de ta
govern ors
sadd am
severe ly
argu ing
ie ga
pt on
comp ass
200 m
mand ate
cont ents
isol ated
min ers
sym path
reg ards
ne ck
hel mut
last ing
uz be
su san
c ant
gener ating
p eng
al o
manh attan
12 2
ov ich
stre ak
ten ants
virgin ia
monop ol
rail road
char ging
ed ged
some where
tor ies
ra f
fl ash
present ation
ste ep
qual ify
dan a
let t
commission ed
f bi
weak ened
ill ness
transition al
win ds
jacqu es
it t
negoti ators
incent ive
ceas ef
ge c
ac company
el li
em ig
painting s
gu in
ac le
hor n
d ens
re development
ur ging
rat ification
correct ly
niss an
14 th
ti bet
s nap
in habit
spectac ular
mic ros
d ia
inspect ors
program ming
stron gest
bur st
swi ft
juris diction
al y
tem ple
ger ald
inspe ctor
m ck
river side
bel grade
birth day
ot t
ch el
lind a
reiter ated
head line
u ated
ch s
div or
vis ual
organ ised
wor n
ad vers
v s
tough er
tend ency
with drawn
la kers
comp ly
h iv
vo ices
al bert
cons ists
terri ble
less ly
ry an
de t
johannes burg
gu ate
oppon ent
simultane ously
pr ay
a us
sett lers
pere z
fil ing
fin als
af firmed
ex it
consolid ation
prof ound
band s
chief s
12 1
i us
leon id
consultan cy
char tered
diss ident
theo ret
clash es
fresh man
teh ran
ordin ance
fi res
high s
st ically
re tal
che ese
philosoph y
guate mal
domin ant
occasion ally
li ked
har ry
wo o
he ed
scen ario
d ent
mit sub
vo red
he rent
fr ight
mitsub ishi
ro ver
rup ted
ak i
bu oy
secretar iat
vie jo
u ma
colon ial
comp uls
handic ap
inter ference
ad mission
st ag
un clear
ri e
mi xture
liby a
lot tery
affe cting
b bed
ay ev
ile y
la bel
sp are
bl an
pro pose
sophom ore
ve gas
forth coming
swim ming
br un
& t
mult ination
re jection
ann a
ap ol
olog ist
satisf y
ne v
wal ter
rum ors
w ra
le af
w ski
or ted
tor onto
approach ed
enem ies
def ended
descri bes
vo ter
tot alled
scr ut
pe red
s me
sli p
diplom acy
just ify
re vision
re hab
ch ry
corre ction
he ath
counter part
har sh
fortun e
o ks
command ers
re treat
mir ror
pe res
4 50
preced ing
insp ired
borrow ings
sol o
class ical
gen et
partial ly
mol do
address ing
kur dish
f ting
venez uela
ph an
mar shall
40 m
sur render
c ill
box es
mat o
me al
ceasef ire
elector ate
dod gers
eliza beth
pal m
advert ise
ste am
rough t
bar gain
19 75
ograph y
ar re
u ck
along side
ol ive
flow ers
sm art
rw anda
austri an
trig gered
un ders
mar cos
un attributed
fl uct
at tered
pursu ing
jun k
rad es
br ut
br ush
li hood
raid ers
cop ies
n ights
throw ing
att itudes
ch equ
trou bles
descri be
surprising ly
sil ence
hor iz
resol ving
r ounds
down s
igno re
pro mot
nor theast
israel is
to yo
separ ately
mu hammad
cam er
iv o
veter ans
v ig
hon da
sho e
h ip
ver dict
fin es
b ble
ri ots
ex citing
art istic
ec d
compla in
com rades
pen e
ac king
stim ulate
anci ent
bar gaining
gl ad
trans form
continu ous
mo or
la ce
stan ford
lyn ch
hus ayn
publish er
un acceptable
fro zen
ific ial
feren t
wh is
f lower
t ong
sh out
techn ique
o ecd
ad apt
vo iced
ra pe
p ig
drin ks
top ic
initi ated
weak er
ext ending
197 4
wel sh
art ificial
tor rance
he bron
interview ed
typ ically
vis a
bureau cracy
gor az
hors es
minim al
ange red
cham bers
benef ited
30 s
exceed ed
fir ing
in stant
journal ist
ware house
gl or
k iy
char gers
skill ed
goraz de
st ev
nor iega
test ified
def ine
seed ed
p lead
lev y
traffic kers
regul ator
m ens
occas ions
c ine
ac id
du st
dog s
mand atory
excl uded
comp ound
hy po
gener ous
e an
sam uel
ham ilton
4 th
conf ess
bom bs
fi at
athlet ics
cast ro
design s
conver ted
ess ence
dis appointment
der by
ge ar
f ing
tit les
ch ase
marg aret
pleas ant
converti ble
ded icated
assum ing
pr f
rena ult
ch op
viol ated
rest ored
par at
contra ctor
$ 30
manufact ured
cont end
err ors
wild life
explo re
borrow ers
ol ly
ar ia
al lah
com pos
en su
indic ating
endors ed
counter parts
sdp j
si er
al ert
e ches
su ms
meas ured
act ress
r im
volunte ers
conv ince
h iring
p one
zh ang
ed u
naf ta
spe eches
ox nard
appreci ation
de an
n fl
t win
maintain s
se eds
lin king
bar s
incur red
strateg ies
enhan ced
advoc ates
rum ours
terr and
mit terrand
des ir
z ur
unit a
certific ates
dec iding
sil ent
sold ier
volat ile
sou l
out lets
mar i
ing le
the ft
amb itions
memor and
arab s
memorand um
he ct
contin uation
sett ling
il legally
exer c
exer cis
is lav
malaysi an
ral ph
de tain
le ak
stri ve
sing ing
on going
rich ards
d ile
sa il
draft ed
g io
dm 2
re placing
fat al
e ating
che t
r &
mar x
cha os
port ra
enz hen
cen sus
sh enzhen
social ists
colleg es
my th
unve iled
au tom
bank er
dam aging
f idel
t g
prevent ed
youth s
town ship
po on
under mine
apart ments
20 th
lat vian
conspir acy
t st
do x
q ing
under taken
i ate
10 th
cl ay
w en
p ens
fe t
perce ived
bed room
plant ed
swee ping
th al
d io
ale ksandr
z emin
tra cks
pain ful
lend ers
al ar
build ers
de pri
cru ise
at &t
oblig ed
director ate
ro sen
mar sh
re bound
at um
stay ing
pe stic
air ways
po wered
premium s
tr ash
ar n
kne e
wh olly
lo v
y am
bor ough
macro economic
react ors
de vast
law makers
pitch ed
nig eria
sa ke
stu ck
mill s
approach es
alter natives
car ib
y n
al es
ic o
contra cting
bon us
retail er
margin al
ke ith
mar c
pat ent
m our
cap ita
cr an
bur bank
jour ney
cred ited
aud itor
south west
ad ri
ho ods
clin ic
300 m
interpret ation
isol ation
ac ute
ke ating
ga ze
da wn
appla use
re per
to mato
ev ed
u ity
bat tal
bic y
grad ual
ju ven
bus es
good will
he ating
mid lands
hend erson
ow en
perfect ly
is c
me ter
dis abled
q ian
ple a
we ren
den ver
o wed
kyo do
spo ken
decl are
chair men
rein force
f ounding
personal ity
k un
air ports
con sent
te as
tr ic
z ic
h man
when ever
g au
ex agger
po le
g ust
o reg
therap y
ex plic
coun tered
l un
197 3
view ers
real ised
up turn
sa k
mes sages
oblig ation
surv ived
crow ded
y un
post pone
ma h
exper iments
col ony
thorough ly
pure ly
trig ger
appe aring
read er
maneu ver
19 th
st in
d ip
we t
b ent
12 6
health care
europe ans
lands cape
n ba
wat son
shir t
home owners
cre ws
exercis es
t as
appoint ments
hone y
j ay
kc na
laugh ter
mit chell
ru bles
dat ab
graph ic
a is
inter fax
ur anium
pl ing
coo king
ed ict
in land
mon s
o ted
install ation
j ab
7 50
w ig
ob jects
broad ly
mer ged
ab sent
pr inted
veget ables
wh ites
l il
air y
du mp
news cast
under writing
spo ts
patri otic
mor oc
r hy
inter state
st un
inhabit ants
pre fect
czechoslovak ia
i ors
am ate
ne a
ma f
ma sters
bur ned
defic its
mer ced
international ly
spe ll
ne ts
clo sures
pro be
asy lum
challeng ed
stat istical
pro pri
tim ber
impress ed
u a
pom ona
l b
ray on
197 6
res id
n pc
intermedi ate
af firm
in als
$ 200
cal if
micros oft
n ab
13 5
rub ber
success ion
lobby ing
protest ers
jud ged
wo ods
b rent
pri est
tal e
search ing
fast est
clean ing
lin ing
t ens
bu ys
egg s
est ates
ast on
expla ining
con struct
p um
architect ure
cl am
observ ation
contribut ing
ad vo
advo cate
blood y
cambod ian
for gotten
pleas ure
auto mat
ecolog ical
l ion
re sem
par ker
pic king
ham mer
bo ats
announ cer
por tray
f ay
dign ity
ed wards
ben e
ab bey
public ations
sell ers
che er
hugh es
pra ise
vi able
legitim acy
s ink
in sufficient
toyo ta
ca ke
p our
ct r
sur rounded
bomb ing
scar ce
organiz ing
nik ol
nichol as
conv inc
pla za
g ently
r h
mid night
qu et
12 8
cre ates
post al
barrel s
leon ard
cli p
en ix
mo il
appli es
foun tain
side lines
do ctr
treas ure
te leg
om s
17 5
tur moil
liter ature
disman t
retain ed
ro ok
me ts
per ry
exam ining
indic ations
inform al
don ations
ho ok
jac ob
b ans
wis dom
har vey
od ds
gener ations
p ess
br is
15 m
over time
dee per
bag s
do s
d b
al together
trans formed
pitch ing
est onian
victor ies
not ion
guerrill a
am ents
benef icial
l p
cra ig
attra cting
ab stra
provision al
franco is
d angers
7 14
hes it
pu b
boy cott
be sto
k laus
capt ure
ro ot
and y
pursu ed
quant ity
pho enix
dif fer
conglomer ate
je ts
def er
prec ious
procur ator
is en
ves sels
ap ar
que z
ach e
semicondu ctor
dan cing
col lins
mat su
s ler
ha iti
stress es
sim i
log ical
g ged
dire ctions
recogn ised
pess im
bul garian
sp in
cor rid
2 20
nu ys
k ay
dynam ic
pene tr
serv ic
b enson
f itz
on i
n ip
focus ing
bench mark
penal ties
propos es
mos le
mal i
int l
pre sum
if er
che cked
short ages
resu med
loc ate
cla use
be ir
us r
le asing
pent agon
down ing
swe pt
ath le
ant or
according ly
zion ist
har vard
host ages
abd ul
ugg ish
carib bean
re la
exist ed
phill ips
o ck
k ab
com posed
fail ures
fore stry
peas ant
ear nest
to ms
cro ats
asser ted
00 1
ve t
e re
un necessary
exp ed
om ing
compuls ory
approach ing
it ative
mortg ages
aid es
deleg ations
as sure
subsid y
re ap
grant ing
squee ze
persu aded
197 2
dis appeared
kel ly
in tra
ch at
dram atically
la wn
en dow
bal lo
celebr ation
van a
specul ative
free ly
vol ley
u ro
bri stol
el ite
m ultim
l ene
stat ut
beir ut
up coming
co le
h ate
m ack
satell ites
mar ina
react ed
administr ator
o za
moun ting
set back
sl uggish
ul ster
ded u
est e
li ver
some how
break fast
elimin ation
shut tle
cle ment
statut ory
punish ment
coordin ated
an ony
mosle ms
compet ent
bi ological
comment ing
fortun es
lux em
th rill
automat ically
n ast
wag en
matur ity
thom son
ri ley
o i
wor t
chry sler
acknow ledge
ack ed
he ated
ele g
scul pt
60 m
apply ing
t went
je ctions
cy pri
fo oth
cho ices
condition al
merced es
t ide
pp i
ir re
sa chs
coordin ator
calcul ations
fun ny
fer til
sin n
ici ary
a j
n ancy
accompl ished
war rants
197 7
pattern s
s s
techn ic
rush ed
thri ft
mos que
apar the
dav ies
qu ay
pack ed
enthusia stic
brilli ant
success ive
le ver
investig ated
al location
rece ives
aparthe id
port ions
zz le
propos ing
telecom s
f fle
sty les
iss ance
incorpor ated
del ta
tro op
se wage
dre ams
dro pping
deep ening
in ches
tat ar
determin ing
innov ation
ke tt
rela xed
te cs
trans fers
defend ants
alban ian
deterior ation
in mates
div ide
q i
p oul
ch un
sole ly
ch ant
manu el
19 50s
escap ed
slow down
servic emen
licens ing
dis cover
separ ation
ust in
x ual
consequ ence
ose xual
ev il
polic emen
express ing
and rey
mong ol
pr c
up ward
ac es
v io
am mun
d ame
sem if
run ner
sen sible
rou ge
let ting
ad en
recogn ise
applic ants
exclusive ly
dis played
rhe tor
den ies
top ics
long time
gif ts
tri but
quant ities
fun eral
spr ings
c fr
is an
nomin ation
desir able
v w
bar ak
argent ine
exhib it
bot tle
iz er
coach ing
re calls
pau lo
li abilities
north west
min nes
inaug ur
li van
gh ali
z im
ben z
d c
slow ed
minnes ota
rev ive
disput ed
h ed
touchdown s
sen ators
a then
to dd
ha p
comm ut
deal ings
oreg on
im posing
bas in
indic ator
mo ham
dress ed
arbit ration
recover ing
defend ant
199 8
memor ies
compens ate
som alia
car tel
2 25
en abled
predict able
mat ches
re organisation
luxem bourg
fring e
magaz ines
ele v
loyal ty
volks wagen
land fill
semin ar
wil der
compart ment
klein wort
yield ing
r ous
ke ys
consider ations
aret te
c kets
mag net
cap ist
ide ology
event ual
en acted
r& d
act u
olymp ics
tor n
pow der
ste re
aer o
capist rano
k night
barri er
sch ro
io wa
ch al
ent rance
accum ulated
vac ation
mil d
patri ot
del hi
detain ed
rus sell
m att
oth y
ship ments
inc in
per ception
re ds
ins ol
vo cal
back er
main stream
brut al
concl udes
refuge e
export ed
f ue
sa x
th rust
obje ctions
remain der
jim my
intim id
tight ening
bla ir
k aren
assess ed
th res
d rought
view point
fa vored
bl ues
ign ed
sum mary
compat ible
ds on
photograph s
sa o
ammun ition
de preci
hazard ous
13 3
hawa ii
elabor ate
zed ong
separ ated
dist inct
cy press
dile m
d airy
li k
ba e
ski ing
sun g
surve ys
ru th
sul livan
olog ists
bre ath
desper ate
time table
influ enced
travel ing
re no
dra in
soon er
aver aged
sal omon
supervis ory
spe aks
conne ctions
con nor
ful filled
grad es
is se
lam b
fin ishing
dir ty
pre mature
appeal ed
cig arette
al arm
found ations
dies el
trad itions
arri ving
or tho
fo ots
vo ys
ut ter
elimin ating
da w
bel t
clean up
intellig ent
time ly
assum ption
s lim
volunte er
bra ve
land ed
myster y
ar son
tajik istan
pack ages
teleg raph
acceler ated
super market
comple ment
cap it
f lies
stra w
financial ly
dec ides
cor d
spons ors
kil o
audi ences
ultim atum
account ancy
ar ray
dis close
l uk
k iss
conce al
commun ism
broker age
glo be
cher no
d well
re moving
constitu ency
ar ist
conting ent
war n
adop ting
fav oured
p n
horiz on
dri ft
mar it
guang dong
atta ch
gra chev
facilit ate
explic it
sur ances
colle cting
confident ial
necess ity
ic on
highlight ed
lo wered
su e
col lar
t ustin
p iz
distribut or
roy ce
explo it
los es
grow ers
min ed
po cket
cryst al
sent ences
preser vation
ing red
cs ce
che z
resum ption
box ing
ref using
bur ns
del icate
by l
kno ck
g av
dish es
l ira
ne gl
export ing
vis ions
throw s
extre m
fle ming
re ar
out lined
kh mer
maf ia
ar ise
labor atories
n z
conce pts
special ized
di verse
conf isc
switch ing
question ing
fle w
mu barak
gran ada
star ter
demonstr ators
function ing
lon gest
slo ven
ko so
e ur
sub ur
want ing
mani fe
neighbor hoods
consolid ate
fer ry
incumb ent
rober to
cr um
ac er
l ance
st ones
ap parat
inter s
se ize
chair s
spar k
constit ute
f ame
liquid ation
quiet ly
sufficient ly
har ass
19 0
r allied
rel la
in spir
in her
h ud
war heads
ent ity
il ation
reser ved
ag a
allow ance
fin nish
b row
light ing
s pa
mor tal
n un
con grat
hun g
negl ig
threat ens
sand in
con gest
k wa
go w
j up
ear ning
sh ah
ar ising
acqu iring
v atic
p unch
ie re
or a
employ s
ine es
jud ging
pes os
ortho dox
ren dered
st even
be it
depend ence
ree le
su icide
f fed
station ed
carol ina
proceed ing
br as
hang ing
en cer
form at
sub marines
f inger
interpre ted
bo ast
ign ment
tim ore
mechan ical
cra w
spr ay
new com
uzbe kistan
scri pt
pian o
war nings
conf used
down ward
rein forced
ha st
f ant
foots ie
b age
ik a
ran ean
maj est
copy right
rand om
fe re
sub stances
dist an
deliver ies
v ise
asser t
z an
not or
r ut
d ipped
y 1
comput ing
e motion
stop s
arbit r
consult ative
ind ig
ind ict
bu ch
hy per
lou d
cam ino
frustr ated
nur sing
descri ption
moun ted
speak ers
surve ill
bur ma
he res
12 9
appreci ate
ha vana
mont real
se gment
c v
mon u
fra g
pit ts
re med
marit ime
u x
merch and
orient ation
st ab
im minent
l acks
rhy th
fill ing
cor on
as surances
mer rill
the d
hol land
nad ze
sie mens
dra fting
no se
ra him
ber ger
under lined
chain s
collabor ation
and ers
don nell
surveill ance
shap ed
mari juana
sele ctive
es cor
rob bery
ex changed
jo ys
m of
pe i
pension ers
mali bu
ut ah
reason ably
l one
d ive
med iter
ali en
$ 9
ar sen
men u
sal inas
descri bing
liter ary
plun ged
wn ed
con form
explos ive
ank ara
g ur
con ferences
ef ul
tor o
fe ld
ves sel
tt es
accompany ing
m ca
pat ience
po et
conced ed
drill ing
os car
environmental ists
hon ored
pli es
kin kel
ian a
design ers
ma z
broad way
14 5
w c
vard nadze
inst ability
bound aries
activ ist
lyon na
ho b
rel ay
mat ched
pay able
g lax
glax o
cra zy
c res
al aska
she vardnadze
att acking
last ed
fra gment
co x
ab ling
ase an
athen s
though ts
nip pon
hero in
ital ia
p ha
lect ure
stra in
un rest
j ak
supply ing
dis armament
al am
gr id
receip ts
pur suit
wealth y
south land
music ians
feat ured
bu ff
vigor ous
bene ath
cr ush
perform ers
$ 40
m ble
educ ated
incident ally
but ler
bat ting
length y
execut ion
divers ity
cer am
clin ical
re vel
gre y
p am
commission ers
bill ions
but rus
un ite
par ade
play off
secre ts
install ations
d kr
gill es
obtain ing
aud io
el f
leg s
mani fest
insure r
ir i
ad ap
co co
af t
plead ed
sustain able
occas ional
character ized
it v
n ts
ho ckey
boo th
d ash
wood en
mother s
ed ison
deliber ately
sier ra
alban ia
confirm ation
capital isation
fore ver
er up
read s
ch eng
nomin al
om o
sp encer
re payment
res or
ine f
bl vd
avail ability
spread ing
belong ing
ed ia
peters burg
clim b
fed er
answer ing
cha ired
deem ed
sy mp
ha it
tra gic
qu er
convinc ing
wal ks
as ad
$ 12
exem pt
no where
w es
f c
attra ction
col a
gre ens
frustr ation
physic ians
sympath y
ap as
fil es
cherno byl
zur ich
emer gence
ul tra
serge y
her nand
b iz
behavi our
refin ery
oza wa
mis es
ban ning
pet rol
monopol ies
p its
apparat us
fi ber
bi as
z ag
belong s
sim pli
share holding
k it
she ets
che cking
t uc
ten se
as im
c bi
contain er
10 bn
c pp
as besto
hom osexual
gam ble
decre ased
comp are
mer ge
anx iety
del ic
mar io
no ble
twi st
haw ks
lu ther
13 9
su ed
con fined
cept ions
la z
ent ities
lyn n
sto red
s oup
d h
lin er
2 40
las er
fir mer
kwa zulu
shor ter
inquir ies
wid ening
inc red
resol ute
men em
distingu ished
y ach
poor ly
boo ts
27 0
innov ative
13 8
det ention
line backer
alli ances
moldo va
philip s
13 4
grow s
twent y
sl um
hu i
40 s
ill usion
co at
h il
13 7
san chez
cho o
prec ision
sell er
hal if
un happy
redundan cies
fire fighters
jol la
con cession
genet ic
dis pens
ed a
prolong ed
experi encing
roman tic
wo re
14 1
sp ic
yur iy
instit utes
lit igation
nat i
base man
endow ment
infe cted
400 m
dilem ma
pa thetic
o sa
fare s
organ ic
se cession
ge o
ex cuse
contra cted
son y
hum or
dr unk
ven cy
je wel
to y
ch ill
unanim ously
mo date
casual ties
review ing
ator ium
celebr ated
s z
dou g
cycl ical
tot alling
chi apas
bc ci
si a
accom modate
mat the
spect rum
cl ou
ab sur
in struction
c incin
00 8
reach es
pred omin
rus hing
cent uries
com ic
or che
rig id
en ko
volley ball
viol ating
advers ary
real ise
cincin nati
peru vian
fac ulty
far mer
h ir
am ar
sor ts
ist er
out rage
bal timore
studio s
intens ity
res hu
res cu
end ar
regul ate
positive ly
part isan
phr ase
de z
j ona
k ang
alger ian
condu ctor
compet ence
country side
pre mises
j ama
ferent ial
ex xon
dam as
si p
trad er
conta cted
hernand ez
leg end
celebr ate
restra int
obser ve
qual ities
af ri
hol m
mediter ranean
me mo
magist rates
und ant
nat al
revers ed
theoret ical
pitts burgh
ar k
13 1
ai res
adjust ments
scrut iny
subscri bers
exem ption
p ump
am big
shif ted
bil ly
t ut
br ick
san aa
buil der
sing les
ident ical
total ed
avo iding
respond ents
correspond ents
tr in
with drew
rat ified
sor ry
break down
il itation
equal ity
or al
damas cus
12 7
$ 18
oper ative
man ila
mo zam
pol ar
dist ress
ad ors
eag le
tun e
switch ed
sacrif ice
br y
guin ness
sa int
st um
neighbour ing
synd icate
se iz
ir regular
comple ting
cur tis
win es
predecess or
c du
pro stit
str and
elect ro
referen ces
m am
j av
as i
brid ges
v ou
br ic
ro gers
re ct
liby an
absur d
en abling
interven e
har mony
1 000
fuel s
mar king
chi at
back ward
l ions
ul us
mart y
jona than
ri vers
prud ential
l ig
con vert
bureaucr ats
bernard ino
ave z
fit ting
bm w
ende av
col m
forecast ing
indones ian
pul ling
a waiting
discre tion
dist ant
acceler ating
en counter
ca fe
jo bless
le ather
real ities
multination al
seem ingly
ing ton
place ment
aver aging
limit ing
abstra ct
refle ction
od es
prob able
hect ares
colle ague
im a
lay s
fic tion
tatar stan
apol is
battal ion
obstac le
up grade
comp ares
ur ges
d anny
vers ions
process ed
ste pping
ail ing
60 s
rook ie
se ly
kill s
assembly man
adv ise
po ons
te ar
s mil
75 m
ll ers
mal colm
life time
smooth ly
aud itors
blo cking
sy d
sm ile
tre ating
0 20
rid ic
loy ola
under take
k ak
coordin ate
z or
pol ling
un willing
national ities
appeal ing
dra stic
datab ase
to pped
am ended
re actions
eth ical
ed die
can al
chu ck
asbesto s
19 68
g um
loc ally
dri ves
intens ified
dy ing
en rich
pre ferential
r ong
fisher men
ber man
gr asp
ag grav
well come
ag r
lis a
p ink
le ster
ap pra
s g
ch avez
ok la
had n
z he
shif ting
prob ation
t ac
wy n
du ke
k han
pra g
deb ates
contradict ions
lac king
ib rahim
gradu ates
dete ctive
gl ance
le mon
sal mon
des c
fore see
spir its
forest s
ino is
arn old
bro s
car to
gilles pie
pan aman
si ves
chen ko
re tro
t su
beach es
rational isation
nic kel
bat ter
si ber
gri p
kno cked
w im
re mem
cur ve
sun set
fron tier
treat ies
clar ify
close st
azerbaijan i
stress ing
ab ad
bu en
pay roll
lay er
de cent
ol dest
re jects
z inc
budget ary
cit es
ty son
vest ock
rest oring
fashion ed
prov es
cho col
b hut
mo ck
ah mad
catch er
c un
fr y
land o
re sur
aran ces
gro cer
li vestock
sam ple
ill inois
temper atures
challeng ing
doctr ine
land mark
al beit
ist ically
rehab ilitation
ball s
bre w
an chor
th a
appe arances
bed s
access ible
brig ade
wa ited
u prising
s& l
frequ ency
as er
thes is
draw s
oc c
pal mer
young sters
success es
municipal ity
medi ation
bal d
flo at
ju ice
under mined
agree ing
en joys
frag ile
deliver ing
evol ution
gram s
ban ner
cross ed
13 6
voc ational
var ieties
liber ty
per pet
20 s
are l
28 0
cur ric
j ason
vill a
li est
amate ur
bott les
in ability
en large
un ilateral
tr ump
i ber
k ray
u um
rob ust
ak en
he w
pro jections
jur ors
sa ins
swee p
soci o
bal lots
and an
h p
bo il
air plane
undertaking s
fe lon
list ening
g ging
re pay
sing h
uck y
kir k
ex cited
sub jected
ch ef
ud ge
lo op
00 2
multim edia
watch dog
remin ded
vac uum
le eds
fig ured
cau cas
150 m
al t
divers ified
cast ing
law suits
sains bury
if i
insid er
v acc
immun e
s gt
2 30
bro king
bu ena
de central
80 s
em i
rest im
finan ci
k l
instru cted
car son
limit ations
h edge
s often
cam ar
syd ney
lic ences
awa ited
il le
$ 300
dem ol
nomin ated
ul ations
s ic
s kept
shir ts
ib a
un usually
roc kets
gener ators
am ster
stip ulated
h iro
it os
6 50
om ed
langu ages
ris ky
care ers
depreci ation
s lower
co y
ship ped
are ttes
domin ate
v and
p ds
amster dam
t ill
49 ers
not re
t ended
de ck
short fall
bhut to
pl ates
gay dar
requ is
general s
ch t
coordin ating
ab i
choo sing
in put
luc as
in av
mas sa
ba h
197 1
cig arettes
im ped
fur n
allow ances
secretar ies
repair s
t ig
slo gan
ge ared
don ated
reci pe
gu itar
cl oud
prohib ited
help ful
lic enses
quo te
un successful
pen ny
tribun al
civil ization
dis astr
deser ves
per petr
concl uding
spar ked
car do
s ant
assass ination
gra ff
portra it
divor ce
favour ite
12 m
ky r
ap pet
ic he
assess ing
st ating
mo red
comp act
fe li
character istic
raid s
trans mit
spot light
v da
bob by
st all
ha f
bin ding
st rom
dom ing
prov ing
de ll
v ague
shim bun
infe ction
clement e
iron ically
compet itor
un official
en lar
rhetor ic
mus cle
mc donald
m ire
chur ches
j ug
re organization
inf ant
constitu encies
produ ctions
an atol
acer b
fr ater
des ired
r f
st up
crack down
e e
cou pled
virt ual
nev ada
0 25
nig er
bre wers
13 2
w rest
enc ia
liber als
weight ed
p kk
ben nett
ex cite
abol ished
attend ance
w ings
s its
g is
war fare
envis aged
issu ance
prompt ly
h ier
r ash
g 7
r p
s can
cup s
port land
pakistan i
ken ya
k rem
aspir ations
col o
re x
n t
any more
whit tier
reli ance
jo an
ma ur
ill s
xt on
flu ent
hope ful
gl en
b ins
b art
kent ucky
stabil ization
18 th
s ity
insist ing
ex acerb
sign atures
inde fin
no vo
ber ke
ho stage
19 67
feat uring
inher ited
jo ke
lim a
dest abil
ox y
re patri
qual ifications
kyr gy
ban co
ri a
g ig
national s
21 st
veget able
where by
plant ing
h iz
ref ers
g ins
max im
k ho
les lie
$ 16
out line
ile ver
man ual
cere mon
neg le
nord ic
dro me
h off
y itz
ass ists
ell is
p ud
lif fe
dis par
bud a
ha gen
lu cr
p ip
30 1
sh ay
fu jim
susp end
kyrgy z
ri fic
mor ale
pro claimed
reluct ance
iso de
ep isode
sum mon
manag es
worry ing
prov iders
mc donnell
f ence
sound ed
stop ping
cy n
is al
nut r
ar in
vac ant
stro ke
merch ants
cav al
mor atorium
cypri ot
ul um
reve als
confron ted
opt ical
lucr ative
fle e
concer ts
l v
she ph
we in
11 m
lyonna is
milit ia
liter ally
rand y
am man
run ners
presum ably
cru z
pre f
pul p
advan cing
pred icts
sub tle
law ed
sing led
re insurance
in trig
blo wn
moroc co
st air
nutr ition
mon arch
weigh ed
form ulated
re ich
licens ed
dist ort
sub committee
kur ds
strugg led
present ing
br ink
ol o
late ly
ire z
tro p
ffr 3
is ers
glas gow
less er
techn ically
re r
c attle
lay ing
dur an
rang es
accor ds
stere o
om ar
z ap
un ilever
preser ving
recru iting
physic ian
po e
ram irez
vig il
19 69
white hall
kill ings
quay le
ang u
ad vent
er ad
w ary
ic ates
tan ker
j it
berke ley
fundament ally
majest y
sie ge
emphas ised
bullet in
coup on
val er
yitz ha
ener get
g ie
ro ds
certific ate
se ld
op poses
psy chiat
gree ted
hong kong
substit ute
present ly
z hong
ke es
dis appear
expect ation
war ri
colle ctions
end angered
abol ition
sub urban
ref uses
prov oked
one y
bal ances
she ep
cor rupt
star k
con firms
witness ed
dete cted
yas ir
han oi
dismiss al
par ame
ia o
thres hold
ba o
ship ment
stat ute
ash i
over haul
portfolio s
constit utes
lad ies
dod ger
conven ient
cu bic
salv ation
sk ip
p se
ram p
buda pest
brief ed
shak espe
d ating
19 30s
like lihood
priv acy
capital ism
char ities
high lights
nast y
under ing
function al
dispos als
port able
krem lin
pier re
mun ich
turn out
rel ess
camer as
pal os
chocol ate
met ic
en berg
concentr ating
qual ifying
execut ed
sho cked
or bit
tele phones
sen iors
bon uses
prest ige
im men
recruit ment
actu aries
s ket
l ust
sh ita
scra p
bureaucr atic
ut ing
emphas ize
su ited
reele ction
tribut e
enjoy ing
halif ax
deser ve
bur ied
non profit
s mel
cook ed
sp heres
prote ctive
stra ins
half time
reli eved
ven ice
class ified
dou bles
de port
wi ves
lan es
catch ing
re my
bab ies
th ames
leg acy
every day
to ps
z ar
evalu ate
sadd le
re lying
scr atch
80 m
jo ins
2 10
to ile
absor b
tai pei
candid acy
wales a
ingle wood
scre ens
b atch
disastr ous
r ings
ali ens
perman ently
bal kans
man power
ri fle
kill er
inter fere
ring ton
shakespe are
cpp cc
cli ff
o ch
mut ually
br at
m ish
different ly
not able
slow ing
intens ify
corrid or
ath a
dis rupt
viol ate
nut s
h atch
fujim ori
var ied
tur b
11 th
sel ess
cas ino
chile an
industrial ists
fl ames
wat ts
chu che
ose vic
se ars
b its
f um
prevail ing
cance led
a es
la k
vis itor
neighbour s
sup pose
ver des
re mind
nom ura
high ways
merchand ise
bour ne
k hal
lif ts
group ing
o res
heim er
predict ions
add y
s ri
abkhaz ia
br yan
gree ting
organiz ers
contain ers
weak ening
scr am
victor ia
he in
d ad
mon it
should n
ma id
g ad
distribut e
stev ens
rece ivers
fil tr
in valid
she er
breed ing
pic ks
ap olog
in stances
abd allah
bol ster
ros si
dro ps
pre jud
per t
sign ature
flo ated
gar age
monit ored
te ars
scre ening
r in
t res
im m
hun ger
5 50
conver gence
ive ly
mil osevic
encourage ment
histor ically
ko w
wh ip
har old
alam itos
unfortun ate
min us
train er
engage ment
can e
dist ra
destroy ing
or ov
read ily
am or
taxpay er
low ering
de pression
cam bridge
sal ih
stru ctive
equ itable
comb ining
pe ps
da im
ag ne
mc car
st amp
g om
affili ated
pione er
attra ctions
fein stein
be tray
li ar
under going
bo ther
ar f
en roll
at ov
gest ure
are z
l ung
scand inav
ali ke
j p
aim ing
to ys
en countered
persist ent
w re
reli ability
f its
g ies
2 60
gu es
affe cts
vin cent
not ified
bomb ay
conven ience
st aging
read just
pat ric
acqu a
b fr
heart ed
national ly
catal ogue
re build
host s
kuwait i
hal ted
medic ines
sac red
lon a
occup ational
set ts
27 5
constru cted
s ko
gr in
id ge
ag greg
ident ification
im pet
al tit
stem s
open er
m ese
sh y
kee pers
f oul
bi ography
em s
gam bling
recru ited
ol ds
independ ently
gr ill
ag ro
bet ting
ne o
matsu shita
mo ody
yan kees
d ining
wood land
chem ist
tra pped
p ile
author ised
air bus
teas poon
gl ades
swe at
st iff
weak en
ab rupt
ther mal
season ally
guard ian
iy ah
re bell
pa k
ib ly
cast er
archite cts
depri ved
assist ed
crash ed
out right
rad i
go re
000 bn
graff iti
str as
mit i
line up
respe cts
eng aging
st atic
car ls
t dd
j ah
synd icates
exer t
surv iv
rob ber
he arts
dis gu
jack ie
constra ints
kra j
e man
ct k
osa ka
sens it
y ak
so ared
endorse ment
mac ao
negoti ator
dis agreement
congest ion
maneu vers
fortun ately
regul ating
li ed
motiv ated
be ers
ho d
sk aya
art a
deleg ate
chap man
sw an
id al
real ization
ic ism
sid ed
k har
feas ible
sk ir
kr as
la be
35 m
open ness
transl ation
bar ce
ad he
massa chu
re fr
campaign ing
le hman
mer it
ap ples
eleg ant
remem bered
nig el
cust od
bun d
catastro phe
gn p
o pec
massachu setts
sym pathetic
coun cill
bre wing
imag ination
come back
ro cks
de mean
secur ing
inv ite
los ers
c ens
t ub
understand able
z ha
f ty
nag or
tight en
h ij
k ap
cler k
ric a
latin os
defin ite
bi que
sam ples
venez uel
ten nes
gre tz
decl aring
t ud
mozam bique
bat tery
fron ts
contam inated
form id
pl ug
un de
evident ly
gretz ky
char lie
6 25
in ating
col ors
im ply
stu art
champ ions
heav en
ocean side
tennes see
launch es
re location
bur ton
zz i
bre ast
afford able
sent encing
ex ile
convers ations
sub du
confisc ated
h m
du ck
14 4
b unch
ch ats
barce lona
d as
buen os
understand s
column s
incl ined
separ at
cus s
season al
ic or
250 m
bar ra
me als
cur ious
rail ways
out door
rw andan
continu ously
h iding
al fred
in herent
pp y
law son
d res
tri o
u li
meas uring
au then
dis plays
go ve
c ass
$ 150
adequ ately
appreci ated
bla ze
chop ped
cr am
illustr ated
ar ians
que bec
spot ted
sist ers
es cond
dynam ics
ac cent
daim ler
row s
mig ration
ail s
bicy cle
3 75
ke m
safe ly
s ke
prosper ous
formid able
upgrad ing
wal sh
bur dens
lon rho
back bench
cost ing
secre cy
$ 17
chron ic
sun ny
fasc ist
pla int
distin ction
renov ation
bur mese
trans paren
manife sto
pron ounced
jeff rey
st ef
has an
cal c
ar rog
circ ular
u ci
d ess
ch lor
ar ose
po ised
slo gans
where ver
be ans
athle te
absor bed
assem bled
thor ne
b ast
pl er
up heav
team mates
dis pat
offer ings
plun ge
h int
geograph ical
so x
se ism
sl am
17 m
il ly
b z
b av
capit ol
pun ished
z u
nor ms
k au
compla ining
v ick
st om
st i
un o
architect ural
unexpected ly
12 th
kick ed
t ighter
ne c
shif ts
sp ends
qu in
cle ver
ard on
in do
tra ce
pat ron
fres no
impet us
land er
ti res
in jection
excite ment
flow ing
compos er
state wide
potato es
us age
le ans
grocer y
k line
cul min
pa ve
travel ed
res ent
ay ama
symp toms
v od
contam ination
ks on
un covered
subdu ed
l oma
$2 50
national ity
hom a
inter action
ol iver
r bis
v ag
indian a
cal der
fe ver
ban que
s b
in cts
john ny
pist ol
ep is
occur s
gib son
ni kov
jud iciary
l ago
ab normal
abol ish
moor park
pill ar
broadcast s
il iation
champ agne
fru its
ge off
incl usion
ach i
st ub
union ist
tri bal
gar lic
ual a
coco a
phar mac
the le
ar kansas
night mare
stup id
c ous
sh ine
s abo
all an
curric ulum
dir t
ro p
ri p
after ward
b ite
gl enn
mont ana
ign oring
cor ona
mer its
dis counts
since re
tal ented
en du
bo v
k ad
ch and
g az
w ounds
calc ulation
gu iding
15 5
transfer ring
ov ic
ab du
cur tain
sul tan
harm ful
re structure
la ura
transparen cy
w ished
wed ding
stret ched
who ever
dis k
distur bing
co des
m g
unanim ous
thele zi
col in
fro st
es co
bu thelezi
authen tic
z ene
cru el
gri ff
jail ed
off end
cal endar
philipp ine
dis agree
ts b
c ie
explo itation
kilome ters
00 4
milit ant
al pha
sc attered
hand er
tian jin
new man
fant asy
hait ian
regist r
cree k
k io
mic key
bar red
co hen
mis leading
bur ger
conscious ness
if p
ok a
70 m
mary land
escond ido
frank ly
juven ile
au ctions
embarrass ing
address es
cardo so
wh arf
at ri
margin ally
trop ical
ann uity
ri er
on do
po ckets
k uala
dest ination
| 0
st if
rev ital
te les
municipal ities
ink atha
aggressive ly
d ti
mir acle
milit ants
okla homa
sh ining
ch ir
deb ated
d af
l ent
sim pson
gu o
industrial ised
ind ul
reshu ffle
wi e
re fur
is ons
ge e
kur distan
note book
su ite
feas ibility
bak u
lia ison
plann ers
ck ers
ch ol
shell s
restrict ive
f fin
confl icting
k antor
mist aken
tee th
ig ious
tem pt
en ous
gar bage
gloom y
haw k
remark ably
san ction
im o
con n
inde b
intellectual s
squee zed
la bels
complex ity
ur gency
stra it
cl ut
believ ing
govern ed
no ck
ll ation
admir al
du plic
hom er
pier ce
dis coura
ad zic
z ak
west lake
suspic ious
deep en
guatemal a
sudan ese
hand some
car p
jac ent
indeb ted
motor ists
lin ers
cape l
har a
70 s
ad jacent
16 5
0 30
lum pur
rele ases
like wise
congress men
test ify
kin son
enlar ged
cre st
gove tt
to sh
st alled
virt ue
fernand ez
follow ers
rif ts
boliv ia
r igor
las mo
i u
accus ing
preced ent
g lit
enlarge ment
ug ly
an za
gr ate
ul ates
le igh
faith ful
prom pting
bio technology
flo res
re wards
daugh ters
com prising
f s
w and
er os
po o
k ath
00 5
jewel ry
vari able
dismant ling
mc c
seal ed
retal iation
con scient
elli ott
fran cs
father land
v ivid
un s
tra cy
t ics
man o
ment ally
her al
com ings
i ance
cycl es
16 m
gr u
der ived
h z
45 m
li able
ear marked
clin ics
en forced
gaze ta
$ 60
14 9
den omin
ce ster
iv able
hi ke
id y
0 11
r ue
bl end
m fn
publish ers
fore most
inter rupted
tra uma
we i
modif ied
out going
ham burg
lock heed
op ium
ho over
sum mar
ch ad
mar in
b oun
ta k
accur acy
dictator ship
process or
stri pped
bud d
il in
for bid
prescri ption
super intend
dere k
vatic an
red ist
pal e
op ted
k um
alle vi
ic an
vo wed
tent ative
scholar ship
col ored
omin ium
cond ominium
congress man
el ess
f ou
sch ne
inter bank
po ts
islav a
acknowled ges
it ated
star ters
speed ing
rebell ion
manager ial
ry b
d are
tra ct
safe guards
pris ons
00 6
consist ing
spl end
3 30
distin ctive
reform ing
bul lets
crow ds
personal ities
chats worth
subscri ption
kar adzic
fat ah
plast ics
afri kan
war ming
pred icting
later al
sup porter
dan cers
em ission
ign or
600 m
nagor no
borrow ed
ir rit
plaint iff
is si
pool s
acce pts
accommod ation
document ary
istan bul
ine e
mur dered
rac ism
buoy ant
ado x
will ie
r ons
explo ded
o ven
be re
brat islava
ad venture
3 40
cater ing
jup pe
for za
under pin
inter rog
van ia
in appropriate
food stuff
tra p
pa vel
n im
pa ired
mus h
in se
ling ton
doubt ful
cri p
it ary
venezuel an
tang ible
hab its
ene y
be ts
stri ving
epide mi
ty re
por k
util ization
serv icing
a ire
s ich
r t
exerc ised
liver pool
class room
us m
sham ir
p unt
so ap
load ing
c ats
su z
x ide
ih iro
199 9
market place
hour ly
o as
ra fa
national ism
plan et
b ents
mand arin
la undering
k ni
an ov
auto mobil
auditor ium
truste e
civil ized
integr ate
to wers
scient ist
jac ket
them es
med al
ba iley
par adox
c ly
19 64
motor cycle
bes ide
occup y
18 m
ir rig
complex es
graph ics
br d
griff ith
un aware
excl ude
8 50
d ill
ad minister
g lim
ham p
reg rett
v re
ta st
dissident s
oxy gen
distribut ors
ad here
war ring
cho re
po pe
pr ints
spr aying
per fe
fisher ies
ac s
w p
cou ples
pl ess
n ac
pregn ant
ram os
parame ters
en cla
anatol iy
volat ility
ar mored
ecu ador
louis iana
me ga
gall eries
ens en
bust er
umb rella
sil k
sal ad
ch ma
bat ted
respon ses
advoc ated
green span
pl agu
camar illo
pu bs
buch arest
arch er
de structive
este em
c ind
ra ged
gen es
ur gently
ste red
employ ing
invent ory
yach t
d t
imag in
dis counted
east er
et te
ste ering
challen ger
un just
po well
volunt arily
dre x
conserv ancy
poe try
uk i
special ly
treasure r
capital ist
belarus ian
l omb
tort ure
anne x
pot ent
mes h
y l
gl ory
end less
tomato es
us air
bid ders
light ly
will is
jor ge
constit uted
ex cise
kni fe
naz i
up hold
lo ving
c ence
pro pe
stim ulus
redundan cy
prest igious
un cle
supposed ly
hor ror
stock holm
per tain
ingred ients
med io
d ull
pup pet
n ians
shel f
b op
bau m
re versal
di um
den ying
numer ical
we ed
brad y
survey ed
back ers
ful fil
hun gry
al gar
assign ment
har per
schne ider
as si
de vil
eag les
flav or
ans on
al er
ent rust
k op
san ct
bz w
18 5
lack ed
hal ved
ensu red
scarce ly
pat ter
cens or
so aring
exagger ated
green e
fra ction
exceed ing
scept ical
ed itors
high land
wa h
west side
travel ers
pat ro
critic isms
unde restim
ense mble
an ita
bel fast
ta int
g gy
min n
hero es
na ive
just ification
ro ast
0 15
cl are
alle st
ster o
indict ment
14 m
3 20
explos ions
honor able
convey ed
smu g
19 45
sm allest
u ate
d ine
ten e
win ding
targe ting
ren ted
ne at
indig enous
j ing
child hood
& g
f ights
sch ar
bay ev
n g
fue lled
short comings
cle arer
re affirmed
import ing
f man
ci o
cred ible
g ome
mig uel
t se
ri b
clim bing
mon itors
administr ations
recomm ends
con science
ind a
un ting
en o
par ad
ang ol
h inted
order ly
am y
or te
14 2
en voys
3 60
je remy
mot ives
newcom ers
victor ian
heath row
tra cted
measure ment
in fer
sil va
kar l
de vote
pro pon
ra ined
sch mid
comp ress
nz dollars
pe cu
car n
insist ence
pa inter
reject ing
tor res
up held
don ors
mem bran
establish ments
refin ing
swap s
different ial
dom ain
emot ions
con junction
web ster
co vent
do cket
ore r
deliber ate
jes us
ra o
er od
fav ors
al tered
in ward
glor ious
over t
do se
mor ihiro
motiv ation
comm only
bl unt
ox ide
ray mond
gil bert
ap pre
no stal
al do
after math
pre tor
ic z
19 5
feed ing
non sense
stand point
edu ardo
jan i
worsen ing
comfort ably
tables poons
prud ent
clar a
lam bert
law ful
touch ing
pup ils
commercial s
live ly
contem pl
down grad
oil s
escal ation
tur bul
la in
nic he
t ile
ex otic
fig ur
s no
theat ers
comp ton
stabil ize
re treated
nas da
ab uses
| 1
sav age
alumin um
catastro ph
sing ers
gall on
kore ans
tal es
agu ay
spe ar
nur se
ed er
igh ty
pe el
is ations
li ps
ban ca
tax i
ten ant
in tact
a ided
new castle
investig ator
f ied
in fan
fer r
hel m
bents en
ob it
ser ial
hs bc
sp y
wal lace
te t
air tours
resor ts
fundament als
pretor ia
enhan cing
soft ball
un prof
guang zhou
h ints
map s
fluct uations
par ole
re im
automobil es
go p
colleg iate
gu ild
kee per
ling s
rit ual
char m
al berto
dead lock
mi th
glass es
st ap
naz ar
unprof or
mongol ia
hur ry
re members
m ason
ji had
is sa
pre y
wal t
tra ils
i ated
t ate
14 7
afric ans
boost ing
work shop
devast ating
ffr 1
dri ed
cr oft
pol es
dead ly
gradu ated
dis integration
la ure
ou sted
rev ived
c ans
00 7
jo el
patro ls
monte rey
agr arian
epide mic
warri ors
plo ts
anony mous
car lo
ri y
t ti
th ouse
decre es
ab er
reci pro
cn n
ri ot
un e
g at
or leans
bal lah
ten ure
preser ved
cool ing
ger ry
bet ty
demonstr ates
smith kline
ow es
hiz ballah
dis patch
reser vo
sol ar
fer gus
expl oring
appra isal
for ge
in herit
strength s
phys ically
land lords
reform ers
reg imes
gall ons
extre mist
re marked
dress ing
load s
insu red
immen se
hy un
ce a
le ton
administ ered
ro de
ir y
c ular
aw ful
en i
ab b
i en
panaman ian
00 3
magn itude
splend id
footh ill
sher man
scept ics
continu ity
ind if
greg or
revol t
co red
nad ir
wra pped
flu id
lay ers
sc ared
li an
f usion
hu ang
jak arta
zz ling
t ir
in ser
turk men
og a
s ne
chor us
s ig
ac custom
b red
less ness
air planes
vis as
ban glades
stra its
mid st
circul ated
wal d
em u
habit at
v aux
fried man
d art
im am
stic ks
au stin
counsel ing
let te
o st
23 5
0 27
sich uan
dis advantage
wa de
cap su
per former
defer red
negle cted
suf fers
ye gor
symbol ic
z lo
am in
j as
host ility
kg b
den ounced
t ips
for ged
respon ds
prov oke
over see
on aut
recording s
foodstuff s
attribut able
panel s
cris es
t ical
mis demean
sleep ing
j agu
shooting s
under go
pup pets
traf algar
e brd
zag reb
ar ous
e co
mo z
lock er
pon der
cra fts
sub mission
lan caster
ms z
du b
jun gle
pat ents
watch es
grate ful
t wel
sh ame
cla ud
iz ers
n c
az iz
am en
m 3
29 0
kra ft
vis ing
ro h
wid en
accustom ed
l ud
0 26
sur ged
spec ify
excell ency
out set
ld g
form ations
eve rett
ch ers
sk op
wi eld
cur tail
dev on
re ra
dis sent
ul ent
fi bre
ot to
s& p
vari ations
el le
dis charge
exhaust ed
constitu ent
anders en
bru ins
de a
carl ton
technic ians
vo id
listen ers
mental ity
am bul
cun ning
ac ies
v ens
stay s
after wards
q ad
re hear
un ted
bud ge
iz et
condem n
al ley
left ist
rup ting
ast ra
schar ping
gr as
drex el
just ices
cer taint
m ighty
cr us
ir d
ma hon
o ve
co hes
s lav
ma i
hero ic
be go
pessim istic
ban ana
wast es
reven ge
ab ide
water house
bomb ard
gather s
felon y
gome z
ou ter
coun ters
orte ga
mar gar
liqu or
gu ill
dist orted
strugg les
al on
br ass
assess ments
and o
cur ry
$ 14
mart ial
shr in
certaint ies
question able
hun ters
vie wer
ru ble
mal es
v ina
tr um
sand y
kab ul
am er
fidel ity
res ched
clo th
la o
alar ming
19 65
tap es
transl ated
pre text
lomb ard
o wing
chairman ship
fing ers
dis c
carto on
con cil
immig rant
prom ul
for te
nest le
nar r
ath on
super markets
genuine ly
cult ures
cont ention
delight ed
applic able
en compass
ear liest
sand wich
view ing
scand als
ri an
dow ney
stor ms
l ur
me lo
kin nock
prison er
ian g
2 15
o o
lis bon
cran ston
dest ined
convict ions
richards on
up wards
occur ring
ag oura
gentle men
dio xide
il ies
exception ally
gol ds
hyun dai
row land
may er
lo ver
struct ured
belong ed
ian o
father s
jud y
clar ification
exceed s
list ened
important ly
ir ony
pul se
approv ing
cont ended
hier archy
ici aries
tex ts
pled ges
zim bab
id f
lend er
da e
0 28
can non
f ug
cept ive
sum it
appli ances
19 48
dete ction
research er
benef iciaries
mineral s
sal im
cance l
$ 400
j enn
k amp
0 50
match ing
j al
integr al
en ables
yon hap
eros ion
cal trans
compar atively
harmon ic
appre h
sp aces
la os
bro oke
prevent ive
amo to
thir ty
cas set
ri x
vert ical
ma them
hel en
head lines
seiz ure
prem iere
sme ll
syl vania
la kes
pestic ide
jenn ifer
m k
shin se
0 16
maj les
tum bled
en ri
free man
draw ings
un comfortable
hon ors
ste al
plagu ed
arre ars
right ly
shak en
resist ed
refr iger
clar ified
shir ley
erup ted
azer i
bego vic
ho are
is i
patric ia
li o
f ond
le ases
den ial
remin der
ce ased
host ed
sil icon
lod ge
sen ds
th rifts
ed ited
redu ces
predomin antly
zimbab we
cine ma
bur se
magn ific
on ds
sof ia
oun ces
mo squ
aer ial
be i
x u
union ists
brit tan
shinse ito
pestic ides
happ ily
brother hood
stra uss
loc ating
insol vency
resolute ly
asser tion
protest ed
ly ric
val dez
pecu liar
except ions
o ter
b ldg
year ly
amb ition
gu er
ra h
an cies
occ ident
qu ad
lands cap
ci ar
ent ers
red ondo
trave llers
ain a
kom som
sc out
re building
dis ruption
partner ships
propri e
ny a
os lav
restra ined
h ac
privile ges
num bered
ar on
al lot
extrem ists
pir ates
up date
rat ify
advertise ments
rel inqu
her ald
pa vil
is y
or lando
ach er
ste aling
clou ds
ho e
bro ch
de tr
par aguay
bri bery
mar ie
sabo tage
efficient ly
pos sessions
diam onds
hab ra
o leg
b act
gu ar
desper ately
k od
de i
he fty
semif inals
nicaragu an
bul lish
assum ptions
fashion able
appropri ately
ap or
z oning
fr ames
account ant
flag s
vary ing
superintend ent
hen ri
anticip ation
t te
a pec
sculpt ure
design ing
liberal ization
ar ises
popul ations
hen ning
focus es
ca the
juli an
wh ist
power gen
m ity
an z
sport ing
ol f
ut s
di ame
log istics
vi br
socio economic
out fielder
motor ola
suspic ions
cont ends
sloven ia
ul ative
pre fers
saddle back
par cel
found ers
le agues
mic row
sk ies
valu ations
fine st
in hib
me c
13 m
v ain
bid der
work place
inter ce
detect ives
ul ted
al ain
fulfill ing
bos ses
bar on
$ 75
police man
re mun
ro sa
subsid ised
haw thorne
un di
se ated
sensit ivity
bu ds
ca ve
defin itive
m im
ut most
met res
pad re
toler ance
red undant
court room
s ights
tur f
indirect ly
her bert
bes ie
in sur
penn sylvania
confront ations
exp ired
caucas us
ins ky
fol ks
se an
cert ified
compar ative
pa ste
ru bric
in door
accur ately
stal in
over coming
angol an
f ren
olog ically
shop pers
w to
om an
pe ach
wonder ing
ch ung
po orer
balan cing
shr ug
autom ated
car makers
weakness es
happ iness
stem ming
pl ight
stub born
wilder ness
re processing
con spic
go ta
= 100
f field
spr ink
trave lling
analy ze
si o
tro y
ric o
uk h
ire l
comb ust
be au
wi reless
account able
fit ness
conven ed
w reck
de eds
ri fles
stair s
fa ults
har dest
pe ck
0 17
ash ing
on tar
rock y
reli ed
me ciar
dest ag
ha iled
ratio s
tem pted
l me
$ 11
atch i
prescri bed
ontar io
bun destag
ch ess
sh eng
my ers
chemist ry
ge y
rit os
fo s
drag ged
pun itive
im plies
rob aina
embarrass ment
dum ped
dis courage
broad en
dis pose
ital ians
photo s
tur ing
eric s
bro oks
c ive
fe ather
wi ped
ha us
aw k
document ed
clip pers
ba king
tr am
mi y
re dem
infan try
shay kh
ev asion
p oured
bern stein
imm unity
brea thing
s worn
e ta
explo sives
kraj ina
per secut
lou ise
ou ard
so ber
vic ious
cl ing
com memor
ali yev
pear son
dim ensions
cur bs
in fringe
ble ak
psych ology
jagu ar
3 i
ur i
pro min
he brew
brad ford
de vi
embar ked
sur prises
ig ate
n ay
ple x
ve ts
g ical
hin der
stock brokers
occident al
0 10
14 3
cr ic
se gments
christ ine
ridic ulous
bour se
dem irel
in ject
vin tage
can ary
news letter
dis satisfaction
taiwan ese
i atory
dimin ished
amaz ing
rel ent
cit i
r allies
17 th
ach ing
$ 35
academ ics
hand les
phas ed
lo vers
f dp
greg ory
dur able
qu akes
contest ed
ent e
short stop
ambass adors
pop ulated
20 10
ver sus
in os
concer ted
hit ler
disast ers
requis ite
fergus on
arbitr ary
as suring
ed ouard
ic it
national ists
lum ber
gre ed
w au
there after
le st
se af
un le
fl an
pc s
ie c
e h
ear l
pick up
izet begovic
ta u
summon ed
prag matic
announ ces
rid den
excl usion
order ing
tan e
be a
jo kes
syn drome
cathe dr
notor ious
j man
ren amo
stic king
celebr ations
awk ward
ter rain
08 9
o bey
environment ally
ele ven
n gu
0 24
90 m
sa fer
le a
industri als
k aya
ust er
lob b
superior ity
t l
censor ship
sch ul
ante lope
pra vda
reveal ing
skop je
echo ed
sk oda
an as
real ignment
detr iment
council woman
tig ers
nam ents
fulfill ment
prepar atory
mill an
r ans
3 80
char ts
mus a
her z
biz arre
bay er
celebr ity
rafa el
compan ion
yield ed
nol an
consolid ating
conver ting
parli aments
pres ided
dol ph
fasc inating
sacrif ices
du bbed
schol ars
sa pa
stom ach
buff alo
pract ition
lo ves
retain ing
team mate
l of
id an
al loy
nazar bayev
sch ild
rel ate
al ism
cr ay
theat rical
capital s
it ical
par ked
pen a
pass port
th ie
green peace
ko vic
she lling
dis ability
moral ity
som ali
dim ension
enroll ment
clos es
c open
dis semin
t us
per ip
un realistic
f en
blow ing
fo w
ep ic
gra b
mortal ity
cent ered
outs iders
cer ritos
imp asse
prin cess
un predictable
luther an
trans mitted
en act
don na
af ore
contradict ion
flo ors
consist ency
gar ris
m ira
0 80
mode ling
under mining
sh en
am ph
sa iling
que ens
miss issi
euro tunnel
b apt
distingu ish
reper tory
b ian
po ster
indefin itely
le o
id le
incred ible
new ton
seld om
discipl inary
general e
citi bank
pack ard
icor p
inv iting
se wer
par am
ryb kin
strateg ist
via com
bar r
explan ations
ming ton
tre u
z ie
no y
bu ro
command s
o zone
exp atri
subur b
moz art
ste e
to ast
emer ges
ex tends
hurd les
compat riots
franch ises
defic iency
length s
ash down
pe aks
membran e
bu zz
sp ie
hu dson
church ill
b ree
ich en
st ok
nasda q
t ul
f da
f uk
d itch
j ess
re mit
n hs
wast ed
inspe cted
ros es
deterior ating
assa ults
add icts
so ckers
pass ive
k home
copen hagen
f id
0 70
altit ude
ater ally
k ron
ou ri
m b
sc ure
to uring
brief case
o de
ro oted
pitch ers
thanks giving
sto le
arri ves
e fe
receiver ship
vide os
weigh ing
museum s
recon na
tud jman
river a
guil t
system atic
we ars
affe ction
phys ics
caut iously
15 1
obje ction
boom ing
re fe
dis card
mississi ppi
conce ivable
te p
den k
jacob s
human s
twel ve
metall ur
su t
jum ping
account ability
commit ting
em pt
ku chma
ther ine
arm ies
cance llation
grav ity
non proliferation
magnet ic
19 66
consul ted
19 62
be ats
compe lling
je well
cul ver
3 70
social ly
0 40
ff y
pa z
pe ers
i op
ch au
valer iy
in um
robber ies
assum es
defin ing
direct ives
ret iring
safeguard ing
ob serving
gra bbed
ver bal
ac ious
k w
curren ce
r hone
pap andre
pe uge
tr on
f fer
li z
dispens able
b ats
tri angle
freedom s
papandre ou
extensive ly
hand ing
islam abad
wil shire
ent rench
bos si
men a
b ounced
spon tane
ab used
gol an
n tt
mor av
res a
est o
batt led
re ign
ob scure
hor ri
u ff
ac cession
d j
pa ins
mar athon
sink i
rang ers
guard ed
0 19
19 50
secret ly
re open
un stable
cad bury
reconna issance
un certainties
peuge ot
bron cos
ctor y
shar on
grand e
bl ank
plat inum
mccar thy
ta e
coinc ided
20 bn
d read
0 23
spr int
qu il
0 35
afore mentioned
ric ardo
missi ble
mon tene
rock well
hel sinki
cance lled
jes se
ner ve
ten th
distur bed
dis solved
card iff
treu hand
embra ce
de er
har bour
entrepreneur ial
in struct
k ig
fin i
contem pt
im position
co herent
25 bn
pregn ancy
advis ing
v iv
co ats
cred ential
author ization
ian i
card inals
tack ling
x y
c if
retain s
jan et
dian e
rob bins
r ors
sd su
ex emp
lago s
hur st
al v
val encia
in flow
ne wh
special ised
bish ops
cal ab
fred eric
0 22
g ould
distribut ing
w itz
be am
with drawing
dis continued
autom ation
med ian
swift ly
tun a
corre cted
consu med
exerc ising
pun ct
lo p
re c
ham pered
fundamental ist
chev ron
ting ham
prec ip
sl ack
ab a
offend ers
hon our
ball istic
igh test
pro tracted
arist ide
sl aying
c sun
car ing
mon ks
spread s
energet ic
ne arest
k ia
clar ity
colle ctors
l ighter
coach ed
run off
clar ita
stra ined
s lot
treat ments
under cover
inaugur ation
free zing
ly ons
sun days
un popular
do t
k hun
ir ia
ph oned
cit icorp
inter val
ana be
ma ha
ko va
reserv ation
com prises
pian ist
an kle
bom bers
l 1
myster ious
in dispensable
mil wau
christ ians
alban ians
sa ga
$ 22
ak ed
sign alled
cali ber
16 th
f itted
turn round
sa i
cow boys
initi ate
loo sen
fl tg
shout ed
port ional
pro portional
op h
belief s
zo o
gy mn
tight ly
ste ph
tele vised
bul ld
grand father
sl ice
gap s
carls bad
l eration
country men
dis placed
sch a
0 21
hu b
i encies
boy cot
can o
pre su
inef ficient
m l
zha o
d ag
at ro
ped est
frank lin
banglades h
out let
brewer y
on ion
respect able
re consider
un equ
es sex
ol iv
termin als
si zes
an thro
evalu ated
re po
bu bble
back up
explo ited
cr unch
smug gl
ifi able
06 9
3 10
ber k
the ories
deliber ations
size able
de ple
g pa
harass ment
un reasonable
p ese
recycl ed
t dollars
ear s
week ends
char itable
su ther
mont gom
dur ation
un limited
l ump
form ulate
montgom ery
mor se
surv iving
adap ted
pon t
en vision
petro chemical
art ic
wag ner
cand y
v ance
ob jected
blood shed
gn i
24 5
hor ton
port illo
book ed
pre ston
pray er
fer ru
ten or
h ull
re ced
milwau kee
g ling
cl out
o we
re z
phil harmonic
promul g
sa atchi
ref rain
w itch
andre ws
de vised
christ ie
fran ces
photograph er
pol led
az usa
rul ings
az tecs
wheel s
herz og
some time
free ways
pu er
24 m
aw ak
pe at
advantage ous
ic king
raf san
w aged
guarantee ing
22 m
cert ification
bat tered
ne u
phenom ena
ceram ics
700 m
poll ut
celebr ating
coll ision
dou bling
persu ading
obit uary
wid ened
suther land
morris on
cus h
sumit omo
solic itors
d wind
re tri
specific ations
kig ali
fra ct
ca de
l ure
crush ed
cent ric
wish ing
hum ph
ca utions
tact ic
g host
o on
anal og
mur a
h ul
denk tas
mother land
sho ok
human ity
tax able
photograph y
total s
tit ans
succeed s
john ston
infl icted
hum ili
pro portions
poo rest
rhyth m
$ 19
n ash
mer ging
sup pression
piz za
shr ink
v ans
r bs
geograph ic
ging er
ab ra
in corporate
sa ves
av iv
rafsan jani
schedul es
pract icing
stu ffed
len in
di x
incumb ents
fe it
tunis ia
anti que
bor o
pin ch
inter section
fr iction
arbit rage
e g
ann on
fore front
defe cts
s acked
dem ise
ban esto
sur faced
dis agreements
in junction
alleg ing
sac rific
should ers
re financing
satisf ying
19 49
on o
sh aking
ab stain
dra stically
tu be
co d
p d
re paid
provoc ative
it is
in ds
n urs
at ics
ic able
h of
ese ll
as co
ident ifying
adequ acy
trans forming
ben jam
ern st
dist rust
substant ive
adri an
ru bin
han k
pitch es
dor othy
ul es
wa x
hope fully
g ag
ot c
expe lled
dig it
af i
v c
arsen al
er ie
coinc ide
im pris
privile ge
impris onment
bar be
ad mire
won dered
im balance
publish es
s way
i ary
f let
stret ching
fo k
qu inn
p ren
mc ke
3 25
iro v
tra iling
rena issance
she ffield
altern ate
tal ents
guatemal an
cre at
disney land
lun che
bee cham
edu ard
f ancy
s ive
inter n
rid ers
0 36
0 18
sp at
do ch
bris k
evalu ating
sl ick
00 9
my r
qu ent
dil uted
roman ce
girl friend
influ ences
polit buro
em ir
relax ation
tit led
marx ist
gav iria
encla ve
unit ary
we ld
consum ing
ud a
f au
prefect ure
county wide
irrig ation
col ise
per ot
shrin king
air borne
13 th
ch ick
t ipped
k ate
al igned
teach es
sequ ence
hard y
crit er
entrust ed
z man
ble w
roth schild
tes co
dun can
speed s
$ 13
blue print
ver ge
d ough
comp aring
0 49
ear ns
ny y
94 &hyph
e up
defend ers
divers ification
exp ires
recreation al
rev ise
tim othy
cla uses
super vise
spie gel
benjam in
en forcing
ke mp
ath ion
shel ves
grand mother
800 m
narrow ed
vital ity
sur rendered
oblast s
ctic ut
ship yard
promot ional
reb ate
coinc idence
sele cting
con e
al ab
int if
conne cticut
kne es
star ring
conce ived
straight forward
ferru zzi
matthe w
motor way
symbol s
sponsor ship
magnific ent
rigor ous
synd icated
15 2
postpone ment
ac as
bul ls
ceremon ies
anticip ate
colise um
greeting s
amoun ting
over head
im plied
sil vio
bo re
sa vers
communic ate
gun men
support ive
intim ate
8 75
haz ards
afrikan er
man go
casual ty
sp raw
ou st
maced onian
ig el
fac to
protest ing
cu bans
h ers
investig ative
cla ire
fil ip
div iding
z amb
condition ing
b tr
ch eney
separ ating
veto ed
remun eration
exhib itions
proceed ed
simultane ous
bald win
embarrass ed
r ides
intrig u
supervis ed
car pet
comment ators
journal ism
moham ed
k has
scal ed
bo ot
worth while
mck in
z av
k is
hun gar
domin ance
0 90
6 th
d led
la ge
marke ted
07 7
cit rus
takeover s
express es
dest iny
geoff rey
ri pe
wit t
chur kin
hydro gen
evac uation
special ty
puer to
shel ters
aqu ino
sli pping
maha thir
ind ign
circul ating
ex porter
sales man
v all
pear l
novel s
alv arez
bi ke
it ate
tri bes
s ack
wid ow
bon es
no d
run way
ver ify
shor ts
envis ages
k ane
trans parent
tri be
sh ok
dis appearance
have l
me te
g la
analy zed
mesh kov
hone sty
s ounding
ru in
shr imp
94 7
kyrgyz stan
s eng
defend er
co smo
cent rist
par aly
th wart
conceal ed
compar isons
soc ie
press ive
b lies
u to
ka i
dan es
pho sp
rob es
cut backs
eu gene
meaning ful
koso vo
emig ration
dis content
imperial ists
govern ance
chief ly
confron ting
pol o
b d
out break
propon ents
po si
blow s
du g
bas il
ele ph
bu ckey
we iss
o van
up beat
diver ted
ra ul
en as
j m
tra iled
niger ian
certain ty
tack led
popul ist
var sity
over sight
d n
microw ave
ori oles
h ilton
half way
tur bo
ed mon
provoc ation
chair woman
cir cus
sa p
ce tin
mal athion
fol ding
cultiv ation
mur ayama
cred itor
prev ents
contradict ory
rh ine
seism ic
post ers
erod ed
ro ster
stag n
milit ar
frater nal
ell en
hy brid
fo res
vaux hall
admit ting
ac cuse
ho v
bless ed
in complete
parad ise
assem blies
neg lect
ga o
w rap
ser y
compens ated
cr atic
dan ie
sa ito
q iao
15 4
reli eve
14 8
rab bit
ak ov
col lateral
o j
trans atlantic
19 63
youn gest
cum ulative
sex ually
toler ate
r pf
conglomer ates
earnest ly
rug by
fool ish
play wright
indic ted
indian apolis
be ard
catastroph ic
conf using
im pover
s laughter
criter ion
elig ibility
oun der
dis rupted
laugh ed
san k
chequ er
ob sess
flo wn
recru its
il aterally
cab les
document ation
tr icks
monu ment
cu bs
to ug
lev ied
sil berman
upgrad ed
re places
integr ating
sym posi
symposi um
g ars
mo th
um en
normal ization
toug hest
l la
za ire
tele kom
cho lester
8 18
ol i
g low
n hl
de fault
el la
19 61
aggreg ate
g ros
calcul ate
tempt ation
contin ually
smil ing
a aron
nur sery
ide als
smo g
er ik
under writers
don ation
observ ations
fortun ate
ex pose
bra ke
om buds
sh ade
what so
stem med
ar ra
sandin ist
e vers
conscient iously
nab is
jane iro
cholester ol
fair ness
domin ation
ber th
am pton
d nie
he mis
5 th
m ci
be es
neglig ence
transport ed
graph y
ro che
dist ill
t iger
ter med
mano eu
vo s
analys es
em ph
presid ium
m mc
zene ca
creat ivity
caution ed
irregular ities
serious ness
cill er
fa ke
07 9
t ire
tou che
14 6
cathedr al
dis band
iz awa
board ing
total ing
ab lo
ant y
nikol ay
ne west
se gun
man ning
announce ments
lo ren
ex chequer
ar isen
ch on
re pression
but ton
m w
26 m
j ans
back drop
alab ama
co vina
travel s
refin ed
cly de
pet itions
tax ed
z el
h indu
ph nom
col um
mac minn
c ac
9 50
ty ne
pip es
escor t
pf en
je ans
he al
rich mond
15 7
flet cher
nurs es
ban quet
met ics
fl ats
lik ud
par ity
alcohol ic
combust ion
c su
kor an
u ously
deta ch
add iction
hat red
repe al
shado wed
rul ers
pen h
diame ter
ju lie
recip ient
l ament
won ders
20 5
whatso ever
0 55
bl and
individ ually
ra vel
imper ative
specul ators
buy out
im proper
ik i
bri en
ven ue
plat forms
real izing
aver ages
l ening
jeopard y
ale ene
fr n
y ama
department al
40 4
19 59
subordin ate
or c
gau ge
influ x
narrow ly
tosh iba
serv s
discrimin atory
lunche on
credential s
cos metics
adjust ing
co in
mar cus
orig ins
fest iv
am ple
j ard
hol o
des pair
ang lia
gra ves
react ing
quot es
repatri ation
av on
trim med
bri bes
ash es
hamp shire
lening rad
o &
f ang
handicap ped
abandon ing
mid way
harris on
inter active
deterior ated
raid er
hew lett
am ir
bout ros
ber mud
accus ation
spokes men
do le
05 9
90 s
prejud ice
pr as
n pt
iz z
e ly
catch es
ex tr
z ay
rival ry
7 47
trail er
de pressing
jud gments
leak ed
peace fully
speed y
ir responsible
armen ians
recomm ending
subscri bed
sur rey
interce pted
implic it
sch u
aver t
bry ant
cost umes
beautiful ly
cle ans
m dollars
pavil ion
process ors
2 12
tsu to
bank en
pa w
ra ck
08 2
segun do
overwhelming ly
conced es
prob ability
koso va
invent ed
pro g
bak ers
wash ed
sur f
cra cks
di ary
le ased
ing en
hur dle
sh akh
wat anabe
hal e
orient al
ne ill
kat z
pe e
du le
0 12
miss ouri
search ed
prote in
ish es
15 bn
comment ator
inspir ation
supplement ary
sch wart
circu its
misdemean or
post war
not ices
wh ir
see kers
sim mons
tra itor
rele asing
bar ber
thor pe
n ity
vol tage
kin der
t and
mit su
prov ider
fle eing
du ly
23 m
ig i
po v
album s
tab lo
dens ity
predict ion
0 75
predecess ors
bom ber
gas es
m um
sec ular
im prison
ser bo
re ver
gy m
shap ing
my an
boliv ian
into ler
be have
sw ind
pfen nig
ballo on
ke te
qu int
rac ist
to k
in ity
remed y
shout ing
str at
v endors
upheav al
complic ations
heavy weight
pet ty
ex tradition
her ce
p ants
card inal
preced ed
cab in
param ilit
ill icit
me ado
ey ed
ro ach
cock tail
opol itical
pp s
tsuto mu
capsu le
blo om
eth iop
k t
siber ia
organ ise
hay es
s na
tight ened
frustr ating
colle ctor
local s
tw ins
aston ishing
resched ul
af fl
fire arms
msz p
besie ged
07 6
15 th
turb ine
ly le
catal yst
vacc ine
mat y
earth quakes
gener ator
stun ning
ad i
fr ay
col lor
fl ur
uni forms
s well
dis agreed
f d
ak er
he els
iraq is
char ming
portray ed
de grad
gl ou
tar mac
15 8
case y
ge ological
ant as
hol low
cot tage
t art
or ro
rid er
bo a
re ts
si b
slo pes
n il
cole man
registr ations
par i
inde mn
she ik
exem ptions
h ither
explo iting
live lihood
r pr
reservo ir
ni us
height ened
demonstr ating
arm strong
patriot ism
19 56
es y
fix ing
ging rich
ad ays
ra u
pe an
shim a
attain ed
fe aring
applic ant
th ur
b am
illu min
ich es
prem ise
kir ts
mobil ization
over due
mo ist
constitu ents
un ilaterally
vil nius
exhib its
ram on
form ulation
conform ity
deter rent
0 39
tend encies
tour naments
qu ist
ar mor
cham orro
f eng
now adays
ar ro
ste er
hall s
bur ke
cap ped
0 37
string ent
do c
ga ul
ex cus
r il
19 m
em per
sho cks
id i
caval lo
her man
reform ist
path s
color ful
forbid den
improv es
vest ed
spur red
delay ing
str ic
sc are
dub ious
06 3
reform ed
ambig uous
don or
sp ate
rescu ed
schmid t
da h
reli es
en light
ou k
w 1
n au
s acks
bo gg
a wait
cris p
sh av
e lo
ine ffe
wa igel
wal ters
prosecut ed
horri ble
iv ory
elev ated
ineffe ctive
th under
restr icting
sh and
own ing
ci ble
schwart z
mar vel
ay o
mid day
califor nians
mo dule
ens ional
15 6
recip ients
fo ley
z hen
deriv ative
div ing
s ion
p ines
stir ring
pese ta
patri arch
ed ges
200 1
direct ing
ore rs
lab orers
syl mar
shap es
jo ckey
ngu yen
bur t
state hood
dis may
rob bed
be cker
o& y
bi ased
laugh ing
$ 24
turkmen istan
yev ich
cunning ham
hy a
prospect us
u o
ren d
memor able
l om
ij a
al as
$ 600
mon o
block buster
jav ier
benefit ing
the ses
aud iting
str ings
we ights
depos itors
ar row
main frame
s wa
ecolog y
sch we
gri ev
activ ated
ded ication
f ist
gri ffin
dis illusion
serv ant
bo thered
06 8
y 2
video tape
s as
ez ln
mal a
ko wski
car r
le vine
spill s
financi er
er able
ten ham
tro phy
cush ion
re calling
yar oslav
y ok
vou chers
pl uses
bach er
sp her
md ale
a ired
n aya
zh eng
h ack
ins ight
s por
confirm ing
da x
foresee able
08 8
van cou
vancou ver
al maty
po ken
euro bond
sum mers
dis posed
pair s
cric ket
au ster
out lays
discre pan
andre as
defe ating
bled on
enn ial
met ap
sa ab
perpet ual
command ing
16 2
l ash
develop s
fright ened
asser ts
aggress or
am m
medic are
auster ity
legend ary
princip ally
outs poken
protection ism
& a
far ther
trust ed
chand ler
sil ly
k ham
mass acres
en burg
em be
fal con
w end
min sk
qu ir
instru mental
too th
favour s
st af
may ors
al ers
pa v
regain ed
s ally
myan mar
ra v
extra ct
blo cs
on na
cor dial
en velo
confess ed
ambul ance
ber ries
shok hin
advis es
pe y
contr as
val enz
dim ensional
mar ry
lu f
plac ent
spir al
0 14
str ang
bbc 2
critic ize
burden ed
im pending
pract iced
w att
clear ance
ke ting
o od
ch im
0 34
y y
ins k
nas a
conne ct
se vast
fr is
in coming
mag nol
lu b
15 3
embass ies
prep ares
nap les
sh attered
valenz uela
enc ino
sit uated
conced e
dict ated
er d
celebr ities
inter ception
19 47
ant it
mus sen
salvador an
p ity
sta unch
sh allow
ob struct
remin ds
hel ms
instru ctor
ac io
sab ah
mun d
infl ated
si bly
mur doch
excell ence
david son
f aded
bi ble
love ly
ras mussen
class ics
alleg ation
ver ification
prec incts
out dated
res eda
gu ine
sub way
wis cons
f sl
s late
encoura ges
b eng
mi red
for bes
pal mdale
adhe rence
co ven
wiscons in
his panic
fright ening
fo oting
wim bledon
comb ines
with standing
0 31
commut er
ces ar
t les
bl at
21 m
4 20
ra z
t rench
pan or
ad y
l ula
comp ounds
15 9
fo cal
recip es
glou cester
tast es
rush die
fair fax
er mo
outs kirts
bil isi
un settled
comp ilation
p ino
remin is
analy zing
af fluent
redem ption
past a
so y
un specified
iz vest
t bilisi
pri zes
ba a
15 p
tex aco
m ask
privat ized
ha hn
marked ly
ar te
en rolled
pm g
16 1
al to
ch is
don ate
sand ers
ignor ance
manip ulation
we bb
w agon
manufact ures
k ah
super power
28 m
ship building
particip ant
b ates
rou ble
king ton
fok ker
smuggl ers
p addy
bor ing
permit ting
un easy
le ch
in corporation
th u
ar id
indebted ness
appet ite
thie ves
quick er
dis solution
pl ural
sum med
bu b
mort ar
me h
lo ser
un resolved
hungar ians
satur days
col ours
ri ft
news makers
depos ited
de af
pro xim
4 25
di xon
tit an
man kind
na j
or o
0 33
0 96
26 5
il ia
tle y
make up
up holding
ded uct
bas kets
pour ing
dist urban
disturban ces
ho c
subur bs
mat ra
since rely
fed orov
q at
sevast opol
win ston
4 30
cooper atives
author itarian
com prise
o ath
har to
occup ancy
batt ling
sax ony
ted dy
turn around
bal kan
wel comes
ta ker
foot wear
compass ion
he ck
su harto
0 60
fort night
libr aries
in filtr
m gm
hither to
s igh
stras bourg
mar s
ot ta
con sol
allevi ate
0 48
por no
pass ports
dark ness
re visions
bur undi
4 40
tan jug
convent ions
jewell ery
ph on
wor ship
con fer
ilies cu
pres su
condu cive
boy d
6 5m
iz ations
tall inn
marsh al
prevail ed
cla ude
ul ously
poul try
bill ed
ma e
bl er
lo z
real ism
surviv ors
pione ering
restrict ion
mete or
bel la
comb ating
alleg es
sh ume
c zy
50 bn
man ned
o to
stabil isation
nor ton
intens ifying
west wood
de marc
str icken
sla in
he li
o pel
san tos
$ 80
care s
gart more
ad oles
as da
tom kins
lot te
gate way
rehear sal
r c
re cur
pre ferences
cri pt
maz da
age ing
crow ding
honor ary
recipro cal
wor ding
reno wned
la ker
al locate
flo rence
fare well
rif kind
rad ars
quar rel
we ls
bl itz
z in
nak ed
0 97
ver d
exer ted
id ad
under went
buil dup
man us
mon de
entit le
am al
mor ton
lil ley
re fund
in consistent
el lo
un avoid
19 58
doming uez
pig s
prohib it
dispat ched
ice land
install ing
scandinav ian
cr ying
semif inal
b end
n iel
uls ion
medi ator
brook lyn
sky y
lot us
pro d
po way
char ger
27 m
ko s
lo com
ma k
com prised
roll er
un lawful
mid west
haw kins
k pmg
hu go
poul enc
no bel
determin es
land lord
inv igor
pre cl
assa il
qual ification
ds z
batter ies
ir ving
ro gen
lu cy
expl or
cher ry
$ 23
$ 70
wn ing
e isen
k nit
cere als
sk and
y av
mexic ans
emper or
re opened
fraud ulent
proto type
19 40s
ent ries
san itation
conven e
legal ity
emin ent
dive st
reg iment
appropri ations
garris on
am mar
exp ire
b ounds
tru ce
danie ls
accident al
conne cting
differen ti
dock lands
o a
pion age
ref res
buil ds
car roll
wo es
im ov
mans ion
reper cuss
categor ically
lan ka
erics son
tra cking
pipe lines
peak ed
la ut
ordin arily
wi pe
philip pe
bless ing
un conditional
construct ing
shot gun
as as
delic ious
f uss
d us
acce leration
jud ith
bed rooms
m ite
r att
us d
bas ics
fair y
sad ly
is le
c anton
hi kes
ab bott
resign ations
marty rs
march ed
her on
arous ed
jail s
emotion ally
w aging
conspic uous
har ri
stim ulating
pist ons
instit uted
thro at
m oly
pe er
hospital ized
appe ll
out ing
to w
di vert
de vol
hur ric
av an
16 3
em bro
valid ity
mo sa
16 7
locom ot
sl ices
tech no
kau fman
me red
rad ically
t ina
design ate
stun ned
19 57
fundamental ists
mo bility
re purchase
bl ades
adverse ly
jo aqu
explicit ly
i ke
bound ary
gart en
bo red
cra cies
ed gar
establish es
ign on
daw son
4 80
bi ograph
ex changing
gl ut
w t
che ch
ti ers
north western
desk top
lit re
jen kins
imprison ed
resent ment
approv es
barra cks
os set
discoura ged
pa ved
chequ e
decl ares
os ity
ax is
central ised
advance ment
decor ated
penetr ation
hel mets
perform s
re a
exacerb ated
ch uan
eman cip
sl orc
che chen
epidemi ology
25 5
ru ben
sus sex
lod ged
im partial
extra ction
procurator ial
strateg ists
ty ing
pa uses
re coup
scept icism
sch aft
clare mont
routine ly
tra ces
pac king
shakh ray
ple ments
ant agon
ren n
ah i
mon archy
bo k
chir ac
vir tues
bar nes
ic ations
fo o
disman tle
in visible
bakers field
take mura
sin king
wil mington
tong ue
lay offs
ay atol
ne red
colum bus
ach o
kov ac
hydro carbon
amph i
qu an
am at
at op
dis order
brand ed
u th
restruct ured
gra pes
z ers
vi ability
ci k
28 5
hesit ate
pur se
being s
trans late
drift ed
mar l
abrupt ly
hig gins
it ives
hous ed
abort ions
cohes ion
cheap ly
court esy
com ex
tent atively
deta inees
over shadowed
we hr
pr one
ob sole
obsole te
06 7
arch bishop
ime ter
annual ised
stead fast
wn s
or n
distur b
d ak
rest s
in son
ie u
cu b
re cess
j ia
dian a
dam p
ve ll
fr aser
dismant led
re pub
wel coming
stabil izing
ye ah
maur ice
ty res
evol ved
syn thetic
do omed
f g
second ly
tr out
ch ub
greg ation
un constitutional
co er
in j
educ ate
hang s
ro land
bar n
wal nut
imagin ative
propri et
bull ion
limit ation
advertise ment
psychiat ric
ayatol lah
nikol ayev
flur ry
g kn
contrast s
tran che
side line
ult z
assem ble
gh ana
t nd
persist ently
receip t
zh i
wol ves
co operating
stock broker
sim pler
sket ch
ang les
de press
desc end
dis proportion
dis pers
kap lan
l und
in fect
he il
life style
dis charged
0 99
un pleasant
4 15
u ating
al ice
skept ical
repercuss ions
ne arer
q antas
practition ers
calab asas
joy ce
sh annon
inherit ance
dnie ster
novel ist
ice ster
sur passed
mad ison
moham med
olive tti
crit ically
f als
up side
acqua int
e b
vern on
addition ally
frederic k
vac ancy
k are
redist ribut
wolf gang
er nest
bren ner
st s
sk iers
36 m
proxim ity
m ash
in correctly
ps br
hy ster
ric hest
good by
24 2
ordin ation
mer co
bell s
dil ig
policy holders
20 6
stip ulates
b ild
ro gate
sat an
rest art
mac donald
bar ring
flood ing
08 5
sentiment al
bis cu
li de
fa a
id ar
ro v
entertain ing
bus iest
p his
ow ski
0 65
ed win
op pen
18 8
17 2
ti juana
en ne
host ilities
radical s
contribut or
cooper s
ombuds man
mo tel
wyn n
ku bo
bo gota
ceram ic
iam en
privat ise
proced ural
check point
super b
wp k
sol omon
vick ers
su ez
19 40
regrett able
50 th
deep ened
assist ants
ham per
fold ed
or ial
or ruption
ts ov
antic orruption
ar ctic
it ations
sl iding
mayor al
hut ch
gen oc
san e
ther s
reward ed
be ta
i ac
ven e
it an
che ers
over throw
gi uli
$ 45
val ve
un fairly
the by
mot ions
arm aments
es pionage
stero ids
bermud a
el or
fruit ful
le thal
modif y
mil ton
merco sur
s word
pertain ing
nervous ness
demo graphic
south western
exam inations
mur dere
her b
ra ced
lean ing
evac uated
epis odes
sal am
b ick
post ing
nig uel
air liner
parliament arians
card enas
car ved
flag ship
bar ing
fis ons
claud ia
advoc ating
com pl
am pi
un available
juli o
bre tt
notice able
c ay
jab bar
pil kington
t ug
ce me
over turned
rif ied
fu j
m ound
ar co
g c
ne al
bar rett
yitzha k
pl as
plic ity
pepper dine
un favorable
aff iliation
mar ble
stri ps
their s
f laws
der ick
fine ly
voc ation
h ats
with holding
cast s
central ized
med fly
stam ped
v u
sail ors
rest rain
hy dra
k end
ret ard
az ir
clam ation
ef fic
vy aches
s ni
ton es
gu ides
is ha
ach ed
intimid ation
g esell
str ad
vi er
cyn ical
tou ches
vac lav
fur ious
pur ple
ben azir
southeast ern
discrimin ate
o lets
ci ampi
concl usive
ren min
im porters
se ct
app rent
ho well
me than
ome ter
p ies
06 4
dm 3
plaintiff s
whit bread
q asim
ve z
affili ate
w rist
e go
peter son
matthe ws
she arson
morav cik
innov ations
s if
so theby
dra fts
deser ved
le icester
occup ying
sed u
comprehensive ly
komsom olets
gen eric
argu ably
do e
med ell
ceme tery
sh af
r bi
under written
23 7
imag ined
patri ots
laure l
v ino
pro w
sw 1
sho ots
ch ine
in capable
plant ations
sent iments
presu med
contend ers
he mi
q ichen
niel sen
dan cer
ah ue
don ahue
paw lak
do ses
err one
se gni
r jr
split ting
under way
ar du
m uk
con fe
gu zman
fe ud
d ling
iat ric
min ne
ant ine
med ie
ca jon
23 4
coron er
dog ged
be loved
wh im
gen ius
pron ounce
me y
me tric
s lee
in significant
j ong
p here
cul es
di version
29 m
qu is
os es
compound ed
priest s
wh ales
the fts
mar co
phas es
abkhaz ian
f lawed
set backs
bundes wehr
ware houses
spar ks
rome o
ced e
fu jian
su isse
l iness
passion ate
mis cell
respon sive
ale k
34 m
en chant
r ukh
patter son
ru ined
lab s
ru iz
10 p
ut a
c z
30 bn
ann ie
key nes
jac kets
re assuring
bar k
ow ens
fitz water
scre aming
nostal gia
spec ulate
pau se
fles h
br ighter
all er
embar k
fal cons
h ilar
hon dur
22 2
ash ley
trin idad
p ire
board room
la ender
mar ian
se izing
vital iy
nov a
counsel or
treas uries
co te
philosoph ical
medie val
dm 4
w m
mic he
ane ous
b k
multination als
ver ing
fabric s
wood row
geograph y
ger ard
fragment ed
sk a
c f
fore seen
mon ster
ro sy
hemis phere
feli pe
sur pluses
2 11
nav igation
in correct
sw am
over sees
el way
ch asing
l ens
cent red
ha j
governor ate
n ail
de ton
privile ged
boast s
17 7
e ea
clean er
slo bod
paul a
zhe jiang
battle field
camp uses
medell in
dan ces
stal em
over looked
me ted
aggrav ated
inno cence
cl and
fur nish
d z
into sh
wer ner
fat ig
nic ol
be k
abra ham
20 2
in jected
ver sa
so pr
spat ial
not tingham
educ ators
rad er
arch ives
green house
iro bi
na irobi
gun man
correspond ence
se jm
de fl
kill ers
grat itude
19 20s
s lap
str ata
co ating
tom my
chea pest
har med
supervis ing
jiang su
arab ian
carp enter
vari ant
le ve
cree t
cha pel
sa e
ba ke
dis creet
der ail
coup ons
on ions
hard t
tur ks
ah med
ic y
200 3
ur t
complement ary
ent ail
vill agers
07 8
rebound ed
kod ak
fled gling
yitzha q
diagno sis
pas sages
impover ished
al locations
king fisher
f ford
fre do
spher ic
tu cker
t ant
r one
en ic
mar vin
ill es
als thom
refe ree
ho o
start ling
tra ctors
on er
z ou
16 4
car maker
sa g
29 5
differ ing
vyaches lav
wrong doing
councill ors
dae woo
ho gg
ra iley
concer to
ting ly
stri pping
0 47
sl ay
over looking
nit rogen
end uring
22 8
skr 1
loy d
si z
compe lled
b ally
brit ann
gra pe
victor ious
tra ced
cand le
marx ism
roberts on
af a
ze it
pa cts
access ories
19 4
mat rix
sl id
200 2
borrow er
mig rants
3 90
p ia
accomplish ments
admitted ly
quo ting
def iance
human e
dis regard
nam ib
kilome tres
mon ro
interven ed
x ian
se f
column ist
rot ation
| 3
work shops
can ned
gr ou
ext ort
il ings
v ial
ab outs
cor ners
sight ed
45 p
20 4
ta inted
he ir
| 2
consist ed
lone ly
ramp ant
spons oring
town ships
pray ers
divers ify
18 00
mer c
t issue
re valuation
profess ors
vari ably
corre ctions
assist ing
bn s
40 bn
est ine
nu cle
ste phan
cres cent
un disclosed
ap pend
labe led
cr ushing
cap s
contrast ed
16 8
sup press
escal ating
stat ue
pat rons
rac kete
cous in
k rist
lo go
v angu
un is
special ises
embra ced
viol ates
cany ons
al armed
magist rate
t nt
pack aged
hard line
extra cted
decisive ly
sho cking
se vent
19 55
harri et
exist ent
divor ced
il o
absent ee
adapt ation
jef fer
shield s
cla ir
scra pped
by ron
for ty
bal boa
tou red
w ight
ste pan
stret ches
fr amed
la ur
dor ado
in justice
17 1
hop kins
refur bish
b loss
fierce ly
ener y
he z
li b
semin ars
mc n
resist ant
in variably
cont ender
smil ed
en tour
accus es
lack lust
sp ouse
acknowled ging
h ort
hol mes
siber ian
ben ches
hor ns
mer cy
ad an
commission ing
ter race
ar gy
ech el
right wing
modif ications
38 5
cea uses
y ko
ce ilings
attra cts
cland estine
budge ted
possess ed
2 14
entrench ed
ar ov
craw ford
18 7
bra ves
ne phe
mongol ian
m ide
royal ties
pum ps
din and
warrant ed
bi ology
b lake
lav ish
bear ish
gymn ast
ab und
dep ended
position ed
ende z
cer ity
sa ints
contro ller
sun k
u oka
off enses
er man
at al
19 2
alex and
tr it
wh ale
ra i
ch ard
dis grace
c ds
class ification
hal ting
instant ly
illustr ates
under gone
strong hold
domin ican
slum ped
tren t
v ince
legisl ator
mos s
warm th
mar tha
vac ancies
spo il
kilo grams
ro pe
ky y
ous es
l ime
mar ion
l ug
ceauses cu
stand still
pac ed
exam ines
le w
sl udge
he ctor
outrage ous
bl ur
al ous
ou x
cha otic
al tar
bo ts
f lip
no s
ish ment
revol ts
18 2
dis satisfied
jama ica
sea q
occup ies
dispos able
not ify
smugg led
promot ions
r tz
cli que
e ter
privat isations
ud f
h icks
con voy
cate l
decre asing
sheph ard
wy oming
reim burse
shar if
comp aq
$ 28
17 6
0 94
cl ues
con figur
ir relevant
p ins
res pir
astr onom
ham pton
and res
fif ty
he ge
mobil ize
request ing
out raged
ri al
far o
as ians
ts k
excus es
v ass
char lotte
k ul
du c
stri kers
moder ately
solic itor
tun g
endeav or
list ings
with stand
ca therine
var gas
not withstanding
so re
fsl n
sey mour
tables poon
zlo ty
car acas
surge on
ker n
20 1
advert ised
com promises
t ick
de lin
al fredo
independ ents
cri st
ray s
cur few
ily n
psych ologist
dis cer
part ition
com promising
b ain
ro en
in ate
$ 800
p ard
sto cking
bour geo
corner back
heav ier
ess ay
defe ats
compart ments
north rop
sl ashed
re assure
line man
new er
36 5
youth ful
entour age
yaroslav sky
sole mn
sep ul
extra vag
ten n
pire lli
ant is
ds ay
un decided
quot ation
zz led
ma the
prec inct
ch ai
05 3
condem nation
ob s
my st
9 th
gen ic
outs ider
eup hor
sli ps
show down
maj ors
le i
r b
lin dsay
k not
grad uation
count less
narr ative
reb ates
separat ist
panor ama
no isy
bu chan
hill side
nom inee
po ems
mor i
end ara
demol ition
post ure
glor ia
protection ist
0 95
chap ters
sun shine
gall up
submit ting
f ared
te ens
cr ust
re plies
over heads
fun ct
de funct
ste alth
pa is
per kins
geor g
en ig
val e
system atically
wil kinson
ha sty
cu is
900 m
bapt ist
anony mity
at ical
da hl
mis conduct
at able
e po
cler gy
ug anda
mar ino
se mit
ap ology
up dated
ga idar
mig rant
princip als
nun n
cur bing
mer sey
than ked
he ap
am bush
zamb ia
shed ding
aza wa
revel ations
pul ls
32 m
extrem ism
cool ed
ret ention
p &
renn ial
pam ph
| 5
guine a
fa ire
ma ine
25 4
believ able
g our
tr unk
but t
un lv
ud c
colo sio
k athle
toile t
un paid
f loyd
si han
sandin ista
development al
hz ds
jer ome
kathle en
x ter
accomplish ment
inspector ate
cal gary
sihan ouk
snap ped
disgu ised
mis ery
cl ad
stri fe
pe rest
3 50m
7 37
ang ling
haf iz
jeffer ies
content ious
mar lin
m cl
26 6
tub es
orche str
sar ah
de ception
ie ce
spec ulated
dia z
sub sist
n inten
s ley
30 3
33 3
sk il
sin cerity
con voys
tail back
den se
hur ting
assign ments
in take
unavoid able
nomin ations
mir ac
possess ing
ma ver
salv age
rail track
narrow ing
minne apolis
rib bon
io s
enthusia stically
period ic
rehab ilit
canad ians
rec ital
sfr 1
re van
07 4
ban i
mide ast
in fo
19 54
hu an
dis array
qu art
fl ing
whis ky
coron ado
k ri
e i
tap ed
ke ted
12 bn
wheel chair
modern isation
ffr 2
lo gy
tun ne
m ie
bour ses
ninten do
insid ers
commercial ly
gesell schaft
07 3
lof ty
monro via
chick ens
montene gro
pil es
hoff man
p and
re mn
out fit
n fc
yun nan
pri x
nichol son
trou pe
switch es
out lines
am strad
recur ring
mon ted
monted ison
de pot
w ts
u seless
18 1
stabil ise
sh ack
medi ators
scr up
prohib ition
genoc ide
d aring
ved a
eu rom
ra ft
0 38
app arel
surrounding s
16 6
sz dsz
dis cs
s ard
31 m
des cent
fitz gerald
am ex
commut ers
as ers
ec centric
enrich ed
discuss es
glim pse
liber ia
bever ages
gard ening
wood bridge
function aries
rev iving
portra its
downgrad ed
f use
med als
prostit ution
michel le
par amed
so s
sh run
for given
dun kel
gr ily
co ins
miss es
marri ott
su person
r 1
jit su
& e
pla us
06 2
to re
ch il
group ings
shume yko
g room
ap iece
t id
ins ki
gra ins
oly n
ar ias
im i
cept ible
de bris
search es
whit ney
bar rage
news print
st ur
domin ates
cho oses
tribun e
fm ln
al catel
gener ates
cit roen
socie te
vand alism
comb inations
home town
20 3
breed ers
sanct uary
17 3
quar tet
intention ally
ni hon
mat uring
me ad
scholar ships
gard ner
farm land
bern ie
scrut in
irre ver
mer cant
lever aged
dis mal
mc martin
hydra ul
18 6
lam p
repe ating
ly s
ch ula
ten berg
ju b
g age
ang a
ter a
p ater
analy tical
us kas
jack pot
honest ly
excessive ly
un related
sc outs
jour n
hast ily
bec kett
stir red
expand s
in flows
s& ls
understand ings
guide line
can oga
peace making
bl ames
vic inity
bourgeo is
pressu red
pe rennial
phr ases
declar ations
deta ched
schro eder
ot ti
buoy ed
cli fford
ste ak
ig on
attribut es
pre condition
eat en
cour thouse
termin ation
dis counting
promo ter
pl ough
design ation
lad en
wal de
cor ro
sh un
expatri ate
30 5
m ously
n ier
le aks
sk id
5 5m
stant on
het ti
b ounce
dis playing
ar ming
inc idence
regist ering
tan kers
boy friend
over seeing
pre cautions
ot ap
valu ing
05 6
an grily
off ence
hein z
re bu
pe ggy
05 4
t ash
san to
u pro
terri fic
el usive
fin invest
c pi
backbench ers
industrial ized
part ite
de vo
ld s
nar co
ins cri
mc gra
l id
zzle ment
se v
dai wa
califor nian
jard ine
av oc
an cho
mountain ous
gun fire
treat s
mar ilyn
eter nal
bud dy
readjust ment
vel t
excl udes
def ra
a it
oj ai
inter ceptions
new bury
fow ler
st ack
fled ged
pl c
at on
ga e
re it
ro bot
av es
u er
bod ied
9 90
md f
do b
er ne
25 6
quant itative
aven ues
bur gl
burgl ary
per ceptions
tam pa
critic izing
affirm ative
express ions
suc cum
ven ess
th um
spor ad
forecast ers
drum s
ce ls
life guard
tre k
ier rez
gut ierrez
ar c
promot es
side bar
rig a
bath room
reminis cent
ser ra
pum ping
ne um
discipl ined
tim ed
medio banca
revers ing
hon ol
honol ulu
custod ian
reg ent
rest ated
czy k
ed i
vide otap
tu z
rum or
clay ton
cl an
fin ley
cathol ics
mt g
burn ham
xin jiang
herce govina
18 3
19 46
tho od
hed ging
ug us
sa ugus
ardu ous
issu ers
u ities
trade mark
hondur as
shand ong
y ose
aer onaut
en sures
am use
mul l
ba con
dead lines
as ive
humph rey
mac millan
em il
in fin
ad ventures
cin em
17 8
fran z
ka iser
mac y
bur ial
stap le
qu a
27 2
ik awa
26 2
06 6
hab i
un even
m ould
absor bing
vou cher
qu ie
khome ini
pa ving
anticip ating
ow itz
can vas
transport ing
v ander
dome stically
ah an
re payments
fo g
infer ior
explo red
ol ph
dis credit
pr inter
cul pr
cr ane
stric ter
fo es
col lier
mini ature
lo we
histor ian
brewer ies
co ve
sul ph
share holdings
r ude
ru pert
ma ge
al ma
track ed
he ather
ta ft
lever age
d pa
prostit utes
esco bar
stalem ate
par ish
hit ters
e ck
call er
inf ants
fuel ed
as ahi
tun es
p bs
pill s
lit ter
seaf ood
17 4
rel ates
mou se
aug ment
fis cher
sp ree
atmo spheric
skand ia
per il
inaugur ated
chel sea
an om
b ib
gal a
semicondu ctors
qu asi
es per
li bor
25 2
dest inations
pil ed
de bor
ich iro
mer ck
g iro
mc g
fear ful
le u
poison ing
overwhel med
mary mount
cow boy
7 th
out burst
stag nation
mac gregor
modif ication
min h
08 1
dis position
emph atically
in expensive
boil er
sever ance
h inde
p all
refin eries
advent ur
inf >
19 3
wi k
re id
du o
are rs
y 7
paragraph s
uc sd
al ys
$ 27
ac ou
mention ing
vas il
4 60
o val
18 4
benef iciary
spraw ling
councill or
inspir ing
k icks
ort iz
co existence
con rad
author itative
pe ab
sepul veda
de ha
sl iced
l oun
re vising
tran si
kh ay
than sa
fer rous
pit t
izvest iya
se man
chech nya
re plic
fic ial
rab bi
wholes alers
p ivo
sul fur
eleph ant
37 m
comm end
v sel
od om
ale y
in ert
do cks
var ian
ush ch
ta o
25 8
h ust
capital ised
purch asers
amaz on
tuz la
mon roe
subsidi arity
budd hist
rail roads
federal ism
w ak
luf thansa
mot t
subordin ated
survey ors
to ut
tum ble
cook ies
ed ible
kidnap ped
march ing
bl aming
th am
st agger
tend ers
az t
cra cked
ex ting
exting u
gold stein
atta ches
ann ul
pari bas
sty lish
opt ic
y 5
in car
som er
en do
cultiv ated
vel vet
x er
33 8
un ci
li ang
jun g
at tal
chore ograph
3 35
hy dr
paramilit ary
es a
cour tau
ling er
g ou
08 4
gonz ales
resign ing
recogn izes
tr ous
tablo id
rud olf
staff ing
co ws
ho ech
hen ley
sch les
thri ving
mod ules
od or
ban ners
past or
cau cus
me g
3 94
proprie tary
fos sil
we ary
indemn ity
m old
hel pless
77 7
dis gust
condition ed
over turn
bri a
sam sung
mc en
bas que
hoech st
drag ging
weapon ry
08 6
real istically
u i
wend y
bol sa
ly brand
sand ra
y 3
conting ency
with held
bl uff
olymp ia
artificial ly
wel ch
bu ffe
ry n
mil ken
dm 5
mechan ics
optim um
enc roach
read ings
it amar
home owner
music ian
ill iter
barbe cue
def ends
liber ties
curren ts
be ast
diagno sed
of gas
ar cad
iron ic
str anger
ne uro
arch e
mour ning
goal ie
utter ly
rod ney
foo tage
andre i
open ings
c b
un successfully
am ato
circum stance
pud ding
thorn ton
fire works
g wynn
commun al
erne sto
acqu itted
bak ed
shak y
vol ody
kno cking
co ward
cleans ing
ae gis
red wood
ad ah
so dium
super ficial
black mail
ob ed
m 4
ra zor
kak izawa
free style
du es
diagno stic
v ity
sens ation
ingred ient
3 27
bar ric
manag ua
back lash
compe ted
mon k
steph ens
inter fer
ban anas
sele ctions
y uk
fif teen
inv aded
emphas ise
tap ped
05 8
cl ue
at tering
18 9
mix ing
23 2
ra ided
deha ene
grand children
present ations
vers ive
co ke
att ent
i q
fu jitsu
y sp
ak ashi
bott lene
bron ze
g ens
0 41
subsid ized
him a
infringe ment
j el
sho wer
gold berg
sen e
cal ories
p ang
pessim ism
e is
stef an
ku z
serv ings
ar ranging
cam acho
19 44
spe l
prov o
slobod an
d mit
wise ly
prim itive
peab ody
miy azawa
ca es
burg lar
un founded
rich er
l ude
has san
brown s
ol l
li as
s nar
bogg s
indu ced
win ery
deterior ate
reg rets
catal ina
l ut
tand em
char is
s nu
petro v
ment or
contract ual
volody myr
ann i
j ag
ag assi
dire cts
tr ays
22 1
9 11
collective ly
rho des
tra um
ro ose
he ars
lo gg
loren zo
stam ps
consul ate
ft c
ene me
hu eneme
challeng ers
schro ders
ch unk
trave lled
demarc ation
smo ked
ha in
indif ferent
c ile
spect ators
con tests
sha wn
smel ter
base ment
back bone
d war
ia h
rest it
vest i
ver ified
ky ong
flu or
pere gr
ob li
20 8
lobby ists
dio ces
ush i
cond ens
san itary
defin es
gt d
bu cks
pre requisite
blan ket
if u
h ue
ply ushch
b h
fl ame
de en
ner ves
cal am
ny on
denomin ated
17 9
pursu ant
ida ho
pr ingle
co ch
p ablo
debor ah
endu re
flo ods
emir ates
g ior
prosecut e
nephe w
hesit ant
hinde red
turno vers
sopr ano
4 90
tem pting
pl ague
bul atov
cap ri
ra iser
dedu ctions
var iation
e in
ra ins
oun cing
un satisfactory
n m
h se
custom ary
la und
id io
carri age
simpli fied
le ach
conf ine
gra f
re illy
20 7
al g
bel ly
ordin ances
per missible
clean ed
mat ls
under line
joaqu in
good man
n abil
watch ers
prop het
by pass
ordin ated
arrog ance
royal ty
f rey
ves co
inter governmental
vo ke
33 m
jo z
err atic
g ays
naz is
thor p
u h
bum per
laugh s
ese t
sl ated
23 3
pol ite
ren s
ren amed
23 6
rong ji
200 5
rosen berg
wet lands
yev gen
roose velt
hot test
ran kings
contribut ors
hom icide
has hemi
wol fe
fe minist
bitter ly
bright on
dis orders
up surge
resist ing
broch ure
ob session
que ue
reck ons
condem ning
partic les
ber gh
bomb ings
cad re
dur ham
app alling
f ading
26 9
inter cept
hu me
absor ption
m gn
no x
shrun k
interim s
yor ba
pol ly
gu ad
go on
de co
tur abi
serge ant
tur tles
comed ian
paraly zed
ear ners
final e
learn t
view points
lus aka
aus p
appropri ated
measure ments
zo e
purch aser
capt ive
c gt
oper as
li bel
mcen roe
kl m
ken ny
cross es
dimin ish
end anger
mc gee
mut ed
lect ures
c ion
ad os
b li
au top
d les
courtau lds
fer dinand
va al
per o
38 m
cra cking
chin o
vod af
vodaf one
bol lah
g d
85 p
sw allow
esper anza
pione ers
gest ures
hit achi
compos ers
pol i
al var
pre car
p fl
lyric s
stab bed
sur faces
yan kee
appla uded
implic ated
emphas izing
gro ves
har ness
ausp ices
arrog ant
mus cles
bing o
inform ing
trick y
rut sko
ev apor
deb bie
gr p
la ing
milit arily
say y
northeast ern
intense ly
l ans
el ine
peace keepers
intrigu ing
h are
yose mite
tail ored
to e
46 m
atro cities
22 6
vol k
util ize
brea the
bor g
contribut es
def use
add itions
5 60
exp iry
fug itive
hawa i
un used
mosqu es
r ats
pre view
nar asim
bas ing
aj d
sil ajd
ham mond
sim plicity
str angers
un named
pal is
hy gi
descri ptions
back log
conne ll
dam pen
cover t
cla es
gentle man
28 1
c off
wal ton
08 7
bri um
pas qual
c ared
ic ious
poly mer
se co
pu c
da o
o sha
exam s
ah l
envision ed
g ger
hob by
n ib
red land
transform ations
pivo tal
cros by
bras ilia
question na
hart ford
hans en
long standing
prote cts
nor walk
viol in
laugh t
colog ne
decision making
quin ta
ye revan
dist ances
booth s
im properly
consu me
staff ers
deser ted
narasim ha
oil ers
t land
lu ke
squ ab
ble ed
clash ed
fr am
bact eria
silajd zic
0 98
fl ush
reck less
hom o
fu ji
gar ments
7 50m
13 bn
pr d
louis ville
07 2
hand y
most ar
am pli
gr um
sid ney
48 6
w l
calcul ating
phill ies
illness es
bri de
tin ent
27 3
homosexual s
intermedi ary
6 20
bat man
persecut ion
recon cile
compl iment
cath y
engine ered
cost ume
tro jans
sign alling
devast ated
in fring
consc iously
ground ed
stand by
lo oming
special izes
mas ks
ne br
out law
resid ual
head way
was ser
progress ed
birth s
real ty
pp ings
an ec
l 2
rein er
plann er
f ad
any a
y ol
ho re
gl am
hold en
fertil izer
illu strate
modest ly
chol era
s cam
po d
nor odom
free ing
guard ing
states man
weigh s
push es
compli ed
collect ives
nor wich
ham bra
intermedi aries
a pe
hard ship
in vesco
mare k
work load
spect ator
public ized
worsen ed
pay out
insp ire
gra p
fl am
bir t
b hp
st ine
organ ising
d lp
f li
dra gon
cam ou
fan ta
p low
morning side
dix ons
her rera
sh red
05 2
22 7
anx i
19 1
affili ates
bel mont
over ly
al hambra
congress es
emphas izes
d habi
em battled
spray ed
ange lo
gran ic
warm ly
nebr aska
decentral ization
spill ed
boo ster
anec do
un familiar
observ es
protest ant
her bs
to ken
nor folk
cou gars
s miles
boo king
0 91
mill enn
recogn izing
suz uki
sp ared
ph al
cheer ful
sch ultz
mem phis
out performed
subsist ence
q c
ar ial
millenn ium
ir respective
rans om
discard ed
vil i
sam pling
mis understanding
perfe ction
3 45
im an
tra ps
attend ants
arrest ing
soften ed
k icking
off ended
doming o
irrever sible
op ed
k re
fire place
isol ate
pic nic
y ale
c live
b &
pollut ants
mir rors
thrill er
contempl ating
fil ter
valent in
sever ity
z ev
play house
ab undant
condu ctors
hyper inflation
promulg ated
exped ient
out doors
resem bles
broad ening
don al
congrat ulations
k ome
f us
sto v
exp ulsion
id av
ed mund
contra ction
u be
jim a
ali as
sa usage
resem ble
ste t
bet t
for give
schro der
sw ings
m ick
ct er
ing house
ha il
th read
bic an
ram ona
un finished
as a
inter rupting
fa int
log ging
mec ca
coinc ides
n v
80 5
in hab
in vention
excess es
fy rom
flood ed
io sity
turbul ent
perpetr ated
jum ps
histor ians
30 6
je ctive
down side
se ating
shado ws
z ig
distress ed
mon to
hen sible
pend leton
reced ed
w ir
bankrupt cies
8 5m
tre vor
aux ili
b ta
tar n
k ies
go at
bill ing
he el
bever age
metall gesellschaft
de ed
sc ant
sk is
int ang
sol vency
accum ulation
ul as
resum ing
straw berry
note worthy
proud ly
distort ions
heil ong
vi kings
team ed
su ic
insul t
ser gio
$ 29
2 19
sk ins
sh ing
u ds
obsess ed
sn ag
broadcast ers
tell er
maj id
car olyn
calder a
go spel
go ers
ent rants
red ress
cho ol
g ender
gr igor
in trans
ze ll
it ting
embe zzlement
res cind
06 1
rug ged
th ar
com it
stat istic
scal es
gill ian
pro xy
ro o
tro l
mis management
out flow
g &e
un wanted
liber ated
air space
car mel
ta ine
ang ular
palis ades
bun ds
28 8
intern ally
porno graphy
breach es
theoret ically
g dr
de militar
intrans ig
interrog ation
burn t
arth rit
simpli fy
hin ds
g res
do y
defic iencies
cs f
us her
re deem
mush room
par alys
me lan
bo ck
up swing
je alous
vill ain
add en
ant id
w ong
car les
red es
swing ing
can on
an noy
ath y
en eration
dolph ins
ke st
courage ous
po ppy
ran goon
anti ques
demo bil
pres chool
mand ated
nov iny
cour ty
main stay
sm ashed
rackete ering
clim ax
hur ts
execut e
knowledge able
pot ter
adop ts
jo s
monto ya
care y
demo cracies
dead locked
no st
19 52
margar ita
dif fers
sub versive
war head
medic ation
objective ly
deli vers
0 13
az tec
ig ake
ban e
z est
uel ing
out lawed
bri be
sanction ed
sak igake
o gues
abund ance
o e
pil grim
world s
24 6
16 9
up scale
5 40
45 5
ker ry
22 3
valley s
auxili ary
v ons
ad mired
hum ble
cur ator
heilong jiang
sw ung
re fut
restit ution
vlad ivo
vladivo stok
mo hammad
iz ai
po inters
stro kes
andre a
s ny
bar ter
ed el
35 bn
bu cking
real isation
special ity
gr ind
mar wick
sulph ur
ex od
exod us
cal y
boost s
photograph ic
im poses
sal on
guill ermo
not ification
americ as
pic o
rod gers
19 51
ou los
bra kes
y 6
c akes
30 7
in compatible
tir ana
fr g
enhance ment
fri es
igno res
wrong ly
appell ate
aff idav
concentr ates
arcad ia
forum s
extort ion
sa iled
jam mu
v augh
abol ishing
st int
oc currence
possess es
30 th
gran ite
ordin aries
spo on
ra g
corrid ors
w ana
natural ization
ch p
th ic
ob scene
k ro
gl er
lo re
og y
ie ux
out cry
le vin
acou stic
iv oc
m ings
qu eu
loyal ist
f umes
configur ation
com a
refur b
endu red
colon ies
rub bish
percent ages
squ ads
lobb ies
m ia
as so
reschedul ing
ou lias
19 6
pol is
sl ides
manip ulated
res orted
opt ional
es crow
el vis
admir ation
calm ly
radio s
bn p
odes sa
hawai ian
sco ts
compla ins
je ep
leg co
bbc 1
bo iling
gr unt
ire ne
de valued
meaning less
es ia
stock holders
im aging
cater pillar
his pan
ans k
22 9
plaus ible
mt l
23 9
wrest ling
70 3
reg eneration
spir ited
hit ch
league red
su spending
slo ts
mc mahon
period ically
guitar ist
ref ine
glo ve
boo kings
stereo types
bra ins
sw ana
hect are
understand ably
edmon ton
eld ers
d ner
restra ining
ter ti
qu its
tri partite
unders cored
en shr
nur t
reward ing
u sur
termin ated
reason ing
k ram
ass im
ass orted
bitter ness
kon o
11 bn
r pi
succeed ing
m ural
wa iver
6 80
vangu ard
anc ia
cur iosity
manifest ed
discipl ines
bau er
anti qu
2 17
for ging
ame t
dian ne
william son
20 9
be leaguered
5 70
tor rey
log istical
bol stered
counter intelligence
siz able
invitation al
hay ward
rossi y
mitsu i
wa its
kome ito
se am
per m
perce ive
phill ip
ish in
dev ise
dan e
ne ath
stum bling
light ning
24 4
loo ting
pill ars
it as
28 2
inter change
le ta
az ar
th aw
23 1
to b
in forman
satur ated
27 1
sens ational
esteem ed
47 m
bu co
p loy
art on
stru cted
al f
yo sh
pear ce
col t
moroc can
dis missing
interfer ing
vulner ability
perest ro
ke izai
ver ne
terri bly
breach ed
bom bed
mcke on
tem pered
trans plant
photograph ers
inaug ural
carn ival
near ing
pro cter
subordin ates
hum iliation
lo cks
nice ly
twi sted
moldo van
xer ox
perestro ika
deb ating
38 6
hospital ity
miscell aneous
p ardon
in mate
48 m
metap hor
ho oked
fi bers
ke vich
k us
gri ef
hurric ane
m h
concept ual
respe cting
d ul
a unt
turbul ence
island ers
bat ters
co b
k wik
lub bers
south ampton
5 25
as certain
os s
unle ashed
kick off
amaz ed
28 6
pap oulias
aero spatial
bop hu
lad der
distinct ly
li ken
sheph erd
ration ale
side lined
re affirm
se als
bus ch
ir na
plate au
rain bow
al umn
b ump
to l
f ib
kilo gram
ch ased
m 1
need ing
hum our
infect ious
hol t
capac ities
br am
fill more
ld gs
ev ade
g and
k ry
hur ried
24 8
aerospatial e
26 4
it te
7 80
c fa
sl ightest
hydraul ic
alg iers
west inghouse
bophu that
form ulating
un profitable
varian ts
winds or
def enses
origin ated
24 7
p neum
resid ences
poll uted
les bian
fo il
wart ime
da unting
bophuthat swana
pa ints
22 4
scram ble
ir rational
28 3
erad icate
pu zzle
vers es
bla de
rod t
ra ging
kidnap ping
mir anda
terti ary
mor oz
ke ll
concentr ations
implic ation
li eu
fa de
| 4
lia oning
dun n
mu ir
re opening
show case
6 40
05 1
bel ts
teles cope
prefect ural
fast ball
tele phoned
val ves
tack les
p ga
depth s
counsel ors
un sure
where abouts
sd g&e
key board
spr ung
grill ed
sim mer
oppen heimer
c law
coast line
west pac
vel ay
z sa
sea hawks
wit ty
zap at
must ang
mart yr
kras no
prag mat
sur fing
feli x
she e
kn ights
p wc
gen nad
chem ists
jud a
res ha
concept ion
doubt less
fragment ation
web ber
amal gam
m cle
ru i
h ated
8 th
2 93
mult if
me ll
dram at
advoc acy
pre tend
deb ent
35 p
bal con
back grounds
se vern
g b
ere cted
n ou
ar gus
dres dner
br ay
ibrahim i
cur t
motor ized
4 10
05 7
class rooms
depart ed
kidnap ing
stat utes
reck oned
27 4
interval s
of tel
mo at
ak ayev
to um
score r
cor relation
ak in
gren fell
bo ws
an men
novel ty
laund ry
fra gments
cuis ine
des ires
mar vell
tem po
ra ine
cu ff
trans c
casset te
ling ering
al pine
25 1
tap ie
head aches
tr ilateral
k wang
li re
bo e
pro jection
ne x
ra j
character ised
motor cycles
bail out
resor ting
sny der
d ain
news watch
bar gains
for k
quant um
ensu ing
mat adors
pal ms
q vc
sr ps
cop ing
advant aged
nag ano
ue t
lo oms
sk im
es cu
condu cts
ic l
y t
pr att
m ice
attal i
advert isers
ir resist
must afa
dress es
over capacity
po inte
ob is
k nes
5 30
magnol ia
photograph ed
organisation al
roof s
ach a
incred ibly
oth o
gr is
b ant
ch man
newcom er
sign atories
inc iner
35 5
b ide
the l
d l
scha ef
33 7
cur s
is che
mole cular
suf ficiency
by r
store house
so e
mir age
shrug ged
su pt
hom ers
wild ly
bag gage
euphor ia
han over
crus ade
pie ch
errone ous
bel ated
detach ment
tail or
envis age
i ant
ent ails
beth le
seiz ures
mild ly
hd tv
0 42
08 3
es p
fal tering
te ous
c ic
toler ated
ste als
lau rent
65 p
he red
ped iatric
im porter
mu jah
de le
ul ary
nic o
bre t
ela ine
f ont
at ers
b rom
fill s
stream line
gard ena
5 2m
ge m
nabis co
b jp
c offers
ethiop ia
at kins
re modeling
re locate
dwind ling
ok ina
vatic ano
5 6m
min s
jeff erson
pur ity
ab re
under valued
r anger
an hui
mand ates
evalu ations
27 7
nel li
ka hn
h ldgs
need le
casset tes
li ven
bethle hem
pack g
hel met
spontane ous
phan tom
cam el
grou pe
sher idan
under lines
mist rust
take off
qual itative
ide ally
ig ated
ma ure
ake st
z ard
ba ja
y up
prog no
ba it
dis solve
j t
cond oms
y og
2 18
du d
betray ed
s dr
so b
ma iling
v az
special izing
distort ion
ordin ate
ro x
at ter
lo om
calder on
es pn
underestim ated
el bow
strike outs
knes set
srps ka
ja ime
pre conditions
les otho
pu ente
bild t
l wt
tr ident
promin ence
filtr ation
interpret ations
escor ted
spe lling
pain fully
util isation
den is
nove ll
obis po
ing ual
r ite
ivo cal
ballad ares
scri pts
al z
dess ert
por te
satis factor
electrical s
bl um
t abled
so to
hard ened
tum or
30 2
sch war
be ch
bl ond
nichol s
y ni
pro ps
po ign
24 1
holo cau
holocau st
ill usions
fanta stic
bn l
k nu
dm 6
f ides
echo es
pes o
extra ordinarily
re ro
28 9
trous ers
ang led
pum ped
ld pr
27 8
l ugg
pu ig
ren ting
sof ter
mercant ile
bure aus
furn ace
fle ets
tre ason
trin ity
pal omar
cli ffe
pa o
che ered
w ounding
final ised
car o
bah rain
deter rence
dam n
lacklust re
tap ping
lugg age
down wards
khas bulatov
bow ls
par cels
amor ous
jeopard ize
ex quis
24 9
sty led
ple asing
ac cru
man ship
brun o
eur asia
100 bn
sens or
cri sto
dimin ishing
spec im
0 45
air ing
over riding
prohib its
ham let
precar ious
insol vent
gu ber
nor mand
ch ak
27 6
ound ed
le z
dod ge
im ro
un willingness
op pression
pack er
bad en
2 16
acqua inted
sp urs
p g
lor i
j ill
mi ert
perip heral
inv itations
flo ck
o sten
gradu ating
min ors
cou rier
form ulas
un safe
jess ica
special ising
eager ly
detriment al
adam ant
must er
clut ch
div ac
r ze
gor ge
aber deen
plen um
cycl ing
bas f
mole station
| 7
bil ingual
defin itions
bre cht
tom b
ush an
sens es
mar que
day time
computer ised
om i
mel bourne
28 4
po em
un believable
r itz
west land
explor atory
26 7
c age
bu ffer
7 33
crip pled
strand ed
namib ia
ant ib
ny se
im patient
26 1
bl ance
ches hire
am ber
fo am
b sp
p ag
ha e
b se
inj uring
dispers ed
reli ever
nucle us
regret ted
lag ging
stor my
kid ney
alleg iance
re yes
enri que
accor ded
in accurate
prem ie
perpetr ators
city hood
stre ams
du cks
gor man
ho g
dish one
fe ast
mal ta
indign ation
bav aria
bo es
kilome ter
staf fed
golds mith
rect ify
remed ies
k ut
total itarian
am r
pay ers
ma iled
battal ions
envir on
pres iding
mon ds
amuse ment
rally ing
util ized
law maker
electron ically
flav our
arrival s
es ome
sp iel
er i
z as
k its
so o
retal iatory
gum mer
3 93
her sh
scre ened
cho wski
du arte
director y
fabric ated
satisfactor ily
nom inees
decor ative
modern ize
te resa
velay ati
ce tera
par sons
agu ilar
enz ie
light weight
stephan ie
penetr ate
retro spective
ry der
outs cored
complet es
ok es
mar u
ge opolitical
bit es
dis per
3 15
defe ctive
wav ing
psychiat rist
all ison
3 12
$ 90
gar ment
ann ed
apprent ices
ili brium
dor is
strateg ically
stev enson
zloty s
fo e
pedest rian
awa its
tos s
consol ation
con str
fron tiers
dict ate
guar antor
en ham
2 94
var ies
dra ke
rout ed
fier y
im on
mersey side
go er
ro z
mobil ized
book er
per tinent
complic ate
la ird
indic ative
gather ings
stagn ant
bra xton
meado ws
polic ing
vo v
memo irs
fra ught
c ops
force ful
lot to
29 8
prud ence
unit ing
prof ic
fort ress
cor fu
t read
art if
ll an
spe lled
ma ze
bra za
activ ism
barcl ay
gab or
par ach
we ber
sporad ic
even ly
launch ers
enor mously
han cock
cla us
ch y
26 3
y 10
uc ci
grunt led
t eng
dor f
ad ier
nam ing
past oral
7 20
cy an
sna ke
6 75
ors k
sm ir
equ ation
p us
lar son
nomin ate
deport ation
gig antic
car la
grass roots
bar ney
re built
non conference
sp ice
s cent
ballo ting
re union
so ar
issu er
19 30
sustain ing
subscri be
ole ksandr
placent ia
revel ation
or da
contem plate
wa ist
is man
u do
re paired
mu ld
jan ice
inhab ited
y 4
res on
p able
sta at
3 11
shar per
y 8
bo hem
ons laught
index ation
d ab
hydro electric
35 7
ge ome
net ic
unis ys
id his
0 46
profound ly
no el
e en
4 75
pres cott
pro t
fr s
26 8
120 m
hypo the
&hyph 000
scandinav ia
finish es
reg gie
flour ish
gar rett
biscu its
escal ate
inse cts
disgu ise
covent ry
abdul lah
monarch s
uni verse
mis led
britann ia
chel tenham
green berg
f ences
re course
ro ts
trail ers
col oured
temple ton
mad onna
matur ities
reco vers
ju lia
be arer
dioces e
e cle
m 2
whir l
mer ry
dis gruntled
l ich
add ict
kar achi
tran qu
bel le
fat ally
pon d
9 5m
link age
68 m
wonder fully
newh all
ant ia
ling u
stra pped
financi ers
lux ur
b az
br unt
3 95
hij ack
is im
wa ite
nick name
prefer able
i ko
s ca
z on
neutral ity
million aire
re assured
we ird
husband s
mis erable
pay ne
jose f
braza uskas
trave ller
che ating
im paired
z ah
dum ps
think able
indif ference
leap s
bold ly
breakthrough s
cre ator
lin der
deb acle
v ics
ro oney
wheel er
tash kent
27 9
lu anda
ecle ctic
yav lin
marin ers
kashmir i
bar nett
deploy ing
wood ward
du kak
loop holes
vac ated
id ol
bas le
am ass
rif ying
man son
fren zy
sou ven
vent ilation
border ing
ring ing
mor ally
ro be
she v
holy field
centr ally
jo ked
respir atory
b ind
0 32
dig ging
fasc ism
need less
under neath
fore man
colomb ians
endorse ments
bond holders
gib bs
fundamental ism
oper atives
we akest
init as
method ist
ple bis
cri es
wil ly
confidential ity
ed itions
leg ion
s nat
influ encing
br icks
go ds
gen re
or ang
aspir ation
tac it
du ffy
den i
univers ally
4 95
extre mes
m v
3 21
bir ch
in conceivable
n ug
anim ated
nik ko
greg g
air field
cop ic
gen cies
o at
bur ge
gl an
4 70
favor ably
cru ising
dukak is
hy pe
ern ie
antit rust
tra buco
break away
vise grad
need y
j st
pup il
48 5
laps ed
ley land
progressive ly
tian anmen
cross roads
prevail s
maure en
div ine
19 39
fam ed
aband onment
author ize
tort ured
iche ver
sp inning
gree t
str ay
sp un
persist ed
minim ize
international ization
eat on
do re
stagger ing
trol ley
wh ichever
sc enery
pa inst
painst aking
wall enberg
z vez
renmin bi
dum b
3 16
psy cho
intif adah
prov ident
s cape
fatig ue
condominium s
pharmac y
hay den
rad ovan
enc initas
last s
tra ctor
en vy
rex rodt
am ending
trim ming
rul er
it ous
attain ment
for got
conspir ing
as le
provo king
ed iting
$ 120
dis advantages
schles inger
aid o
constra ined
so da
zh kov
rad ius
depart ing
sand s
ar u
week day
me lt
moder ation
28 7
ak bar
nav ig
stim ulated
ta vern
un ravel
wid th
s part
th ys
id ity
per ing
de lo
ry l
maneuver ing
dre amed
5 20
kir by
o sc
sut ton
al at
den a
ch ate
instruct ors
guang xi
44 m
ur us
un beaten
pre caution
off ences
jar gon
dis appearing
exp edition
pione ered
cre atures
cher ished
dis advantaged
im peach
ra bacher
roh rabacher
stand ings
baron ess
evac uate
f law
val le
od ys
al ta
solic ited
bel lo
e ps
kol od
mal aria
at ism
su thu
ol son
autop sy
md b
fu me
clo set
i od
entitle ment
season ed
ne zav
cop ied
sk ate
ib i
maid en
annex ation
syn thesis
gr it
l ough
uzbe k
res il
tu ition
33 6
out numbered
4 2m
fe i
transi ent
school children
head ache
plent iful
velo city
eas iest
vine gar
dor nan
s ld
play ground
observ ance
jun ta
on set
over crowding
sup plements
ud ging
x iamen
intoler able
profession ally
was mo
bow ling
dealer ship
she ld
sa voy
depend ency
h inter
work able
th umb
mis c
sy ra
moral es
id ze
so sko
wasmo sy
can vass
38 4
concil iation
crossing s
h ough
col ts
domin ating
spect ives
sh ane
chequ es
dec ay
id en
scre w
confront ational
d ice
r j
vis ibility
br anson
bo g
vers at
hon duran
cultiv ate
sur gical
m asse
spell s
ob scen
top ix
z em
inter face
en counters
gren ade
ex cav
imply ing
we iz
stol tenberg
por sche
equ ilibrium
dis cord
ro cked
rental s
re plen
sax op
juris dict
py ram
flow ed
mun itions
sit com
ben ign
embra cing
sin ister
ha k
assert ions
swee ten
crist iani
car tels
plain ly
do v
unequ ivoc
bicy cles
inas much
paralle ls
m ph
v endor
ok d
se ga
k hab
brand t
flu x
har lem
deter red
b ia
nick laus
gal van
do ve
39 m
arthrit is
all s
4 1m
sl ug
pin ned
ha gue
plot ting
sol is
din ar
ne pal
danger ously
capri ati
syra cuse
pic asso
fall brook
redistribut ion
ko op
un common
ne ville
accident ally
dispos ing
$ 21
boes ky
div isive
multi party
sophistic ation
cristo bal
en zy
record ers
must ard
car pets
brutal ity
ame c
market makers
sho res
for gery
tan zan
keen ly
abi ola
gos sip
unequivoc ally
k av
camer on
van ished
feren cing
che ek
tibet an
he aling
k ac
k nap
el ic
24 3
ree bok
net te
sal man
g ail
exem pl
stat ure
scho ene
re petition
board ed
un sc
19 38
joy ner
brig adier
fil med
un thinkable
bath s
def y
m asked
inst incts
detail ing
spl its
sub jective
re tires
minim ise
ant ig
re leg
cos by
un secured
princi pled
deport ed
referen du
34 4
lim ous
ce real
bo sch
30 4
bleed ing
ce o
os is
water ing
p mdb
stain less
kaz an
ra hman
accum ulate
landscap ing
dial e
oliv ier
o co
lu red
me zz
substant iated
laut ro
safe way
syn chron
counter measures
khar toum
con ferencing
mis guided
25 9
thought ful
chet to
manu f
full back
cri ed
necess ities
plum meted
d ashed
cop ying
op pressed
emi ko
chlor ide
coo ke
em power
incl ination
marl boro
tr and
ber trand
chun ks
line ar
cous ins
ric an
courty ard
out field
imperial ism
gl amorous
land owners
am using
fum ble
invent ories
favoura bly
redist ric
reput ed
pred ic
34 9
pean ut
profess ions
ab ah
water front
ce cil
sosko vets
nikolayev ich
he ter
fa z
riy ad
in field
az ono
i bles
ic ia
tren dy
gross mont
rev oked
bo wed
dedu ction
dent al
tg wu
le es
kem per
referendu ms
car ic
cum bers
ex iled
ma kar
sh ab
his h
t ad
pren sa
3 22
ang lian
0 44
6 70
homeless ness
side walk
cy linder
shel ved
squad ron
94 4
osset ia
provoc ations
medi ate
scen ic
station ary
bro derick
nic ole
ax es
up stairs
dis covering
jam ming
zoe te
ut d
city wide
toile ts
he lo
alternative ly
smo kers
19 53
group ed
scenario s
wo che
mango suthu
ty r
cess ation
attribut e
sup pressed
tant amount
s fo
wall er
self ish
rein forcing
cler ical
mit t
cit ation
coordin ates
ter azono
34 7
ind y
rev am
un authorized
mal t
scr ub
wil t
cr ad
proli fic
pa olo
| 10
ou ch
otta wa
kram er
indu ce
sou ls
est ancia
gif ted
xia o
al ber
relinqu ish
buchan an
equ als
r ump
fer tile
p leading
deple ted
5 3m
ven or
queu es
pre valent
under water
19 00
k ino
run away
6 30
o stan
h enson
favor ites
mush rooms
mag ical
master piece
oc chetto
roy als
odd ly
ast ros
t ending
s cour
dispar ity
col om
bernard i
recogn ises
cl ust
up hill
bo gged
allot ted
ash amed
eng ul
golf ers
work out
pir acy
tos sed
pen cil
we a
metallur gical
kath y
fa ulty
re think
inst al
bra ckets
5 4m
append ix
glo ves
off shoot
re rs
thys sen
seas ide
donal dson
under cut
18 bn
av ant
import ation
therap ist
manoeu vre
sp ouses
v ad
top ical
um i
troubles ome
z ant
comm iss
fil ters
b ess
vent ions
40 5
ol fo
he p
vo j
scal faro
adventur ous
29 7
ad joining
head y
har rington
bo iled
commer z
al b
com er
co on
e me
or f
hus ni
orche stral
insul ation
text ure
g ents
b eset
intra ven
den ise
re ina
hy att
brilli antly
$ 65
j np
rough s
mathem atical
stein brenner
ap pointe
in advert
c na
un sold
ho wer
brit ons
exped ite
demol ished
huge ly
sh ades
trigger ing
somer set
volk staat
reg gae
dwell ers
emig rants
both a
mode led
nash ville
ch ery
steel s
8 80
north um
recogn ising
nat l
manife station
quot ations
stab bing
29 1
kim ble
activ ate
war ts
sculpt ures
rus so
un justified
ment ions
wood y
flam boy
dra ined
bo c
29 6
na po
bu g
alle ge
dis pel
peregr ine
ins ce
p ina
escap ing
neglig ible
econom ical
enjoy able
fil ming
in competence
ac claimed
des ks
ordin ating
micro processor
bra vo
nav arro
isim aya
nezav isimaya
hain an
redistric ting
me ster
peps ico
abdu ction
d ushan
pal ma
helo ise
odys sey
ol inda
sal is
prope lled
6 60
kare em
ho kk
plant ation
confe ction
co gn
concil iatory
two od
fur y
fur long
emer gencies
prot agon
dis closures
modern ise
th and
sen si
34 3
25 th
avoid s
stad t
gio v
interven ing
sub units
t ish
ac ity
cond ol
st ut
ham a
e er
jam med
acre age
u ap
23 8
bucking ham
exhib ited
nac ional
si veness
inser ted
feder ally
an es
o vo
jum bo
rom ero
wein stein
constra int
with hold
pre lude
accommod ations
gras ping
spectac le
mos es
mer cen
hor owitz
pneum onia
liter acy
rom ag
mot to
club house
he v
gri ps
quar tered
cash ire
92 m
down fall
lan cashire
as th
w icz
scri pps
at las
bach elor
dol l
breed er
box er
34 8
11 00
ham bros
car men
om ni
artic ulate
environ ments
pr un
g ong
l ame
go ose
z han
jur id
tra cts
b aud
quarter backs
al ph
patch y
ins kiy
astr onaut
amp he
humili ating
dy nasty
7 60
co ated
5 80
eral d
bot to
he i
break ers
12 5m
sant ander
iet ta
hd z
neat ly
shut down
n ul
bic c
revol ving
o au
wind fall
hun an
dis like
ford shire
pa ine
si bir
aq abah
no kia
commerz bank
un true
restaur ate
comp lying
as pen
tri pled
k ik
gros venor
aer ob
3 19
bren nan
irresist ible
ef ta
tend ering
z ana
war wick
sheik h
ver son
refer ral
get ty
f cc
ary l
celebr ates
delight ful
sing s
ag ai
or deal
ed ay
he k
pep pers
34 1
amphe tam
bav arian
kinder garten
gil lette
des e
meas les
gm b
your s
wav ed
hydrocarbon s
we y
kid der
specific s
agu er
life guards
d ared
t ors
pack ers
t ically
in ex
clear s
rose mary
spl ash
| 6
x en
shu tout
kick er
j ig
du sty
sh aft
dushan be
crash es
35 3
le aking
conf use
bak ery
success ors
ground work
attack ers
fe eds
secret ive
force fully
okina wa
loan ed
to uted
19 41
shr ine
yas ushi
en za
gon na
la ine
sn ack
rud man
decided ly
hokk aido
p ate
shap iro
lau rence
her ing
ing ram
h t
conven ing
relax ing
et ti
zim mer
mit ch
flat ly
it one
c out
cal ed
organiz er
credit o
e lling
re ins
ch iang
over came
che ment
skept icism
fertil izers
r ish
prohib iting
mile stone
od orov
ye lled
fides z
aw esome
ta kers
isl er
lunch time
d ye
ru ins
inch cape
dam s
novo sti
friday s
be eth
sh al
collaps ing
dent ist
per spectives
n iz
law are
w af
myster ies
gram mar
gl ac
v ist
14 bn
gior gio
ivan ov
o ber
sheld on
blat ant
saw yer
guer rero
gu i
depri ve
horizon tal
som eday
ma ize
robes on
leaf lets
rap pro
rappro chement
un deni
brown ing
patron age
hero ine
chong nyon
re prim
reprim and
ining rad
kal iningrad
j ams
dre y
aq md
nel ly
buck ley
lad broke
zvez da
discretion ary
work stations
fib res
erad ication
k uk
fre i
k rup
at su
ke ller
du mi
soc ks
ann ik
comm ence
enthusia sts
scri p
homosexual ity
xt ures
cent ennial
emphas ises
night club
bur roughs
resur gence
con currently
re training
echo ing
pa str
fabric ation
over taken
di as
3 b
prim aries
pamph let
notice ably
auto graph
col os
mo des
last ic
un desirable
cos metic
24 bn
exempl ary
4 50m
fac ade
sin mun
cum bria
vast ly
standard ized
fly ers
sus ceptible
fy odorov
ber roth
zeit ung
attend ant
vit amin
paramed ics
regrett ably
ident ifies
campaign ed
de laware
tri poli
park way
plebis cite
fall out
pic ket
premi ers
da zzling
he ctic
ha gg
kn ives
hiro shima
of wat
incorpor ating
l ton
tu cked
pf izer
underpin ned
h cr
refriger ator
grand son
duplic ate
bas h
pol ished
$3 50
mo i
p& o
ad ul
pur port
prosecut ing
lem ieux
iran ians
fal k
repub li
sleep y
gennad iy
$ 700
night ly
fresh ly
lun ar
u mar
research ed
4 93
je w
organis ms
cho e
gar ner
liberal ise
u ber
ag awa
drum mer
rail s
fab er
en gel
her r
ham mers
rat il
before hand
air d
termin ate
kur t
p iers
im mortal
dedu cted
flour ishing
ue berroth
upheav als
tum bling
cor responds
19 42
round table
ener gies
hut ton
relent less
foster ing
short ened
dis credited
po ets
attach ment
irrit ated
bro ck
liberal ism
reluct antly
kum agai
sto rey
luxur ious
chill ing
kad afi
pass ions
bru ised
sandinist as
nim itz
per fume
qad dumi
3 14
lind bergh
f fles
town send
gross ly
$ 125
bit ing
pr inters
av i
eth ic
suf f
ke ar
lap d
qat ar
ur als
resur re
fic ation
ber isha
it iner
ck i
kras naya
discer n
def en
j ensen
comm ended
am bro
compre hensible
broch ures
mc cl
wr ights
30 8
manifest ations
sl ash
pers ists
trou bling
35 2
press es
ve in
hispan ics
but te
remember ing
less en
promin ently
aid ing
honor ing
but tons
de merger
betray al
mar ra
do za
lands lide
k irov
renew able
f io
mont agu
p ue
introdu ces
blast ed
satan ic
if t
done tsk
t iet
loun ge
ray ons
fut ur
tro t
sy rup
exter ior
program med
49 m
wre ath
lag ged
neg ie
car negie
ham mered
or ion
hersh iser
par a
man is
beeth oven
ll ar
tr ich
ancho red
or ting
mo w
3 d
alek sey
syri ans
degrad ation
25 3
abdu cted
drain age
lay out
wast ing
plun ging
mole cules
res iding
technic ian
flour ished
s mar
def ied
relev ance
alumn i
ve he
po dium
assass inated
appli ance
voy ager
nik ki
tre acher
napo leon
juven iles
custod ians
schoene cker
m pla
ret te
clin ched
ha voc
v ously
awak ening
refurbish ment
util izing
fou led
ri bao
con ner
die ter
viol ators
4 48
fl ir
sa xon
b ould
at ra
mone tar
under secretary
sa f
en listed
v r
advis able
mar oni
division al
der rick
re inst
effe cted
rus s
liber ate
al la
sed g
marri ages
ale ksand
antib io
gr un
$ 55
may o
s wo
war k
ri v
enlight ened
predic ament
s any
hay ah
37 6
ko z
n ate
ko ch
a &
17 bn
vehe ment
heav iest
cont ending
men doza
al locating
gard ener
pu zzled
festiv als
frater nity
frequ encies
un developed
sque ez
manus cript
tal bot
ann um
the or
pa inters
tax ing
march es
express ive
ver mont
restra ints
hes itation
war med
ess en
tele communication
un wise
fa hd
disproportion ate
n ons
bree ze
computer ized
t of
d it
mac intosh
per verse
cock pit
0 43
joz ef
to ire
stall s
vio let
schedul ing
ame la
unequ ivocal
happ ier
an them
li en
tom as
ap a
c ough
pro cra
dr un
im bi
inst inct
d op
vi i
over draft
will s
av ing
jam ah
whist le
pe g
con sign
fer ries
kov sky
vir uses
dm 7
5 75
exer ting
hutch ison
gru po
mull igan
jup iter
hard ships
spokes person
scra pping
hon ig
sloven e
bo water
cass idy
un authorised
infe ctions
h bo
down grade
exemp ted
gram m
po inter
sedg wick
pre rog
endor a
gl endora
heral ded
home work
im ex
en k
panaman ians
sm i
coll usion
indefin ite
the rape
jiang xi
info box
bu gs
dow ty
it ious
epis cop
quarter finals
me ats
turb ines
p vda
fut ile
m ba
czech s
tu ber
los is
tiet meyer
sket ches
bo gus
sa unders
to pping
occup ants
30 9
34 6
petro chemicals
ty ler
ess ays
henri que
e w
ange la
va ult
ill ac
500 bn
pud ong
as per
skr 2
gar de
envelo pe
swim mers
bear ings
com be
stand out
ham string
mega watt
thri ve
dis agrees
prefect ures
ir is
van illa
distill ers
po ole
le ot
resil ient
g ort
un duly
alz heimer
bulld oz
go ats
pound ed
she ila
cam ero
al ija
jam ie
lake wood
fab ulous
for ci
forci bly
tob ago
novo sibir
sens ing
tele fon
all ay
day light
lu min
novosibir sk
assembly woman
skr 4
ha ired
1985 =100
brun ei
orche stras
craft ed
st ace
doy le
tra vis
omin ous
us able
ya o
ser ver
c ke
cast rol
nico sia
15 00
pas o
capital ists
an in
do k
co res
d ard
f fled
sh akes
th on
art esia
tra v
ick ed
19 20
mall s
12 p
go voy
rep ent
bark ley
progress ing
facilit ating
valent ine
tarn ished
loose ly
appe ase
car bide
b ich
all aga
su ing
pra ising
tie m
toll s
card board
traffic ker
ait ken
prefer ring
sayy id
cas pian
din ars
gren ades
re hn
mu h
lu igi
p amela
ang lers
democrat ization
el and
hu allaga
hor st
dav y
diver ting
ins ens
un as
tri via
brand enburg
condem ns
ac an
af lo
dan ne
brush ed
therape ut
r igh
tor ped
3 29
p w
proble matic
te k
intent ional
bi partisan
is ch
un incorporated
an to
red ou
su bl
lobb ied
mar a
ag i
thin ly
vi king
uk ov
ev es
m cal
t iff
aes thetic
flamboy ant
con way
ver a
gl igor
in competent
blunt ly
gour met
ta per
pad illa
ad missions
remn ants
asser ting
spark ling
span i
non league
y ves
thwart ed
guber nat
stain ed
gard iner
lin en
poet ic
elabor ated
la i
illustr ation
ine lig
dob son
sol ana
vibr ant
ran arid
ri pped
pres so
fy 93
fa ulted
u pr
interpre ter
gligor ov
hook er
bu xton
recor der
lo af
bere govoy
on ov
ach ev
desper ation
park land
little child
36 6
gubernat orial
mult itude
treacher ous
spo iled
37 2
compat ibility
si k
mis use
whim s
ish u
jun ct
avoid ance
eric a
do gan
d na
45 bn
op ting
ste en
q s
condition ally
7 27
icks on
far ce
re cept
cha o
into x
res ale
att en
and ro
pen ner
berk shire
devo tion
lion el
un ab
life styles
s ina
swind on
far rell
zed illo
ffr 5
confer red
eight ies
che ering
footh old
renov ated
pat io
bi hac
persu asion
broadcast er
prof iles
pun ishing
cafe ter
impress ions
div ides
mun oz
beli evers
me llor
leaf let
enshr ined
band its
fle mish
ranarid dh
kar imov
ex posing
harvest ing
admir able
land marks
resign s
obscen ity
maver ick
str ides
rui huan
fe males
evol ving
d ino
garden ers
hearted ly
regul ates
fla vored
staff s
cas inos
may s
h ms
brig ades
a the
weight ing
wol ver
t ally
lobby ist
naj ib
den ny
cap turing
ero de
na than
mc coy
mad ness
diag ram
stor ing
ret rench
sch ering
mo j
jurid ical
7 40
man tle
ven ge
amb ival
7 7m
re claim
reb ren
oblig atory
intraven ous
tuc son
cho ir
austral ians
ce lt
celt ics
stace y
gr ig
oil seeds
day ev
ab ate
ol m
k f
ration ally
stan islav
mus cular
ned er
high ness
writ ings
eful ly
ot es
180 m
ad er
methan e
8 40
pr aying
serge i
real izes
exam iner
market able
tre vino
ts ch
pac o
dict ates
ap athy
sch uster
stip ulations
pe chine
similar ities
brit ten
chore ography
avoc ado
yavlin skiy
der ive
more no
ann ih
client ele
inherent ly
un restricted
an archy
pechine y
ba xter
mel ted
ad on
industrial ization
compress ion
skir t
est er
du bai
u aw
derby shire
un ease
ic ultural
jour neys
chance ll
torn ado
ro then
3 17
corre cting
e aux
fuj ii
34 2
alf ons
deut sch
torped o
invest s
g im
lar ing
plast er
cor dia
man ners
y ld
sub po
even ings
sal ah
& s
un healthy
38 7
g lyn
glas nost
16 bn
liquid ate
se men
qu i
governor ates
down hill
nac ion
prom pts
deb tor
75 bn
gat wick
griffith s
procur acy
d g
promo ters
sc ary
in security
sa igon
out lining
saud is
coven ants
th ia
re production
mathem atics
wo ke
60 5
counter feit
quar antine
escap es
stand off
sp rained
distribut es
w ander
head quartered
ane w
et at
final ized
professional ism
intr icate
blast s
is dn
en liven
so p
intimid ated
sher ry
$ 26
s ds
loc king
award ing
eisen hower
ta it
men endez
pon y
render ing
remin ding
5 1m
ken yan
cre ature
st ahl
gort ari
proprie ty
re pri
ste ward
ver di
mo gad
bottom ley
jum per
sp it
u lo
wed d
fin s
ren shaw
ke k
wool wich
pres ley
ul ting
de pt
ll is
col i
cres pi
prote ins
lands berg
po ker
over done
se ren
b jor
pp es
l lo
ven ues
um s
ric ky
un noticed
haf ner
no od
fest ive
el ena
verd icts
secession ist
un ify
hal lo
p ounding
cur rie
lyn wood
be ware
embro iled
we mble
z al
hy de
corner stone
pent land
rutsko y
condol ences
wreck age
6 19
go gh
wel t
c ns
danne meyer
hac i
rh m
field ing
mo dena
lli ver
to lliver
clean ers
eye brow
gal lo
man fred
fro g
bil t
fr antic
che e
ele k
tunne ls
3 13
20 p
p pe
hallo ween
imperial ist
ceremon ial
confident ly
osten sibly
imag ery
m si
ram adan
dread ful
ent ious
w rought
pastr ana
mc gu
underestim ate
das a
an ch
ref ueling
tar zana
sy ner
wemble y
h ips
butter fly
inter net
mogad ishu
asle ep
d ickson
scri ven
chub ays
install ment
period ical
high lands
sandwich es
off setting
sp ying
kitch ens
sany o
mans laughter
reb ounding
c ious
sum ming
yevgen iy
calcul ates
need les
cli ps
pu ck
9 80
l ush
s worth
leot ard
cooper ated
mor an
techno cr
o ws
cu le
sur round
de rel
re but
s wear
ir iyah
stock broking
36 8
pais ley
tun ed
un necessarily
5 8m
adap ting
pfennig s
or able
blo oms
yam amoto
al bu
compress ed
civil ised
6 22
p io
9 20
squ ir
de fect
do om
loud ly
55 bn
b sky
coo ks
cor don
au burn
skip per
put t
8 70
reck on
toler ant
can seco
negative ly
under write
reply ing
rob bers
notor iously
inter ventions
lo well
beat ty
fair s
gree ks
set up
p acks
de regulated
kyo to
firm ness
k ou
manage able
landsberg is
orang es
real tors
san ity
devi ation
f fling
list ener
domin ic
gaul le
pro claim
ck en
cin nam
unci ation
pil gr
approv als
bsky b
bed ded
culmin ation
col es
dispar ate
un da
over valued
op oly
tel mex
med ley
el ight
contrast ing
health ier
psych ologically
wick ed
cash flow
s rebren
le f
philosoph er
be la
scrup ulous
ext in
sacrific ed
ka w
ren ounce
enrich ment
ck o
sat ir
tim ers
29 9
do o
forward ed
ab ound
inov ich
pre occupied
bl anc
3 23
cal cut
sk ating
gra ft
congrat ulated
pict ured
ad hering
air fields
ra ped
not imex
balcon y
progno sis
ones elf
un welcome
liquid ated
administer ing
disillusion ed
culmin ated
affidav it
de pots
has hish
iz zy
cal or
over look
nic ks
37 9
kno x
re organize
organis ers
wra th
lo bov
author isation
orchestr ated
h wang
furnish ings
asth ma
pep si
episcop al
introdu ctory
re ceptive
ar ats
therapeut ic
stop page
escal ated
vin yl
gol ding
st afford
gar ry
ab ani
argy ll
blo oming
dis sip
thor ny
locomot ive
ger ash
brand on
w rench
olog ic
rest ing
is mo
$ 32
shar k
dav ila
common place
ye ll
mat yar
6 45
ag ena
du bin
cor do
cl uster
ij i
p ong
j aw
4 24
im pair
per me
t c
mo an
un folding
cor ne
ten stein
lat ina
ic ating
chan el
book let
un touched
fig aro
un hcr
k iet
lim elight
public ize
sher wood
gust avo
unve il
disturb ance
ha ste
emphas ising
out reach
p id
hope less
es presso
if s
hinds ight
re join
paren tal
zz ie
dign ified
sacrific ing
paco ima
evol ve
jo en
ad jour
ren ko
landfill s
scre am
ro card
maxim ise
p sa
t ility
j ara
mc ca
supplement ed
loop hole
140 m
sen su
redes ign
syn the
isa ac
worth less
out ward
appropri ation
3 28
kar i
a 1
dis enchant
voy age
car ving
g los
phy si
40 1
as an
p ans
19 37
interpre ting
cu res
sn acks
discrepan cies
di y
cam pan
20 20
47 7
sol vent
arm oured
re moves
fr ant
st roll
over lap
persu asive
bur sed
her d
ile e
d aryl
king ston
g sm
bread th
sina i
husband ry
uni formed
chef s
fire fighter
a ichi
pro se
ses ame
bor de
vigil ant
han i
fly er
srebren ica
lev ies
number ing
east man
downgrad ing
prince ton
war mer
arra ignment
monu ments
map le
u clear
der ives
un conscious
obed ience
sh rew
mahon y
din ners
fore station
ab iding
rand all
gol ese
stri de
recon struct
ru ther
slam med
refres hing
wor cester
squ at
dia bet
a be
ag h
lic an
| 8
inef ficiency
cl amp
ed berg
al fon
relay ed
hek matyar
subscri ber
sett les
3 31
grad ers
ev angel
la ir
back wards
defl ation
6 7m
m unch
ant in
campaign ers
we ir
gerash chenko
ther m
af far
so k
aeronaut ics
f om
mon ast
worth iness
nkr 1
iber o
critic izes
ge mann
scot ia
per vas
ve al
teen age
pr yor
road side
rest less
far go
phil anthro
for ma
confess ion
twist s
alar con
star red
des sus
inter continental
de priv
dar ryl
flag ging
ostan kino
gener osity
borde aux
dan ced
un ice
coll ided
stum bled
mal practice
sav imbi
ha g
mon days
ha fi
x ie
40 3
jo king
cy nic
stero id
me gab
draw backs
laur ie
mile age
kr one
vas quez
break er
37 7
7 30
vil joen
hypo cris
dis dain
st aring
contempl ated
c ino
es che
metall ic
stri ped
cart agena
cr ates
fasc ination
execut ing
33 2
ri zz
gor od
n w
an os
joe y
ner vously
ac credited
tri vial
premier ship
perip her
re pressive
schaef er
tele gram
truth s
u ch
39 9
disband ed
ar ouse
bull pen
informan t
discrepan cy
substit utes
no dong
shoe maker
che ung
wa ived
un armed
slay ings
mill ing
prescri ptions
wein stock
patient ly
western ers
prepared ness
sens ors
pil ing
ann uities
stock ed
per rier
ben es
fra gr
cram ped
uni x
scot ch
pul ses
un listed
ad b
ev ils
intif ada
accommod ating
cinnam on
damp ened
policy makers
be m
ko h
lu bric
mode lling
ig a
ass ort
lead ed
ol ives
a ic
con co
mon aco
of lu
ro que
stock ton
r m
over supply
se vered
ken yon
extin ction
sor row
public ised
ch ia
key note
f as
ab st
s under
anthro pol
dil ute
o ats
ffr 4
level ed
mo gul
w ach
55 5
scram bling
7 6m
rab bani
pay rolls
zam ora
ce t
mar se
ag en
ins ights
he bei
mel ting
pre season
al ison
pi ke
cam dessus
reds kins
exagger ation
ground less
t iles
cab ot
p sey
dem psey
consort ia
qad hd
care taker
co con
persist ence
normand y
sam my
a we
hu bb
st arch
hez bollah
jo van
de cker
re jo
qadhd hafi
ci ba
n our
nul lif
sham eful
rid ges
ul ator
g ale
optim ists
glam our
real m
ruther ford
rep ud
wi res
c ain
ch ardon
az ov
smith s
over weight
mo to
5 47
ham burger
p im
b ba
explo de
kham ene
shut ting
dolph in
ho se
re pro
su ley
reiter ate
de la
7 75
cam po
go tt
manage ments
bl ings
volun tee
voluntee red
hart ley
25 7
sam pras
arist o
fin der
con serve
65 5
kh in
aud its
28 bn
d wight
sant ana
po z
q a
q in
man ic
pal o
shar pen
y ne
m eng
h ic
jan ata
inte x
ir win
body guards
frustr ations
asp iring
v ip
th ian
pow dered
sur ging
sex to
quar ry
thrill ed
tal abani
rhyth ms
p gr
accru ed
comp iling
multim illion
sp ares
psych ologists
hence forth
re productive
in doors
sur ges
precl ude
l ange
dismiss als
incar cer
laid law
turn bull
vigil ance
6 2m
abstain ed
pilgrim s
nostal gic
5 93
middle ton
pun jab
mer id
charis matic
lob ster
pro ton
r ita
shi ite
gun shot
st ics
r mt
4 94
pren atal
ar us
am ura
inter rupt
strange ly
empt ive
d ion
or phan
cha e
as ph
in fr
sa ute
sp i
journ als
mist er
hills down
sett ler
sal ute
5 90
nic ola
rum s
sa vi
37 8
pol a
b augh
len ko
7 70
d au
l vov
5 95
ch iles
6 10
fic t
3 92
ed en
ko y
k ens
endors ing
daw kins
dor mit
up dating
festiv ities
witness ing
manip ulate
boun cing
sequ el
tan aka
spa wned
surv ives
ukra inians
p &g
ferr aro
w pp
war ships
v ying
abor ted
inter viewer
tanzan ia
em erald
afford ed
under performed
l acy
pun k
fla ir
fertil iser
george town
hypocris y
en qu
inelig ible
ir vin
grace ful
dis pe
ine lli
ance st
lod ging
c ci
wed ge
min t
k ob
assort ment
es ch
bec ca
alli anz
f lynn
mar cel
position ing
z ip
sne ak
ri bs
mala wi
house building
so ya
divers ifying
che es
nur sultan
doctor ate
in fest
baud ys
ab bas
subsid ise
33 9
3 18
fash ions
in fur
yu suf
i ating
6 6m
im er
scient ifically
energet ically
t weed
pon s
ancest ors
40 7
net working
fla ge
revolution aries
margar ine
pleas ures
mis fortune
mol ina
wil helm
al dr
v able
37 1
for feit
scr im
ep it
murdere rs
ron nie
inspe cting
haci enda
biograph ical
contain ment
cone jo
ruth less
un defeated
un due
burge oning
c ido
soften ing
rub ble
con cur
bon nie
ol len
tiem po
teas poons
ball ard
shel by
grin ding
nav ratil
wait ress
ye lling
cn v
q intex
relig ions
command ed
than ong
boy er
stream lining
k ola
dee pest
ro stov
guad ala
non aligned
zen berg
ir r
0 92
st ablish
y at
ex cel
flash ing
sunder land
r ations
hol tz
sh iz
t rom
den ounce
he irs
4 3m
to v
land ers
bol she
cumbers ome
optim al
re organized
sha una
s ans
b ard
7 34
pro pul
dro wned
revol ver
45 6
b ens
y 20
ch ik
separat ists
l 4
ambig uity
con ve
brief s
$ 47
head er
en gen
hu ff
wor ms
ev ange
fi asco
crum bling
fam ine
13 p
re claimed
ha unt
mi eno
refle ctions
gain ers
fasc inated
metallur gy
ca zen
surge ons
guadala jara
sw ollen
semi automatic
me tre
landscap es
prefer ably
mort uary
my ri
go thic
bulld og
jan a
mar coni
me pc
mel vin
go va
sail or
pir ate
ab n
electro lux
ke ld
conver sely
bl ight
compet itions
dro wning
re produced
sal cido
7 25
an sa
decre ases
ree stablish
uno cal
dun k
tor ras
ch ro
ab ar
marvell ous
tiff any
ut tered
5 10
not ional
train ers
we aver
c ag
fl ick
collaps es
test ifies
pictures que
se k
ra is
gi br
corn wall
k rie
v apor
65 bn
y m
cas a
gam ing
carto ons
under wear
v ran
righ teous
t led
kend all
sor ted
liberal ised
imped e
b ate
reaction ary
mcal pine
fin n
bra ced
regist ers
ol sen
griev ances
intimid ate
contrad icts
av ent
tox ics
mir ro
work station
artif acts
frank ie
os borne
rothen berg
ign acio
al fa
dep icted
pad s
prosecut ions
democrat ically
war planes
eric kson
congest ed
no ises
e jected
bish kek
pur ification
harmon ious
m &g
wh aling
reinst ated
j om
im probable
min ton
be ath
va ks
bombard ment
med ina
co wie
ca jun
stabil ized
kate lla
k d
cuss ion
ide olog
mirro red
6 95
sur charge
loss making
conver ts
mey ers
un skilled
ase a
red is
hum berto
g haw
cl aren
hubb ard
c act
35 8
ker r
call ers
ind ls
discover ies
z un
te aring
ad ian
min ic
exquis ite
be ams
rival ries
man gan
sw ir
per l
accept ances
supre macy
av id
k ib
bo gey
99 9
mel issa
id ated
m ally
tunis ian
yar n
w ad
y ch
recession ary
sla ve
echel ons
en list
infr ared
bol ts
am ble
b ds
pol itely
quer que
je wels
ster ile
navratil ova
regist ry
foot note
35 6
modern ized
reinforce ment
sw allowed
reinforce ments
con nie
stor med
chamber lain
albu querque
beath ard
ty nes
lan qing
meh ta
wh arton
ha unting
cazen ove
amo co
po index
poindex ter
ivan ovich
f iest
profit ably
d old
text books
ho k
hast ings
speed way
it ating
x ing
u bi
ph erson
bi kes
vivid ly
cast illo
steel makers
ident ities
fish ery
e lastic
gibr altar
dol ls
pa stry
cal tech
first ly
motor ing
ah manson
mosqu ito
am ation
cra cker
sho oter
monu mental
la pping
r oney
dis qualified
p fe
ru gova
rhyth mic
occup iers
be arers
pri zed
shor test
re finance
lean ed
dor set
gan ov
200 bn
ki wi
re negotiation
mist ress
4 45
con quest
r ine
pistol s
ev ing
manoeu v
gu an
del la
cu losis
tr ough
re becca
guy ana
stubborn ly
local ity
cou ch
bal tics
st acked
claim ants
apolog ized
mar quez
pervas ive
inv ites
m tv
skir mish
sco reless
pas ok
76 ers
locker bie
cal vin
50 8
ha unted
similar ity
tues days
hand gun
boliv ares
el isa
dis approval
eleg ance
under lining
dri fting
irr itation
e ti
ul lah
ad dis
fac sim
walde grave
wh ipped
ru he
bl ended
clar ifying
cur iously
n age
sh ank
dold rums
parat ro
par sley
nan jing
38 3
tim er
s ly
asph alt
em my
coating s
l ous
educ ating
j ute
show ers
gru ber
mon tes
t ann
yok o
observ atory
de faults
mal icious
ine ts
spiel berg
neighbor ly
dis arming
sect arian
star vation
nor ris
tele visions
ply mouth
n r
j ure
ka ifu
tr il
cad illac
kn ack
cas as
debent ure
ha ugh
3 26
ay ala
alter ing
auto biography
ak u
t ess
cal ais
right ist
33 4
k nicks
il ov
sch ill
can ny
top anga
mah mud
ration ing
down ed
bas hing
franch ised
re vert
j ed
im balances
spic y
re clamation
ta ka
vac ations
star ving
pres se
bal last
mis understandings
working s
harsh ly
renov ate
pra ises
juli et
por a
else vier
in fielder
u pero
| 12
commut ing
cav ali
jeopard ise
v t
ts kyy
edel man
ignor ant
im pacts
rebel de
tynes ide
comp tro
repair ing
dis arm
fe ats
met z
ne es
communic ated
adoles cent
alco a
lan cers
host ing
popul ace
amphi theater
yong by
or us
ran e
res ili
du el
stren uous
de vising
tran quil
ti en
l enses
capital ise
kaz im
ab yan
em ma
sty list
ds p
let tu
motor ist
pt ic
p add
smo o
cl ed
ma har
ref ra
36 9
cri pts
bl ers
du dayev
ro chester
am icable
ben ed
sn ip
gl ue
th rone
k ine
feder ations
ent es
brad bury
ric upero
vo cab
caucas ian
st av
at kinson
ant wer
hyster ia
cavali ers
40 8
paren thood
un reliable
harm less
datab ases
lac ed
camou flage
extravag ant
chev ro
vod ka
national e
lin emen
method ology
bat on
pilgr image
procurator ate
deb it
bright ly
swed es
sal azar
brazil ians
dwell ing
c renshaw
controvers ies
ex position
inf usion
sle pt
gaul list
gu ise
penetr ating
eigh ty
chic ano
euro bonds
sun light
dick ens
hen an
stabil ised
curtail ed
resili ence
$4 50
fay ed
mart i
industrial ist
zz y
hol l
pse udo
com promised
bol t
harvest ed
lar a
fer ment
g lav
quit ting
p inc
schwe ppes
trans missions
dis rupting
12 00
st ave
g het
requis ites
dak ota
drop out
wor m
encompass ing
h ry
th nic
f im
standard ization
per th
repe ats
cor ros
ag ony
lon s
ol in
un do
j ays
ca o
harass ed
circum vent
bra ith
liber tar
p to
27 bn
ar lington
un quoted
ban gemann
superi ors
resum es
chevro let
jen ny
anx ieties
ta sting
u ae
bra ce
clos ings
mel rose
ghaw shah
well ington
r 3
re cs
dar ling
gymnast ics
ri ans
s ns
ma cho
hu ber
cler ks
euro dollar
sim ulation
ac cents
hiro shi
tern ally
ish ly
dor sey
pyram id
retal iate
gri pped
issa ir
sw issair
blo ated
br im
inert ia
yama ichi
up setting
stri pes
harmon isation
dmit riy
rum oured
ax a
zhong guo
traum atic
imp unity
til t
rust ic
tuber culosis
star r
launch er
ty coon
bush es
filip ino
out weigh
hand over
ch ast
z ia
do ver
sh rou
muld er
gun dy
ob ste
4 32
stee tley
sim s
merc iful
kon stant
fio re
l ull
ze k
ex uber
u ed
ol ig
dissemin ation
6 21
comp ag
et na
ac credit
super highway
man nes
35 9
ys s
f ated
secur it
k ara
thorn burgh
re ps
fran ca
lo is
bohem ia
6 90
de ft
ul tr
over hang
be et
cypri ots
in co
dip ping
ra zo
divest ment
al ps
drin kers
top pled
ser rano
zhu hai
m 0
top ple
l ends
hor rors
screen play
aggreg ates
adjour ned
ris ome
19 28
em powered
occup ations
sor ting
oblig ated
sau ces
mirac les
exacerb ate
propriet or
bing er
tim or
s bc
br und
complex ities
confection ery
asy ut
buch wald
theat res
useful ness
life long
up stream
hann a
dm 8
comptro ller
emil io
e str
wilt shire
s lander
ld a
er ner
wor risome
gav in
cost ain
soft ly
communic ating
35 4
inqu ire
cum mings
al ity
68 7
re cycle
arm ist
ard ent
ie v
twi sting
ver b
kron a
colour ful
sc ud
car te
u q
hygi ene
comm ute
down stream
k hor
mar red
cind y
sol v
ag han
exp ir
k hon
ha sten
colle cts
begin nings
pal a
g loss
ne gro
geor ges
d k
200 4
sor os
infra structural
over ride
ac cr
ro we
ch it
mof ert
over heating
or ia
c &
a ze
embar king
combat ants
eyebrow s
k roc
star ved
se ley
sene gal
rt c
crown s
kan ian
tar kanian
bern son
pa ilin
bear able
cut e
19 36
moder ates
gra vel
mol son
car rots
anti bodies
il va
laz ard
kil os
pass ers
jur gen
reimburse ment
l win
in separ
colos sal
slo pe
ve iled
yongby on
altit udes
belg ians
vide oc
ency clo
chate au
sing ular
can ter
af c
and es
ado be
th igh
spur t
in ns
bill board
cr on
con gregation
pras ong
stif le
3 24
pro positions
hand ler
bl un
cam ping
ke bich
hege mony
ict ions
4 13
ro pes
feed back
55 p
h ess
st ig
bar o
broad ened
in still
pro let
per ched
mi khay
mc cor
tam il
ow l
ck y
39 7
bar ometer
retrench ment
steel ers
bust ers
36 1
19 17
ris king
se mester
ad ium
lo vich
ber ra
bl on
ra cal
av alon
45 8
lan ov
upro ar
g ant
40 6
bor oss
jacob son
myri ad
spread sheet
hal ve
neglig ent
riyad h
sur real
narr ator
stick y
stock pile
simple st
in disput
feld man
reserv ists
tit anium
du bon
har rods
cro we
fant as
deduct ible
bra very
sub contractors
medio cre
ch witz
ri oting
dias pora
y pf
jamah iriyah
paradox ically
stream lined
fiest a
mam moth
square s
19 33
im pulse
point less
news day
minor co
hal i
tis a
plural ism
d ali
xen op
rick stein
awak ened
k rickstein
susp ensions
hi king
gaz prom
host el
space craft
un warranted
gold stone
cher o
cab bage
p ige
em bedded
60 bn
ant ley
j ev
qu iz
fuk uoka
inadvert ently
ap h
38 2
ko sti
micro systems
36 3
paper work
on ians
et ta
assem bling
abort ive
g alli
dece ased
lud ic
ant enna
pacific a
quit ous
a post
as in
hes se
bla zing
30 p
14 00
arch ive
w ate
8 60
mo oted
f end
le in
six ty
over view
v vd
aston ished
ass is
bn f
lecture r
foreign er
alt man
susan a
o gh
pe king
ince ption
94 m
fir s
eli as
ig o
alfon so
in crimin
captain s
endeav ors
de liberation
brand o
kal my
re pris
g endar
as cri
indul ge
resid ue
g alleg
dealer ships
mor als
n hk
se i
bell ige
art work
str ut
pa a
break up
out perform
t wa
5 15
cent ro
u it
par ap
ther mo
wa vering
incident al
mul roney
e than
aflo at
130 m
rig an
un wit
sh ura
two ods
pal atable
5 7m
tip hook
makar ov
compe l
mul len
nar do
sang uine
insul ts
boom er
te b
micro phone
young ster
rupt ure
cont ri
suic idal
bout ique
swap ped
f ide
45 1
br cko
uz u
ab ri
conserv atism
under took
lend l
conscient ious
descend ants
vague ly
krup p
ted ious
lettu ce
pinc ay
she lled
roe buck
confess ions
fet ched
purport ed
premie res
d urban
un interrupted
material ise
ov ation
bad ge
tan su
dud ley
backward ness
no ir
ports mouth
tam ara
poll uting
am ro
ranch ers
desc ended
depart ures
lament ed
quir ies
country wide
bru in
christ ensen
vis ually
cab inets
sur rogate
fig u
[...]
