a y
d ay
t h
i n
th e
a n
r e
o n
e r
a t
e n
s t
o r
a l
a r
e d
o f
i t
i s
t o
e s
o u
in g
- -
an d
a s
i c
i on
en t
r o
l e
i l
c h
s e
o m
b e
d e
v e
f or
c t
-- --
i d
o l
a d
l y
w h
at ion
u n
a y
c on
c e
w e
th at
a m
i m
s u
l o
v er
h e
i g
u t
n o
c om
i r
p e
m ent
a g
p ro
u r
a re
n e
w i
re s
er s
ou n
il l
t e
t r
a b
u s
a c
m o
wi th
e t
p er
l d
t er
b y
i st
p o
---- ----
at e
a p
e x
s a
s h
l i
w as
a in
u l
ar t
i es
h a
s o
or t
g o
p r
al l
m an
f e
p l
ou t
a k
g e
i al
y e
ro m
sa id
c o
no t
the r
es s
f rom
m e
h as
it y
o p
ig h
ou ld
ou r
a st
p ort
w ill
i f
ha ve
d s
q u
c ent
i ve
an t
i v
d o
th is
0 0
st r
1 9
b ut
on e
it s
ic h
d u
a ct
g r
a f
m ar
ye ar
i e
w or
s i
en d
d ay
com p
wh ich
p res
a u
p art
t s
c l
re d
c oun
m in
e m
b o
l l
ne w
b r
h o
re n
h is
f o
u p
g h
-------- --------
on g
ion s
k e
ar y
the y
of f
ag e
ar d
w n
c r
com m
d er
p ol
wh o
u m
ic e
b er
i an
is h
om e
igh t
b l
i a
u st
i p
ig n
k s
an y
ic al
be en
po s
ation s
t im
w ould
re e
ou gh
the ir
ou s
h ad
o ther
u d
an ce
we re
m r
u re
s er
t y
f in
a ch
for m
mo re
c re
at ed
f r
c or
s p
the re
ac k
an s
o ver
a de
19 9
lo w
ver n
a il
e v
mar k
fo re
go vern
m on
p re
a v
l ar
n ation
o d
i re
c ial
c an
w o
d is
e l
in t
ct ion
f ir
as s
b an
a ir
govern ment
in e
id ent
ab le
ab out
a w
g u
b le
i z
e st
s ome
min ist
ak e
con t
d ing
al so
th an
d r
nation al
or s
a ce
in ter
wor k
re port
j o
am e
mark et
f t
it ion
oun ds
c k
re g
no w
s pe
an ge
at es
c ur
t wo
oun d
st ate
t ed
e con
econ om
en ce
af ter
l ast
as e
t ur
y ou
v i
p ounds
op le
pe ople
p u
c ess
wh en
en s
ol d
ver y
in d
s ay
al ly
e u
un der
c i
an g
fir st
1 0
n ing
c ar
w ay
e f
b u
c es
m ay
pu bl
c al
c ol
i le
v is
mo st
it ies
ve st
tim e
lo s
ou p
be t
x t
re st
t ing
g en
ment s
u e
coun tr
g et
o k
at t
p ar
r a
in vest
on ly
pro du
st er
at er
t a
c ed
in to
le ad
wh e
le ct
00 0
l and
it e
b us
c er
h igh
m ain
comp any
c au
s y
g er
wh at
ro w
f l
f ul
gr oup
is e
ser v
ar m
year s
the m
off ic
pres ident
p t
com e
j e
ol lar
t al
publ ic
o per
ag ain
h er
cau se
eu ro
lo p
---------------- ----------------
p ut
sh o
de ve
su p
n or
man y
9 4
c ut
s ch
li ke
i ed
d ollar
sh ould
c y
th ing
su r
pol it
deve lop
in te
p h
le g
or y
m a
s he
pro v
is s
r ic
ban k
in du
e ar
c ould
c le
r y
e k
indu str
pe ct
l es
sh are
re l
euro pe
d es
at ing
se t
r us
se l
be cause
an n
b as
er al
j ust
me m
w ar
str u
v o
t ain
su ch
p a
it al
it ed
m ed
econom ic
ic es
s al
st e
in ess
in cre
dollar s
de c
l ong
u k
con d
we en
c our
bet ween
d on
m s
su b
part y
f act
is su
c ap
in ce
g re
d ire
pr of
c u
f un
do wn
th ree
pl ay
t on
th r
19 8
at ive
mon th
st o
bus iness
v ie
en g
wor ld
o wn
g an
res s
ur ing
rus si
we ll
re ad
b ack
je ct
1 2
f ic
ill ion
fore ign
minist er
the se
ev en
c all
o se
m u
ct or
su l
in cl
u res
v ol
ad d
m ade
ic t
fe ren
offic ial
again st
whe re
1 5
wh ile
i o
in k
polit ical
thr ough
vie w
199 4
he ad
2 0
pres ent
pres s
si de
p on
ul t
p lo
th ough
h im
ic k
b ro
me et
tur n
inter national
g y
w er
ch ar
ta x
il ity
inte rest
v al
l ess
we ek
i ous
po int
w r
if ic
u al
s ou
p le
be ing
ve l
ho we
st and
st em
i de
v ing
k o
howe ver
ak ing
e lect
s en
l aw
m il
s id
p ay
in a
t re
the n
d if
m y
l ed
countr y
con tr
comp an
cont in
c ity
be fore
s ign
ut ion
s ince
am er
1 1
sy stem
ex pect
ap p
say s
comm un
a z
us ed
bu il
im e
ent s
cle ar
ver s
th ose
in es
3 0
ne ed
v en
ie f
b ar
s m
b ers
te xt
b n
m er
he l
ge st
m ake
o b
w ant
t ake
new s
ty pe
af f
p ers
pro ble
compan ies
ap an
co st
pol ic
j apan
d ail
l a
c a
comm it
gr am
dail y
d id
st it
b or
le t
fe ct
on s
al s
ac cor
im port
amer ic
ag ree
t i
st ill
- 94
ye ster
5 0
v ed
yester day
tr ade
h ol
ist s
g row
res pon
-94 -
sup port
j un
d uring
f ol
s an
m ust
ho w
tim es
ul ar
pro gram
r i
c il
mu ch
gen eral
or gan
ic s
e p
pl an
incl ud
tr ans
cur ren
p ed
b is
de f
f n
br it
f our
v es
d ist
s ol
iss ion
ch ange
as h
j or
s on
op en
se cur
i b
per cent
r un
fin an
so ci
te m
t en
f er
h ou
e very
1 4
n um
are d
in de
v ent
c lo
industr y
s k
il y
b fn
develop ment
st ates
go od
europe an
h u
s co
ing s
sho w
sel f
h al
cont ro
se cond
1 3
ne xt
to day
c us
t le
re al
f bis
tr ad
su re
h and
coun cil
fbis -
pe t
2 5
so cial
iv es
[ text
[text ]
re qu
e qu
f ed
is m
c am
ol o
re sul
ex p
countr ies
m illion
su m
ic le
j an
re cent
l ish
un ited
em plo
be li
we st
as k
b ur
bo th
pos si
b ig
po wer
i or
mem bers
f ur
pr iv
u se
o c
n er
r is
p ass
d i
de mo
a im
part ic
is ed
u g
accor ding
te e
1 8
do cu
ant s
h ome
st art
p or
form er
th or
hou se
ch air
fol low
incre as
1 6
cent r
sch o
is ion
do es
ar ch
sh ip
m en
st ud
as on
b al
pl ace
an other
u es
ap r
demo cr
pos ition
w in
g in
sou th
de m
l ine
te ch
s l
m at
ie ld
scho ol
ma jor
te le
se e
l an
coun ty
mil it
s im
le vel
s ame
wr it
polic y
am ent
e ast
ch ang
s it
g ress
n ed
produ ct
r ight
read y
s s
y ing
per i
a ve
un ion
un t
de al
lo ok
ap pe
m i
o t
ce pt
art icle
con cer
official s
l it
re main
th ink
il d
u ary
one y
d iv
le y
meet ing
ch ina
k now
d en
he re
v ir
w ard
mo ve
te st
tech n
ent er
m it
1 7
pers on
cap ital
finan cial
r ate
nor th
end ing
ch e
b re
issu e
in c
chair man
l s
h n
ag o
at ic
t ak
pro pos
l on
or d
p ur
n at
su c
z e
docu ment
invest ment
lo cal
b on
de part
f all
f ar
b en
igh ts
russi an
m or
expect ed
lar ge
ne t
secur ity
ion al
m oney
g iv
milit ary
k ing
se cre
li fe
au thor
es e
c ame
9 3
f ut
num ber
g ed
end ed
qu est
re cor
p ast
s w
f ive
y s
pr is
b all
te am
agree ment
l im
-94- 0
n ia
hal f
month s
sm all
am ong
commit tee
sal es
comm ission
pr ice
dire ctor
id ed
u ation
l ing
sto ck
pro ject
stru ct
m et
pe ace
feren ce
b s
oper ation
iz ed
l ab
re t
econom y
re du
f am
9 2
curren t
incre ase
fur ther
go ing
s ing
re form
ange les
to o
secre t
man ag
jo hn
pol ice
re f
p at
call ed
n ess
ne ar
los s
f ree
it ions
e le
re ce
le ft
al low
in form
spe cial
f ac
with out
ann oun
buil ding
bo d
st aff
ex e
bas ed
includ ing
c ast
centr al
f ound
en cy
de b
share s
exe cut
a th
hel p
pro per
pr ices
4 0
n es
dem and
h ip
re present
de cl
for ce
th ir
lead ers
l ate
dire ct
cour t
ro ss
americ an
comp le
russi a
ian s
grow th
off ice
ef fect
en se
iz ation
at s
in fl
ac coun
p ly
am es
way s
al ready
import ant
y our
re public
serv ices
pro cess
h ar
lon don
e ach
to tal
po p
possi ble
m al
r u
ar ds
sh ort
m id
n u
gre at
me as
- year
ag es
man age
ar ound
ch ief
c as
w ater
c ase
mo t
b ud
et y
minist r
n ight
brit ish
ough t
fe w
j u
al though
str ong
to p
is l
al th
h ard
suc cess
si x
h old
s po
re co
de l
market s
se ll
se ver
lan gu
ch o
spe ct
mar ch
p ho
1 00
ad v
cer tain
m ight
ch ild
proble ms
re ed
vis ion
bo ard
ab ly
u c
ne go
in s
f ig
pr ime
2 2
nego ti
vi et
unt il
re turn
fun d
to ld
fut ure
c are
emplo y
se arch
ab ility
p al
it or
serv ice
produ ction
i um
st re
are n
in stit
he ld
qu ar
lit tle
langu age
r ates
u de
for ces
p s
sever al
iv ed
w om
d ou
contr act
g l
ter r
con sid
ne ver
m us
lo t
clo se
dis cus
ger man
e as
g ame
act iv
thir d
be come
or der
ef for
dr ug
c ing
2 4
be gin
ad ministr
ical ly
f ield
m ak
in ts
r an
sit uation
com pet
ab lish
prof its
ex am
de put
a h
p end
with in
b lo
are a
ful l
ko re
est ablish
n on
s at
ul ation
w on
day s
b ill
ish ed
as soci
po st
se em
ro ad
r ad
manage ment
contro l
er ing
bud get
199 3
pho to
tal ks
ar s
ap pro
depart ment
o il
h un
in vol
d an
vi ous
cl aim
ar r
fr an
re ach
i red
as se
act ion
whe ther
ear ly
o s
pro te
2 3
ut e
par li
2 1
giv en
m ic
quar ter
v ar
6 0
ke y
dec ision
mem ber
priv ate
f ail
discus s
dif fic
e ve
cal i
cr it
s un
in ed
ur y
c red
pl ain
nu clear
vi de
parli ament
u ally
m aking
industr ial
minist ry
w a
at or
rel ations
pro m
ex port
se ctor
2 8
if ied
fed eral
g ar
inform ation
add ed
2 7
-------------------------------- --------------------------------
be st
ke ep
w al
id ay
like ly
on t
ther n
tr a
secret ary
br ief
h app
ex change
apr il
po ints
quest ion
f il
y et
stru ction
execut ive
dif feren
proble m
he alth
tak en
on ment
at ors
h am
cali for
m ber
r ights
s ent
techn olo
ger many
g ain
199 2
commun ity
r ul
partic ular
su per
pro ve
ban ks
contin u
is ra
i but
er ation
l ist
bet ter
ac y
r ich
en vir
im in
me an
2 6
vis it
ent ial
qu e
ur al
g ive
ate ly
b a
k es
califor nia
en ds
ren ch
man u
envir onment
ter m
un i
jun e
at ch
leg al
diffic ult
o v
g es
j ud
lead er
spe c
h ing
f a
---- --
s ci
con ference
d ro
it ive
an al
li er
h our
japan ese
s c
report ed
peri od
is ation
product s
con f
to ok
un ch
high er
af t
i er
pl ac
pl ans
com ing
id ence
le ast
issu es
tr ain
a ver
ur s
y or
l at
7 0
proper ty
o ds
con stit
recor d
beli eve
fir m
fun ds
ben ef
comm er
f rench
s our
ro le
cor por
tre at
l ater
l u
h ist
re search
str ate
follow ing
c ust
ro se
al -
respon si
cent er
r ain
li ber
r on
low er
manu fact
w ed
th re
i ent
ens ive
ne cess
t ar
stre et
b illion
ele ction
k no
ach ie
se ason
l in
invest ors
prov ed
s old
t aking
work ing
ex t
democr atic
su g
is ing
des ign
prof it
a id
work ers
yor k
c it
bod y
n am
h y
in come
con struction
ch an
cost s
be l
se p
sug gest
op t
to wn
r ist
le ag
fr i
um n
resul t
go t
bu y
ir a
n al
b ase
e c
ne l
def ense
7 5
fin ance
al ity
c los
fam ily
announ ced
in it
m iss
on ce
so viet
contin ue
ask ed
d av
ning s
po t
d ie
su f
n ers
fr ont
ord in
h it
i -
vi ol
fin al
r ise
report s
can not
au g
ac qu
are as
p an
f av
en ed
ap point
am oun
wh y
pr act
y oun
pl ic
child ren
de ter
on es
g as
l er
wi de
reg ard
res ol
l ines
trad ing
ct ions
c ro
v ict
k y
t ro
fe el
c iv
h ous
bo s
invest ig
p ing
2 9
ra ther
differen t
ed uc
ear lier
arm y
cust om
inde pend
ch rist
chang es
con gress
aw ay
ag ed
g g
k ill
ple ment
st at
im prove
ex press
ro om
jan uary
cour se
val ue
ac ks
f ire
lead ing
ce ed
to u
pos ed
iz e
f ight
add ition
t ers
i ther
ster n
resul ts
meas ures
cl ass
tr ust
al most
sur ance
1 /
199 0
increas ed
wo od
st ic
re le
ser ious
p en
ex ist
ines e
i th
st op
iv al
deput y
fr iday
i k
ch inese
pre vious
pris es
reg ion
at ives
me ans
elect ions
fin d
ar ab
dist ric
st ren
t t
jo int
b il
hu man
at tr
fe ll
bo o
3 1
ar ing
b ility
l ight
reg ul
administr ation
cam pa
an a
campa ign
3 5
wh ite
s ess
for d
stren g
to ur
off er
we stern
co al
partic ip
du e
he av
gr ound
beli ev
other s
kno wn
em er
recent ly
leg isl
al ways
5 00
was hing
infl ation
or ange
technolo gy
f ace
b ul
w ent
at tem
n a
fo od
2 00
ag reed
ste ad
ap s
part ies
re ason
c up
se ven
ar gu
fr ance
thing s
en ough
r ound
en er
comp ut
k en
c and
m b
inde x
author ities
im plement
al e
ind ic
dr aw
com es
st an
effor ts
contr ibut
main tain
gen er
8 0
d am
re view
civ il
ful ly
om in
e ver
id es
necess ary
c ir
co operation
ch am
par k
enter prises
med i
fe br
pl ant
in surance
pro vide
it ch
educ ation
bro ad
febr uary
cred it
af ric
------ -
m is
ne y
washing ton
li es
br ing
group s
res pect
c ks
consid er
state ment
we l
est im
m ater
ha ving
wor th
ent ion
lo st
ag ency
ag ric
d ome
iv id
h op
th urs
bl ack
sign ific
who se
ac c
se en
stand ing
commer cial
jo b
for man
concer n
us ing
exam ple
f arm
tele vision
aver age
cond itions
sel ves
thre at
y st
accoun t
g a
thurs day
non -
de st
li ve
b it
uk rain
ens ion
b id
199 1
col umn
employ ment
vo te
er n
soci ety
u el
st ant
pro b
un ity
co ver
ex per
ho pe
p ack
lar gest
in o
y u
some thing
youn g
t un
9 0
ro y
sen ior
com b
ear nings
ut ions
ab o
rece ived
m ass
sing le
al ong
hol ding
bo ok
per forman
t ail
ind ivid
fig ures
writ er
t ies
dome stic
be ach
cand id
b ad
lab our
oper ations
to ge
toge ther
as ed
des p
sh ar
fe red
con du
t or
bas is
kore a
fo ot
op s
m c
dro p
ber t
se ek
mater ial
4 5
ex peri
po se
increas ing
c ul
leag ue
act ive
r up
d one
fe b
ch ance
mon day
la unch
aff air
at a
wom en
bre ak
sub sid
individ ual
re ally
st y
pres sure
th us
s ant
eng lish
g un
t ues
negoti ations
brit ain
em p
distric t
respon d
trans port
r ied
pur ch
v an
out side
ill s
pa id
wi re
no v
c ash
we ap
g n
be gan
constit ution
n ame
ste p
v ic
f air
i ble
desp ite
cr imin
m ex
g ical
col le
ge or
pal est
incl ude
commun ic
g ing
sp ace
who le
re ven
equ ip
deter min
de ce
mo der
ann ual
lab or
ter ms
d re
m un
tues day
res ident
c ies
ult ure
h ong
en ing
f lo
deb t
comp ared
m ag
it self
interest s
we e
op position
spo kes
ist ic
ve y
com ment
int ro
gr ad
clos ed
te l
reg ional
wed nes
f le
co ach
eng ine
prof ess
americ a
u b
ac cept
gr ap
dec ided
wednes day
- based
op port
h ind
op in
con sul
intro du
g old
lo c
cr ime
il ar
person al
r am
signific ant
au d
of ten
wa it
m ur
k ind
ret ail
propos ed
var ious
r s
uni vers
so on
ener gy
ira q
- term
v ice
die go
b ed
isra el
d a
mex ic
f i
a head
str i
con cl
es pe
f ast
inter view
be hind
k ed
let ter
pro gress
n ations
in v
er y
* *
g or
av ail
no thing
a ut
b ir
part ners
wee ks
arm ed
m )
condu ct
requ ire
mor ning
ass ist
minist ers
s pr
g ree
performan ce
loss es
tur al
tr af
k er
sou thern
trad ition
say ing
tr ying
ser ies
tr y
div ision
au str
particular ly
ph one
anal yst
des cr
sco w
we ak
sp ending
dece mber
emplo ye
ar an
att ack
ev ent
cas es
res er
te ll
t it
sign ed
sim ilar
id ing
comm on
( pounds
cr is
in st
oper ating
li ed
h or
though t
hour s
them selves
m ission
project s
bus h
pl es
con s
cial ly
priv at
ar ies
i y
prob ably
r ap
pre p
d ut
abo ve
ad vis
near ly
ch em
pot ential
car ry
invol ved
reach ed
sat ur
ju ly
de ath
il ities
rad io
wor ks
long er
p ac
us h
p c
cess ion
st age
activ ities
k ong
i am
w atch
pa per
char ge
s lo
cit iz
espe cially
con serv
im p
f ish
ent ly
affair s
mak es
palest in
d le
mo scow
ac ce
b and
ro b
bon d
sa w
198 9
traf fic
- old
war ds
sun day
amoun t
organ ization
ph il
ll ed
pre -
chang ed
un it
jo bs
comm and
sess ion
t an
pre vent
e ight
dav id
en e
m ac
sant a
comple te
st ory
continu ed
ex plain
mus ic
i j
au gh
start ed
en ces
e red
p ted
equip ment
n ic
val ley
need s
ific ation
au to
system s
3 3
fed eration
tur no
avail able
w all
weap ons
sol id
tar get
mat ter
land s
h om
sup ply
m ing
al leg
e li
appro ach
ive ly
crit ic
if f
de leg
ang er
im medi
u su
of t
level s
aren t
satur day
need ed
le ar
mo ved
univers ity
ed itor
grow ing
tr u
co -
ne igh
curren cy
ri but
sal e
ab in
9 5
or ig
d m
st ation
comput er
bor der
char ges
tem ber
st ress
open ing
h on
mo d
om b
pro spect
to ward
re str
3 4
6 5
turno ver
s ir
t ion
independ ent
198 8
de fic
de tail
pr s
ar rest
prote ction
e ither
sep tember
elect ric
en cour
b i
prote ct
se cut
associ ation
fri end
qu ality
s cr
r ing
inc ip
j prs
ve red
seem s
wom an
compet ition
r ange
do ing
pr incip
gu aran
opin ion
gre en
ref lect
own ed
s il
ide a
train ing
3 8
leaders hip
div id
p ain
sub ject
pro mo
set tle
sch ed
cris is
dist ribut
br ought
reco very
want ed
new sp
- s
19 7
hist ory
sp ir
him self
ag ing
big gest
stud ents
stud y
re vol
g lo
qu ick
spokes man
us es
buil d
-year -old
hold ers
b att
res our
achie ve
dou b
be came
ser b
orig in
asse mb
fe l
av o
x ed
g ave
h an
ob ject
mid dle
look ing
pl ann
h all
se qu
art s
min d
m om
cr aft
own ers
vict ory
want s
go ods
manag er
pop ulation
will iam
to m
environment al
p red
ac ross
polic ies
af fect
pr ise
ad a
gre ater
s om
sur vey
self -
if y
manufact ure
im es
sup p
6 -
r ation
m art
asse ts
reg ist
n y
3 7
move ment
blo ck
1/ 2
con fl
c is
i i
hous ing
begin ning
communic ations
ch i
oc cup
program me
et s
st ay
f ill
pol l
sp an
s low
cr u
chem ical
inte gr
se a
m ill
major ity
1 )
al i
ho st
fe at
pl om
business es
se par
di plom
l ink
secur ities
ris k
in stead
wor ds
late st
ch es
char act
b ass
con su
ch all
o re
plac ed
tro ops
198 0
k in
y ield
3 2
pop ular
p age
on y
at ory
u me
l ack
ho sp
did n
iv ing
run ning
fore cast
bos nia
assemb ly
o w
m ult
play ed
lo y
ha el
re li
te ach
moder n
organ iz
east ern
offic ers
med ia
st ar
gu ard
ve h
nat o
exp and
sell ing
init i
j er
tre as
reco gn
descr ib
col lect
3 6
concer ned
infl u
per form
col l
for ced
n ar
li ving
hosp ital
ent ire
there fore
int on
in ation
c ross
for ward
p ick
sa ving
heav y
nor thern
bal ance
colle ge
min or
oc to
g ames
t able
m ach
mic hael
pre mi
4 4
ter n
s qu
octo ber
el se
tra vel
ct ors
issu ed
p y
su it
d ate
h aps
per haps
turn ed
ce ll
ist an
pr i
ra ise
s oft
pr im
ut es
v in
le ave
liber al
re cession
ukrain e
dec is
co ast
jo in
de ep
g ent
po or
de ad
cut s
ex cept
sour ces
call s
buil t
sm ith
c li
stru gg
coun ter
ant i-
remain s
no ve
cam p
cont ain
every thing
y es
allow ed
con ne
over all
w are
high -
plann ed
g ro
5 5
four th
ro ck
sen se
w ers
cl inton
sum mer
t v
d ata
play ers
air port
corpor ate
bas ic
c oup
rul es
m oun
ver t
net work
social ist
d -
employe es
fic ient
publ ished
establish ed
resour ces
de mon
h ur
f low
plan ning
pass age
coal ition
propos al
arm s
a per
att ention
treat y
de fin
m ut
sid es
p ion
sho t
terr or
spe ak
l ic
appe ar
any thing
one -
nove mber
a i
3 00
tal k
fail ed
or ies
r ac
instit utions
ap plic
w il
develop ed
effor t
con sum
4 8
et ary
adv ant
us ion
ic ip
school s
prov ided
redu ce
analyst s
ro ll
p ts
consu mer
li ance
cl ar
pac ific
r ail
s port
export s
am a
get ting
rel ated
mit ted
se as
com mod
n ine
prov in
pos itive
kore an
---------------------------------------------------------------- -------
w an
express ed
bon ds
struct ure
ky o
sour ce
ve re
er o
5 m
pl us
cl ub
f f
p ie
- a
experi ence
w ish
re as
it ted
u red
4 7
mo ther
cre ate
m ir
su sp
t es
d in
defic it
air craft
ital y
consul t
ra ised
car s
bro ther
ex tre
requ est
includ ed
r id
two -
sci ent
j our
current ly
qu ite
develop ing
divid end
ag en
rel ation
ro bert
un its
p ul
tr ue
ous ly
be ij
believ es
mean while
sch e
fo cus
beij ing
fig ure
cap ac
aug ust
do w
ar ily
li ft
part s
under stand
- up
on d
k r
ste el
com plain
pr ior
conf idence
strate gy
austr al
isl am
ad or
ly ing
tr ial
st ake
strate g
grap h
m as
th om
afric a
vol ume
med ical
citiz ens
dis put
responsi ble
success ful
exist ing
bank ing
z a
prov ince
revol ution
pro test
t ren
t ic
b ure
pt ion
m es
tr an
o bl
appoint ed
ch ur
o ct
le av
3 9
s am
ac cess
act s
fav or
isra eli
responsi bility
d anger
gr and
it z
kill ed
sub stant
charact er
re ject
att or
of fered
giv ing
author ity
sto cks
sl av
198 7
activ ity
m ad
so v
hel ped
d omin
be ll
president ial
4 9
pris on
d ig
k u
decl ine
tak es
con side
conside red
p i
lim ited
c ise
be low
d ers
b un
me th
benef it
car ried
prep ared
comple x
ro man
accor d
c ard
ex tra
re comm
span ish
mon etary
show s
ev idence
ap proved
is es
polit ic
se ction
cor respond
f uel
stand ards
sty le
show ed
gr ant
h ib
just ice
c ities
mot or
mexic o
sh op
dr ive
f reed
m p
claim s
c abin
- 0
fam il
tou ch
k a
sat is
be y
respon se
lo ans
commun ist
cro at
st on
ur a
capac ity
th ous
agric ulture
def ence
requ ired
represent atives
quest ions
resident s
jud ge
not ed
tr ou
l ad
he art
add ress
ar a
aw a
thous and
custom ers
invest ments
hist or
elect ron
ta i
$ 1
m ess
sa fe
k im
j ames
r io
m ort
equ ity
ye l
k id
bl ed
im um
ex er
program s
fa ther
res ign
pre- tax
hop es
emp has
palestin ian
law s
stand ard
i ro
br an
mom ent
h us
init ial
redu ced
v ill
bure au
wi fe
e th
sa f
meas ure
tr ack
sim ply
propos als
govern or
attem pt
ru le
democr acy
geor ge
cle an
government s
act ions
industr ies
cor re
through out
6 6
b c
sched ul
p ict
b ay
drug s
c um
re pe
sol ution
open ed
bo y
be at
n av
cent ury
co vered
organiz ations
sp ent
str a
h en
f res
en sure
n i
tele phone
ir an
is on
saving s
reg ular
nat ural
follow ed
work ed
f is
j ian
legisl ation
deput ies
2 )
pract ice
contract s
tit le
spe ed
ca used
opport unity
reform s
k et
to wards
seek ing
rel ative
play ing
three -
subsid i
4 00
a )
r at
direct ors
treas ury
fir med
imp act
will ing
ob tain
polit ics
saf ety
spec ific
cre ated
e ch
6 8
del ay
estim ated
announ ce
ast e
tax es
ater al
1 m
pro ceed
pay ments
app arent
trans fer
re v
adv an
benef its
recor ding
if t
gr ade
sel s
go al
instit ute
st ability
de p
ass ess
share holders
cabin et
tr ip
im ent
re p
inc ident
agree ments
appe al
ap art
ch er
ex cl
substant ial
m ig
ast er
br id
rich ard
fil m
describ ed
ad op
associ ated
- 1
cent re
par is
w ing
stri ke
[ passage
d ed
s le
om itted
su pre
pro secut
ind ia
w it
no on
p ension
deb ate
j im
viet nam
qu art
d ar
as ia
d y
ho tel
ist ics
all -
demon str
con centr
long -term
f are
b our
l or
de red
sci ence
si ze
g ir
techn ical
mar ks
instit ution
ma x
r ace
go es
9 9
clear ly
ob ser
stat us
act ed
appe ared
dr aft
m and
bro wn
with draw
p )
fin ally
v ak
rap id
ap prov
tr ied
mar gin
we u
out put
tou gh
s mo
tradition al
cond ition
cal e
2 m
to kyo
produ ce
relation ship
ber g
9 1
e z
rul ing
vent ion
i ers
o ks
crimin al
ri ver
set t
h ab
pe ter
cho ice
t end
sco tt
al liance
investig ation
coun t
bu ying
n s
manufact uring
decis ions
supre me
lo an
fac ilities
meet ings
j ul
w ise
continu ing
confl ict
ital ian
iv en
un employment
p itch
6 7
pack age
i ation
acqu is
qu al
ul tural
b at
m ist
ty p
possi bility
boo st
slo vak
an im
t ask
ren t
certain ly
produ ced
fri ends
candid ate
omitted ]
tem por
lo ve
schedul ed
sw ed
fr ame
cent s
mot ion
r ay
vo ters
week end
quart ers
3 m
wor d
for tun
bor row
ev ents
main ly
g ard
qu o
discuss ed
br az
fight ing
fir ms
l ay
st ated
wr ong
rece ive
ish ing
ans wer
eas y
1980 s
freed om
min utes
up on
s ite
regard ing
ic les
point ed
n ames
fr u
te red
j ack
h ill
regul ations
lim it
bur g
hand s
sto re
s we
de li
olo gical
cham pion
ad es
eng land
effect ive
ne g
reven ue
sl ight
and re
iz ing
ment ion
newsp aper
vent ure
4 6
p aren
it ory
fe ar
material s
um p
jour nal
al one
ol y
cl im
avo id
8 5
deleg ation
no te
tai wan
person nel
offic er
reas ons
every one
s ound
spr ing
d p
addition al
he ard
ers on
sum mit
ho od
er r
ord ers
agric ultural
mo ving
li e
corpor ation
p il
y ard
includ es
design ed
ic a
c at
vers ion
bl ue
stress ed
streng then
re ve
fran k
in ct
fbis- sov
keep ing
inter nal
viol ence
me chan
quick ly
ind ian
run s
market ing
h ills
blo od
yu go
jo y
ob vious
pass ed
hom es
purch ase
war ned
4 2
engine ering
ak es
v a
any one
extre me
roy al
---------------------------------------------------------------- --------
appro pri
chur ch
dou ble
advant age
do or
alleg ed
ad vert
ke l
attor ney
som et
g i
yugo slav
it ar
sp read
redu ction
foot ball
organ isation
well -
exper ts
sco red
y ards
demand s
tur ning
fres h
he ar
fbis- weu
exp ans
n d
ke pt
manag ers
pa ul
co t
w s
ag u
parliament ary
ordin ary
spe aking
does n
batt le
p ush
neigh bor
b ought
correspond ent
stan ces
s and
mak ers
g il
k ers
r ies
hous es
g one
rele ased
est ate
streng th
u ge
5 8
ap ers
im proved
writ ten
sh all
terr itory
fe st
braz il
li ves
bo t
launch ed
writ es
f fr
form ed
conserv ative
y er
4 m
gu e
su spect
re fer
fav our
opt ion
wh om
sche me
g ary
pa th
com pe
super vis
c row
increas es
remain ed
we ight
to t
g ian
re -
c ze
sk i
gain s
br and
oc cur
pl ants
che ck
achie ved
act ing
ic ted
resol ution
ci de
as su
accoun ts
em bar
ton nes
- se
tur key
fin e
ic ed
4 3
christ ian
act ually
enter prise
immedi ately
ts in
te es
cor p
ie l
glo bal
en ced
yel tsin
bo x
c s
un ions
se ctors
ak h
a pe
strugg le
br us
pro vis
nor mal
vo tes
r ural
l ou
provin cial
care er
pre par
de pend
expans ion
l am
aw are
pos itions
he st
ris ing
it em
comple ted
c ure
reg ulation
b es
suggest ed
pre t
w at
high ly
ex plo
ins ist
acc ident
s pl
vic tim
islam ic
fund ament
z h
after noon
b ol
treat ment
doub t
democr ats
f if
( the
al d
6 00
ad just
fel t
drop ped
paren ts
ens es
al tern
- t
sto od
se x
a wn
in side
p ak
pro ced
influ ence
port ion
it ors
mid -
return ed
con sequ
mus lim
n ik
im press
s ort
believ ed
somet imes
g ol
set ting
d ict
ear th
vide o
sur v
num bers
mat ch
6 m
cons ist
prom ise
pr in
se lect
re struct
res ist
afric an
brus sels
pl ed
an e
adop ted
arr ange
claim ed
a ur
spe ech
bas ket
h ig
inde ed
gen cy
small er
fail ure
vo c
15 0
shar p
z one
nam ed
arrest ed
state -
settle ment
agen cies
reg ions
over seas
k ar
ess ential
fis cal
ad o
mil es
cre ation
co ordin
corre ct
rup t
ko v
it ude
nat ure
9 8
ll or
w age
partners hip
detail s
gu ide
transport ation
fran cis
hu ge
elect ed
strateg ic
phil ip
boo ks
vir t
the less
198 6
ur ban
team s
i ver
- 2
view s
s es
a x
c ers
ain ed
concl ud
constitution al
en ge
ce le
te x
approv al
m att
broad cast
0 7
oc cas
g ers
may or
pay ment
serv ed
head s
improve ment
oun ding
manag ing
appe ars
5 7
mun icip
d om
candid ates
fin ished
n one
le v
some one
spir it
on a
s cre
def end
usu ally
terr itor
el imin
l ord
fe e
bey ond
b ound
d ial
sold iers
fbis- eas
w ild
w id
electric ity
st u
ab road
au di
increasing ly
( 1)
ib ility
go v
and a
i vers
on ia
lo ck
o red
g ang
pre ci
r ou
per man
politic ians
con firmed
b ach
op tim
jo se
at ure
sign s
is land
rest aur
j ur
3 )
start ing
bor n
vo ted
val u
aim ed
var i
not es
e gy
col or
199 5
6 4
ll ig
8 00
char ged
s li
inte llig
acc used
d ied
y en
sport s
elect or
inter im
ab les
can ada
princip le
compet itive
du m
re ly
restr ict
initi ative
mi ke
chance llor
prospect s
reven ues
bo b
sp ain
ca pe
it a
egy pt
ref uge
ab s
difficult ies
tur k
bl es
restruct uring
b ak
import s
direct ly
san ctions
li qu
happ ened
re y
de pos
ou l
il es
manag ed
su s
import ance
b ab
interest ed
fun ding
th row
ra id
thousand s
determin ed
an ces
at l
privat isation
g ul
9 7
me l
4 1
ll ing
$ 2
cele br
an cy
v ia
decl ared
ph ys
tempor ary
i res
il ed
por ter
p un
t ight
v il
8 8
un less
lo oks
reg ime
g al
origin al
the at
o gue
it ation
po wers
offic es
ul tim
ho t
w aste
as ian
hol iday
arr ived
st or
distribut ion
americ ans
u an
go d
b omb
so ph
de cide
sk y
re place
jor dan
e ase
g ross
n ian
relative ly
v ine
contin ues
- in
manufacture rs
me ant
z ed
profess ional
suf fered
hol ly
yu an
aw ard
adv ance
fe et
sen ate
pay ing
se y
ens ions
sto res
comp ens
f u
fin ding
5 2
b ly
remain ing
brid ge
dam age
ol a
subsidi ary
cir cum
ac ade
obl ig
win ning
ad ding
implement ation
happ y
sh er
promo te
g reg
m t
ser ve
ste in
opport un
f al
deal ers
part ner
a ther
reve al
mar y
acce pted
recording ]
pr int
own er
members hip
mort g
invol ve
dec ade
chan nel
play er
con ver
o ts
get s
ag gress
fi xed
en a
wit ness
3 -
docu ments
do g
squ are
pres ence
p f
fbis- chi
atl ant
th in
cul tural
oper ate
ne ither
ric k
comp ar
leav ing
as ing
farm ers
so -
suf ficient
bo w
assist ance
large ly
commit ted
pol and
altern ative
st ations
be coming
john son
aid s
conduct ed
separ ate
ste ps
il legal
hig hest
l loy
usu al
independ ence
med ium
h l
o ting
pak istan
c ad
j ail
jo ined
rele ase
administr ative
am ed
5 6
prin ci
ship s
z en
pur su
gener ally
le on
ident ified
coup le
en force
emer gency
dr awn
g az
holly wood
fbis- lat
t ick
fact or
it ing
re new
hol ds
3 /
under standing
guaran tee
in ing
plac es
play s
cut ting
g ives
7 7
base ball
mark ed
you th
fif th
present ed
y ang
contro lled
com ed
rel ig
percent age
field s
slight ly
inst all
in qu
sy r
s ens
ster ling
sho wn
mut ual
off ering
pro p
affect ed
r al
ref used
tal king
explain ed
b ag
previous ly
off ers
6 2
dire ction
5 4
cy cl
im age
seem ed
er t
prov iding
6 9
sp here
ch ic
decl ined
pur pose
chall enge
led ge
s n
tren d
even ing
lo se
c atch
h um
j ury
sa ve
bos nian
-94- 00
r um
frame work
suf fer
co p
opt ions
state ments
first -
anal ys
gar ian
t as
shar ply
concern s
un g
------------------------------------------------------------------------ -------
air lines
mor row
- to
un certain
u ct
francis co
reject ed
mo del
z z
in fr
un likely
ex hib
head ed
minor ity
form s
moun tain
s ong
fact ory
basket ball
v ac
g all
require ments
represent ative
suc ceed
dut y
ate ll
ra ising
finan cing
bil ateral
198 5
power ful
think ing
6 3
i et
ig or
mess age
t w
ber n
c ulture
sp end
ukrain ian
am bass
depart ments
advan ced
contin ent
t u
g att
turk ish
ir ing
mu se
veh icles
spo t
famil ies
thom as
mr s
building s
found ation
s cale
- l
mo ves
diplom atic
min ing
c old
5 9
o ak
disput e
5 3
ab il
fut ures
princi ples
perman ent
apparent ly
rup tion
fundament al
as es
int ended
sc ene
so- called
ack now
fbis-eas -94-0
pres er
e eu
b ing
to morrow
s ac
am end
ver se
ast ic
veh icle
immedi ate
f requ
w is
equ al
introdu ced
5 1
pris ing
cl a
pict ure
appropri ate
opportun ities
fr aud
particip ation
con solid
know s
ct ure
head quarters
premi er
comp on
fe ars
crit ical
muse um
i ency
gen eration
mart in
happ en
f ash
den ied
att acks
fac ed
7 m
olo gy
ic ts
call ing
low -
c ate
ath let
lar ger
8 m
ha z
j ones
exp end
fact ors
min imum
ex cer
k ur
announce ment
look ed
ac re
integr ation
command er
st ance
sco t
mak er
prov ides
support ed
editor ial
provis ions
pan el
establish ment
ip s
indic ated
fac ing
austral ia
sy m
g on
exp ensive
bod ies
en joy
pos es
as pect
it ure
sim ple
fac es
p has
s atell
soft ware
liqu id
ag ents
matt ers
attr ibut
mon t
appoint ment
o th
tran sa
we red
lat in
recomm end
po ol
commit ment
consid ering
lo ad
writ ing
encour age
0 8
pre fer
prov ing
mic ro
ser bs
k new
wr ite
er a
att end
ext ent
ex cess
ide as
stat istics
fe es
am s
sh ire
develop ments
effect s
col omb
se ats
enter tain
wor st
fbis- eeu
augh ter
co re
conf ident
concer ning
c so
mag az
vo ting
ti red
s end
re in
show ing
1 bn
long -
ire land
z o
al u
olo g
f it
s ought
produ cers
az er
it es
om y
circum stances
link ed
gul f
municip al
repe ated
ay s
s r
im ag
or ient
war ning
iv ity
scient ific
put ting
gree k
us al
extreme ly
individual s
x in
con cept
discuss ion
intellig ence
- 3
fall ing
8 7
fash ion
carry ing
r ating
& hy
comp re
char les
reli ef
su st
deal ing
a ]
chang ing
occup ied
i as
re tain
dr am
bill s
inter ior
he aring
in spect
&hy ph
pie ce
dial ogue
real ity
ade qu
neg ative
l ag
mo b
accoun ting
fbis-weu -94-0
co ok
h i
in spe
william s
ul a
un able
st one
5 bn
app ed
ur ged
gov ina
miss ed
pr a
sp ite
chall eng
premi um
holding s
r out
conne ction
ul ated
y an
ex ceed
dis pos
tele communications
expect ations
event ually
- day
n is
c able
- 7
im posed
won der
d ur
complete ly
in stru
sw itch
per fect
op pon
prom ised
9 6
form ation
organ ized
ambass ador
ly n
[ excer
brother s
estim ates
spl it
are s
los ing
test s
v ast
loc ated
o x
gl ass
min e
im possible
never theless
i ents
ex act
cze ch
let ters
satis f
com for
bun des
coll ap
ab sol
ir vine
bl ing
part ly
con stant
2 bn
ch ed
commer ce
ret ire
fall en
mo vie
% )
we alth
he im
analys is
fun ction
0 4
- out
mal e
lear n
be long
wait ing
a ero
dest roy
ch ain
li f
jian g
iven ess
7 00
elector al
as sa
re action
de gree
republic an
cu ba
employ ed
p ting
per su
ar gent
re ut
cap t
su res
f at
d or
assist ant
contr ast
compre h
lear ned
ab and
p as
can ad
contro ls
stud ent
gr ain
flo or
consum ers
execut ives
if ying
fest ival
was n
9 m
-------------------------------- ----------------
se es
val ues
com ments
av en
ku wait
vo ice
h es
produ cer
ph arm
acquis ition
str ict
owners hip
12 0
critic ism
most ly
sho oting
regist ered
attem pts
ch ap
item s
eth nic
att itude
id a
o ce
f re
an c
t in
bro ke
aut on
fact ion
conclud ed
kid s
op posed
st able
im mig
maintain ed
se vere
stud ies
car ri
advert ising
l as
ch a
p sy
her o
fbis-sov -94-0
cre ating
audi ence
wor se
str ip
mo de
mortg age
n and
ha i
r ang
ro te
( dollars
2 50
fle x
custom s
clos ing
list ed
dif ference
med ic
jun ior
j um
de als
gain ed
ye men
fol io
teach ers
r ally
reser ves
cham ber
port folio
vent ura
trou ble
inst ance
re feren
6 1
tw ice
support ers
a po
differen ces
al le
hus band
bosnia -
yugoslav ia
rad ical
her ze
fore st
so vere
sovere ign
19 70
k az
more over
ph en
dig est
prior ity
ce re
bir th
mur der
expect s
pre ced
mob ile
ch u
ain e
min ute
be ar
represent s
su d
5 -
electron ics
tar iff
bran ch
absol ute
herze govina
profess or
end a
p ace
leag ues
report ers
rob in
v ital
christ mas
n ament
k h
bach ev
nav y
meth od
man n
mention ed
d un
w rote
cour ts
gor bachev
invol ving
0 3
fbis- nes
recor ds
ex cell
ft -se
stop ped
decl ar
app ly
chic ago
comb ined
virt ually
er ia
feel ing
theat re
wh ate
loc ation
ir on
l ending
legisl ative
wal es
pos ite
in ary
p in
pers ons
air line
lo g
princip al
fil ed
se at
is n
bur y
x on
whate ver
le ts
br a
consider able
lloy d
m aster
than ks
mal ay
in sul
8 9
z y
supp lies
bro ker
de press
discuss ions
plan e
fic iency
second -
ic ial
ol es
act or
exp enses
reser ve
collap se
i que
ar i
con front
te ls
---------------------------------------------------------------- ------
record ed
c ia
fl at
ad mitted
mon y
serious ly
consum ption
e ye
enforce ment
road s
compreh ensive
m ile
pro portion
wal k
r ade
oper a
y o
mon itor
i ]
bring ing
mexic an
ass n
ro l
tour nament
( 2)
ch est
u gu
4 )
w ind
gl as
sud den
cont act
f ly
tru ck
ic ing
br ad
man ner
or dered
bur den
lo b
other wise
danger ous
en em
le ban
sco re
employ ers
dre ds
en thus
heav ily
adv ice
vill age
af ford
institution al
sh ut
hun dreds
ha w
gu est
ce ase
ast rich
as set
bil ities
astrich t
de cre
process ing
on to
ma astricht
ag an
revolution ary
acqu ired
street s
oce an
pred ict
particip ate
qu iet
meth ods
ound ed
n omin
swed en
0 5
- off
sal v
malay si
follow s
k il
gard en
re b
infr ast
it im
fr on
clo sure
go als
be gun
allow ing
b ou
infrast ru
le e
tr ail
met ro
commission er
arm en
em bass
cr ash
strong ly
sur plus
quo ted
be aut
it er
threat ened
r ant
palestin ians
le ction
rele v
ul ate
0 2
journal ists
mer ger
nar row
de plo
t ack
ab ort
im proving
un a
mach ine
as sum
d ish
fac ility
as ser
pen al
or ation
trans ition
canad ian
leg itim
acknow led
re porter
app lied
met al
---- -
deli ver
exer cise
back ed
resol ve
hun ting
ter min
cy pr
commod ities
pe ak
-to -
lin ks
she l
clo ser
cor ruption
r are
withdraw al
terror ism
newsp apers
stre am
bundes bank
b um
0 1
be comes
n ig
exper t
so le
wel come
iraq i
im per
r ival
r aw
for th
gre w
sol ve
con ce
de fe
dr iving
know ledge
ag enda
ag ent
exp los
[ article
ev a
refuge es
mer ch
- time
lat ter
k ins
eas ily
5 p
gu il
f ired
lu x
applic ation
ev o
ar ity
ad voc
redu cing
comb at
j a
ct ed
the ast
re cru
bot tom
al ban
rul ed
col o
prim ary
t ory
pe as
m ail
aband on
hun garian
tru th
contribut ion
colle ction
territor ies
dis crimin
gu y
dr ink
m its
object ive
( 7
bureau cr
s in
ap preci
g am
bosnia- herzegovina
state- owned
arch ite
ind ist
pre cise
victim s
ste ve
hon or
t ay
att ended
b low
h ang
mem or
rom e
acce ler
restrict ions
read ing
sk r
suggest s
phas e
ele ment
- and
close ly
m ou
ask ing
cap able
take over
sup posed
b in
contribut ions
l en
ail and
th ailand
b bc
win dow
w ol
form al
chemical s
gh t
se cure
trad ed
fl ight
cal cul
un d
may be
new ly
tr ig
gir l
inter vention
h ed
occas ion
s ara
dav is
com rade
scott ish
s per
fa x
des ire
cau ght
inform ed
fill ed
5 )
negoti ating
indist inct
trad ers
con struct
p it
ic i
ut ical
li th
w arm
serv ing
vis ited
( 1
r ough
l ake
return s
occur red
in ev
ele ments
a -
w ine
s que
mo sle
short -term
min ent
cam bod
gr ounds
pres id
else where
friend ly
mar ine
full er
produ cing
bro kers
th ro
it able
ga ther
br u
tex as
com promise
magaz ine
ir ish
- the
croat ian
bo ys
198 4
wide ly
electron ic
d aughter
gu ards
pl at
h ans
r if
oly mp
re mo
fall s
c in
com pl
publ ish
d ress
indistinct ]
se ts
prof ile
declar ation
ba i
satell ite
af at
eng th
re member
an k
ad ds
int ention
l ers
inqu ir
sli p
b ish
re su
ris ks
ear ned
w ages
ef ficiency
vil le
ar afat
austral ian
ext ended
pret ty
tre ated
sc en
target s
s fr
requ ires
ch ris
spo ke
il i
cre te
us ers
cer t
igh ter
poll ution
dre w
serb ian
be ha
fl ag
cli ents
sk iy
determin e
g ate
l us
un ification
st abil
proced ures
typ es
lit er
cont ent
deb ts
mo dest
l t
weak ness
hard ly
xin hu
x im
g ans
r ice
r ig
7 8
cont acts
u le
ul ty
struct ures
inte l
k an
slovak ia
f red
stra ight
r ants
infrastru cture
grad u
pro vision
g ia
p ound
organ is
wel fare
l ined
ck ed
py ong
test ing
post -
mechan ism
obser vers
ris es
grant ed
re put
sign ing
sur prise
for um
vo y
col leagues
de te
ent ered
ate st
y ers
argu ment
e yes
re vis
restaur ant
gree ce
ef ficient
co de
emer ged
sw iss
atlant ic
int ens
p ir
g ap
9 00
sh r
sh ang
lith uan
month ly
sc and
[ by
y a
prim arily
gre atest
business men
co s
d pr
m ous
contro vers
dis covered
exact ly
and er
concl usion
de feat
the ory
exist ence
ho tels
consid eration
entertain ment
pharm ace
ve ter
implement ed
mo bil
scot land
part ial
room s
dut ies
dis count
mis si
ollar s
consequ ences
te en
relev ant
7 2
con dem
num er
fbis-lat -94-0
pharmace utical
i ar
not ice
ad opt
technolo gical
wh it
ad ow
jprs -
co oper
3 bn
al an
bon n
she ll
b ic
citiz en
accept able
int ent
ie st
compon ents
gro wn
ass ign
represent ed
pract ices
economic s
ad ollars
mat ic
excl ud
p ic
rapid ly
plac ing
hop ed
relig ious
we ather
pro -
ed s
fe wer
ko hl
hand ed
cost a
br ight
di vers
7 6
kill ing
manufacture r
k i
christ op
com plic
compens ation
touch down
- making
fbis-chi -94-0
as ide
hun gary
comput ers
c ited
me rely
dis ci
e ag
con crete
liber ation
dpr k
0 6
- 6
bar bar
dut ch
1/ 4
ious ly
att ach
report ing
introdu ction
pass ing
hor se
s ad
bank rupt
$ 3
sing apo
li br
eas ier
pol ish
con vin
tas ks
con firm
b acks
croat ia
e ll
ag ue
ent re
lo ts
reveal ed
dec ades
sh ift
g ment
st ick
i qu
k g
cr ack
deplo y
li ers
new port
mean ing
wil son
sch em
ch en
adequ ate
histor ical
crit ics
ju red
mill ions
invest or
p p
writ ers
attr active
the ater
f ers
is ol
f ro
- related
at mo
disci pl
fel low
t ie
re tired
embass y
max imum
pract ical
re placed
ef f
proper ties
vice -
singapo re
out come
c ue
fuller ton
accord ance
every body
law yer
st im
en ger
convin ced
o z
[ report
spec ulation
ha it
l um
m d
amoun ts
cr imes
po ver
azer bai
ke e
du p
ro s
argu ed
beha vi
arrange ments
azerbai jan
-94- 10
ac cus
d ance
aut umn
k n
democr at
w inter
aero space
strong er
if ul
ab ol
bro ken
re mark
reason able
world wide
con vention
sa ud
od y
ag on
( 2
h ay
m ps
g dp
f oun
fish ing
nor m
un changed
inspe ction
sara j
effect ively
f an
privat ization
et ies
at o
fortun ately
attribut ed
fer nand
out standing
stand s
- million
no vel
sy mb
- 4
hel ic
controvers ial
act ual
al ex
demand ed
social ism
buy ers
continent al
in jured
cept ion
ple as
b t
sy nd
saraj evo
cr ip
ent ry
sub sequ
av es
bab y
margin s
v lad
as y
it o
pyong yang
mon op
fur n
c ou
struct ural
gon z
stru ck
in struct
obtain ed
mi xed
ar k
histor ic
ex ter
sit es
contribut ed
pro sper
e ld
peace ful
8 4
bo om
7 9
de v
prop ag
cy cle
sco pe
live red
tay lor
shang hai
subsid ies
mon d
the s
7 4
um b
con ven
s ist
bor ders
hur t
le x
` `
r ical
forecast s
custom er
gold en
j am
we ar
je an
vict or
wor ry
il lo
win ner
j i
obvious ly
our s
crow d
ter y
dar k
ol der
referen dum
or ing
ant icip
-the -
resol ved
fru it
pre lim
bor is
particip ants
sub mitted
maintain ing
symb ol
constit u
str ain
itar ian
exper iment
per u
de livered
fl or
su gar
s mu
ch ong
e cu
wat ers
sho re
l ength
rou te
ig no
lim its
8 6
g ies
appro xim
res ort
r and
pos ing
guaran tees
cl in
ca th
j r
c dollars
short ly
ti er
ren ce
199 6
an o
help ing
sh ops
-and -
7 1
re move
possi bly
reflect ed
see ing
hab it
reco ver
- yard
che ap
no -
p arent
fish er
involve ment
bank ers
advis er
3/ 4
miss ing
ent ed
br ian
ton s
fbis-nes -94-0
ac compl
up per
pol ls
extra ordinary
sk ills
sett led
pr ised
ex pl
an x
p ad
ris en
mac ed
ben ch
ation al
grad ually
cu ban
loy al
din ner
all ed
aven ue
ac compan
st ad
regul atory
sent ence
assess ment
ant on
re turning
oppon ents
en able
ber lin
fa ith
o h
il ing
art ists
back ground
leav es
lob by
t act
prelim inary
fle et
ext ensive
solid arity
christop her
sur prising
law yers
st ret
regard ed
un ified
1 10
ide ological
pat ients
establish ing
health y
the ning
cl es
rat io
iss ions
be ls
fl u
iz es
au ction
attr act
traffic king
do d
ex tr
cho sen
net works
t am
co c
jo e
be th
re marks
re moved
c of
pre ne
pat tern
employe e
dr y
c any
s ab
con sen
b ac
presid ency
plan es
resist ance
n ur
c ance
fbis-eeu -94-0
famil iar
encour aged
obser ver
entire ly
th ai
div ided
8 2
lift ed
fran co
cons ort
ex changes
hand ling
schem es
off ensive
ton y
per mit
s add
expend iture
c amer
ind ones
no body
ro d
entre prene
br on
h its
m ol
g ay
prom pted
shop ping
sh ape
ing ly
tre es
ye v
promo ting
susp ic
ten ance
crime a
m organ
us ive
gen eva
am p
j eff
ha ir
obl ast
sher iff
support ing
cot ics
cor ner
mor al
usal em
vari ety
n ice
f ab
susp ended
ou red
con vers
en to
fund ed
dre am
jer usalem
b io
ob st
kaz akh
p son
lu ck
bar ri
ca ut
19 60
p ensions
li a
al co
emer ging
could n
eng ers
stud io
so c
gir ls
w ick
abort ion
program mes
w art
sovereign ty
g m
appear ance
qu ant
supp liers
o le
syr ia
g s
high way
ic ate
equ ival
cross -
ma j
under stood
ph y
se con
t ree
expand ing
perform ed
fran ch
fin land
six th
suffer ing
s ed
speak er
[ end
dr iver
um es
can cer
l ak
commod ity
applic ations
draw ing
n ut
significant ly
insist ed
ou d
7 3
aspect s
gol f
lead s
main tenance
consen sus
8 3
intel lect
reach ing
pi pe
stri kes
streng thening
approxim ately
secon ds
su its
dr af
join ing
my self
econom ies
exter nal
dispos al
ge o
geor gia
fair ly
con i
atmo sphere
ent it
( c
in cent
found ed
embar go
beli ef
whe el
li ved
itz er
estim ate
sh adow
k ick
vol un
ib m
or che
coc aine
bak er
gaz a
con vent
cho ose
swed ish
pred icted
je ction
$ 5
ier ce
p act
car los
retire ment
ite ly
saud i
allow s
reput ation
e a
h art
organis ations
ro ber
co ol
au se
dram atic
val uation
gu ys
am id
visit ing
( 3)
determin ation
u bs
perform ing
guil ty
civil ian
re con
chan ne
im plic
commit tees
** **
w ounded
i be
hol der
missi le
ch ile
s )
ex em
respon ding
lou is
se oul
i x
ac res
- 5
[ begin
un like
week ly
cre w
fam ous
mass acre
psy ch
re agan
experi enced
att le
do ctors
con secut
h one
chest er
win s
obst ac
sched ule
k le
econom ist
detail ed
sh ed
nar cotics
ration al
d ated
ne st
roman ia
be half
so k
champion ship
qu ake
bur gh
rel uct
compe te
bel g
scre en
f ans
accompan ied
respect ively
hand le
r ance
ex -
u cla
ext end
err ill
to ol
barbar a
encour aging
8 1
pres sures
consecut ive
end er
success fully
pr ince
on so
g ab
dis aster
some what
transa ctions
me at
pass engers
invest ed
vietnam ese
president s
sens itive
prepar ing
dis ease
r ust
trust s
phys ical
excell ent
s ie
e at
ul u
des er
own s
emphas is
h arm
gu errill
s ight
n in
contribut e
out look
et er
muslim s
propag anda
do zen
special ist
se m
stu ff
guide lines
- month
rece iving
dist ance
collect ive
l augh
2 000
pre v
pro motion
d- mark
the red
- general
val id
uncertain ty
education al
demand ing
rep air
inv ited
equ ally
sur r
direct ed
ver sal
ber lus
fal se
em en
re fin
in sure
bal lot
oper ators
n as
as ion
advis ers
ze al
sho ts
near by
cru cial
prosecut or
down town
k m
resign ation
defe ated
ab ilities
sh ir
introdu ce
equival ent
b ors
profit able
vol unt
in ov
50 m
product ivity
g le
ut ed
co py
destroy ed
provin ces
w ake
jud icial
ton ight
pe p
p ages
cover ing
origin ally
initial ly
over come
require ment
har ris
start s
impress ion
car ds
begin s
cere mony
mass es
fru str
acquis itions
ru b
expand ed
p ure
cent ers
mon ica
t ied
int ends
grap hy
se ized
cof fee
ab led
super ior
recogn ition
c ult
contr ad
p es
ck er
sp ons
ac cur
interest ing
r oun
t ap
argu e
ck et
fast er
pat rio
an ne
depos its
represent ing
w ang
pur poses
equ ities
amend ment
ana heim
il s
am i
attack ed
bas es
fin ish
be er
cl ash
bal an
mult ip
thin ks
dr iven
mill er
bur n
lag una
absolute ly
abs ence
ile y
vir gin
con v
neighbor hood
robin son
fil ms
gr an
p up
bo at
consort ium
pie ces
short age
bran ches
lo west
wor ried
us sr
inquir y
wel comed
fo c
ll a
- 10
im f
tot ally
free way
select ed
1970 s
he at
ca iro
si zed
f ile
l ights
[ un
is a
198 3
regist er
sit ting
$ 10
ven ez
un usual
deter ior
complain ts
ul ts
big ger
$ 4
archite ct
out s
r w
- of
il ateral
ha ven
refer ring
bow l
-t ass
except ion
j acks
w ave
gr ass
ball ad
gain ing
act ors
volun te
j ac
in nov
acknowled ged
6 bn
coun ts
alleg ations
mou th
stead y
12 5
econom ists
prom ises
re cycl
tal ked
qu ot
pro li
distric ts
le wis
ill ed
be ver
alco hol
official ly
sur prised
imper ial
commun ities
fun ctions
il it
intellect ual
b are
4 bn
borrow ing
pover ty
pick ed
leban on
surr ounding
v igor
f ate
c pc
fact s
venez uel
ill u
argent ina
compet itors
roun dup
xinhu a)
igh th
colomb ia
im ir
dep ends
gr y
f as
profess ion
s or
( xinhua)
vent ures
miss iles
n an
over -
belg ium
w ides
in -
turn s
ab use
fl ed
watch ing
r it
our selves
concer t
under lying
ke en
sub scr
or gans
reflect s
sur ge
move ments
de ar
s ar
resident ial
domin ated
resul ted
ful fill
al ter
cat al
tr ib
pre ad
am b
div is
g ence
concentr ate
back ing
deli very
tren ds
r iv
ed ge
libr ary
wides pread
pul led
pen insul
berlus coni
bern ard
retail ers
recomm ended
n ad
brief ly
ar io
n om
main land
d im
la id
ann ivers
photo graph
c ip
optim istic
5 %
peninsul a
implement ing
year -
/ 8
ran ks
tax ation
ton ne
play off
political ly
sur face
pain ting
real istic
min es
l n
ment al
e es
sa v
ad mit
res cue
ad ed
care fully
ie v
dou glas
public ly
fr ag
terror ist
do ors
en or
sur ve
ur ugu
( 8
m ates
dead line
mes a
enem y
p apers
ar bit
1 30
urugu ay
put s
malaysi a
cor ps
are t
n ick
list en
s cor
de t
mo v
pro hib
hop ing
in vent
je wish
re ck
wal ker
post s
active ly
valu ed
br ig
apart ment
sol utions
at om
( r
( in
caut ious
co- operation
for get
r abin
do ctor
ex plan
ing er
u z
ch or
coun sel
super vision
m ap
un fortunately
push ed
c ig
itar -tass
mor ris
ram s
tele com
bre aking
mass ive
right -
youn ger
car ries
firm ly
pass es
investig ations
m ich
pet role
nor way
happ ens
satisf ied
bel gian
du ma
norm ally
st ories
int end
annivers ary
frequ ently
co tt
h k
d all
leg ally
- 8
pat rick
hen ry
form ula
cany on
neigh bors
nor man
ho sok
al ger
hosok awa
char ter
re es
stad ium
al bum
sou theast
austr ia
prep are
pe l
aim s
bar rel
depart ure
quarter back
is ms
im pose
f lying
tr illion
x ia
wr ight
vi k
sho ck
p att
pol y
for cing
mach ines
numer ous
pan ama
ip ped
alu min
vlad imir
four -
mult i-
bes ides
us hing
pass enger
sh if
ren tal
foc used
sal ary
comb ination
import ed
cit ing
b om
sur ing
k om
ic ting
if ically
n ol
re called
scient ists
reco vered
exhib ition
fin ds
feat ure
broadcast ing
e ighth
con sci
bad ly
all en
petrole um
el a
how ard
jacks on
product ive
hunting ton
t ables
m n
serb ia
wh oles
fernand o
flor ida
lo pe
on ian
chan ces
ex po
car ol
ca uses
negoti ate
u ine
republic s
con test
philip p
pl ate
rang ing
proper ly
p ap
tariff s
resign ed
te ed
channe ls
tour ism
real ize
ed ition
elect rical
mi x
improve ments
sil ver
di am
rac ing
199 7
visit ors
kazakh stan
tick et
nel son
c av
dec ree
ay a
wid er
bul l
con vict
har bor
car l
kin ds
j ump
sudden ly
ic ks
z hou
would n
tem per
se min
bo ss
sw itzer
develop ers
entit led
publ ishing
l ind
pe o
l av
pers ist
gu ang
ig an
suspect ed
pict ures
bl amed
e colo
re ference
end or
ar ian
cad res
gh an
gun s
class ic
b read
sh a
bo ston
contro ver
guaran teed
ue z
egypt ian
share d
cess ions
bit ter
fe ed
foreign ers
former ly
t -
comp let
s now
ar o
n ie
1 15
use ful
gen uine
prom ising
- foot
cath ol
q tr
convent ional
aggress ive
renew ed
ap t
dan iel
mil k
en cing
achieve ments
ne ther
ick en
bu ck
r as
sess ions
g mt
h d
que en
yield s
beaut iful
pro minent
mo od
sol ved
teach er
complain ed
contr ary
argu ments
ve get
ale z
d eng
weap on
- style
0 9
w y
tick ets
mus ical
acade my
198 2
par king
l unch
controver sy
gonz alez
peas ants
ext ension
home less
uc ks
conserv atives
russi ans
r d
de e
[excer pts
peo ples
con text
friend ship
t z
alleged ly
art ist
lift ing
sp onso
p ian
sponso red
fight ers
[excerpts ]
ran k
mon te
en cies
ic ated
fl ights
protect ed
mach in
be lar
in ning
nether lands
sch ol
in f
ministr ies
clim ate
or i
purch ased
cate gor
chap ter
pat ient
el ig
mar ried
proli fer
s &
def ensive
smo oth
ac commod
az z
precise ly
off set
pul l
don ald
st al
smu gg
ant ly
lan e
mode ls
u ations
pl un
i h
d ies
seven th
bo ards
dis closed
happ ening
acqu ire
she et
t at
deleg ates
bl ame
indic ate
disput es
fo ster
lic ense
r ide
oun ced
jum ped
n ative
doub ts
soci eties
her it
col labor
ev ident
bo tt
work er
inv itation
pil ot
d ir
viol ations
ro ots
jud gment
m ate
int ense
sust ained
divis ions
sw im
on -
feat ures
cu red
k ans
str ing
nation wide
cir cles
phen om
[ k
andre w
anim als
de ut
uni que
than k
st ars
qual ified
al lies
g ill
south -
( d-
cour age
sal aries
j et
ran ked
resu me
v ul
typ ical
ens on
to bac
reported ly
reut er
-s cale
blo c
------------------------------------------------ --------
ar iz
us ions
we igh
purch ases
v ard
refer red
av iation
ju an
monitor ing
proceed s
orient ed
ca ution
special ists
diffic ulty
sent iment
sign al
acade mic
auton om
vis its
communic ation
cypr us
gi ant
ro ger
belar us
delay ed
mov ies
d ick
v at
redu ctions
st ro
ur ally
amoun ted
s car
sh ak
m end
phil o
mac ro
assu me
un expected
consist ent
confl icts
five -year
rest ore
h s
tax pay
y ong
har mon
medium -
abs or
est onia
enter ing
h ired
comm ons
it iveness
lad y
german s
contrad ict
switzer land
confront ation
a us
fe male
mi k
h r
instru ments
tr aged
defin ed
thir ds
council s
o -
spec ifically
198 1
n ich
l au
m ul
c p
mosle m
third -
in i
hospital s
contain ed
hur d
salv ador
witness es
in no
d red
en h
cover age
ca using
af ghan
gr ay
zeal and
repeated ly
oun ce
se pt
dete ct
soc cer
4 +
clo thing
ul s
di et
im ents
ut il
maced onia
er ic
legitim ate
con cessions
ne ll
app ing
tell ing
de struction
work force
ar agu
( d
ballad ur
compet itiveness
mat ure
resul ting
enor mous
mot ive
recommend ations
10 1
trans l
- free
col on
thre ats
cli ent
197 9
character istics
brief ing
swe ep
emphas ized
prison ers
cred ibility
diplom ats
iqu es
pro of
clar ke
ho le
form ing
cas ual
arab ic
single -
mind ed
see ks
h ut
crit eria
lu is
arr ival
ta pe
exp ense
en na
( a
in tr
necess arily
cal m
tr ucks
bl ess
c bs
nic aragu
dou bled
de liber
br ings
critic ized
col leg
tobac co
object ives
congress ional
preser ve
dr ivers
appro ve
le is
sen ator
sh ap
lear ning
t ension
g t
assa ult
re call
th ur
emp ire
person ally
behavi or
moder ate
territor ial
tr ay
bou lev
under ground
prolifer ation
pursu e
pt ]
pl en
enh ance
eng aged
se al
inter -
jer ry
re bels
half -
con vic
-------------------------------- --------
l end
guest s
proced ure
cir c
transfer red
am bit
sust ain
st ers
technolo gies
human itarian
sh i
- owned
le ase
c n
curren cies
pr iced
sub mit
es cape
neigh bour
f ierce
reser v
comfor table
rus h
ner v
complic ated
c ab
immig ration
persu ade
af raid
aw ards
eld er
par ag
nat urally
autonom ous
8 bn
except ional
w u
got ten
mist ake
credit ors
opin ions
ob serv
ash ed
e mot
govern ing
help s
signific ance
pr icing
ro t
ad ena
1990 s
se lection
den mark
bankrupt cy
ur gent
jur ies
crimin als
d ave
end ors
[ words
supervis ors
coordin ation
-94- 11
im ony
indones ia
l ap
an i
rob ber
arr ang
settle ments
cert ific
t um
1 p
en vis
valu able
arrange ment
favor able
deep ly
n ap
ok ed
mot iv
advant ages
feel s
medic ine
v y
ke i
r ass
town s
attem pted
ist a
h ann
t all
hard -
spec ul
hy dro
invol ves
elimin ate
r -94-0
pl ent
gr at
con temporary
where as
pal ace
b ail
brazil ian
tan ks
revis ed
cambod ia
ger y
b au
er m
h at
the me
bre ed
respond ed
cathol ic
in jury
coun ties
consult ant
class es
sp d
request ed
to x
7 bn
investig ators
zh ir
s ending
deal t
clar k
ten nis
reg ret
great ly
sw ing
merch ant
d ul
trans formation
explain s
ambit ious
u ous
t il
ban g
excess ive
ans wered
tun nel
emp ty
atom ic
foun der
gener ated
enthus ias
[excer pt]
convers ation
zhir inov
arab ia
oper ator
wor ries
vol at
train ed
occup ation
10 3
**** *
viol ent
hal t
je ws
trou bled
dy nam
argu es
p air
sle ep
com posite
cred its
claim ing
ken ned
ve to
b ent
gr ave
ultim ately
house hold
fail ing
dis appoint
tin y
crime an
be an
second ary
expo sure
rac ial
co ck
embar rass
public ation
discipl ine
enthusias m
anal y
ne ys
challeng es
co w
bul gar
inspect ions
uk me
de ukme
wal ked
surv ive
d ale
anim al
par alle
st ol
6 )
il a
convic ted
conduct ing
coast al
camp us
rail way
man i
dro ve
h id
fact ories
willing ness
and erson
restaur ants
prev ail
imag ine
en n
tend er
t one
suggest ions
wh el
deukme jian
ser ge
depress ed
over night
legisl ature
o y
expl oration
n az
c c
co pe
h ire
ram ento
dr ag
philo soph
ran king
inter pret
min ster
pro to
ear n
pl astic
dig ital
d d
seas ons
in juries
an th
flex ible
conne cted
flo od
viol ation
boulev ard
reflect ing
ia ea
v as
bal tic
thor ough
wo ol
optim ism
op ens
vis ible
p m
finan ces
am az
10 -
eng age
scand al
dis missed
vol umes
uni versal
athlet ic
carri er
e e
safe guard
f y
republic ans
kenned y
$ 100
dis play
subsidi aries
compar ison
scor ing
z ero
oblig ations
pun ish
restr ain
veter an
cam ps
responsi bilities
h in
depend ent
accoun ted
aren a
clo thes
volunt ary
is lands
[ interview
ha il
min ds
coach es
all ing
cot ton
ran ch
b ust
nich ol
constant ly
e ing
ren der
ch art
op ing
substantial ly
step ped
con ced
resol utions
by -
gr av
p om
augh t
ple ased
government al
re z
ident ity
en han
satis faction
min im
advis ed
recogn ized
p ushing
award ed
ade l
sh u
we b
exam ination
( k
over whel
2 p
ke vin
iran ian
machin ery
bas ically
op ter
bar cl
balan ced
consci ous
dis ney
tack le
to ll
1 -
promo ted
assu med
fr ied
sac ramento
c en
a qu
sent enced
pas adena
roll ing
law suit
stor age
op posite
activ ists
finan ced
str ange
council man
and r
cop per
p ent
sim on
hun dred
nav al
auton omy
e gg
sp ar
lat ino
b )
in n
regist ration
thom pson
commit ments
lo per
1 st
helic opter
es cal
pat rol
slip ped
us c
hand led
mic hel
met ers
mist akes
ch ip
ab u
concentr ated
h unt
con spir
prosper ity
s -
incident s
li by
restr icted
ro p
id o
r af
14 0
fo ods
at ures
au x
ne ut
address ed
associ ations
dr ig
olymp ic
operation al
ol ine
lam ont
complet ion
he ight
thre w
p k
def ending
tru ly
des per
tell s
discrimin ation
con version
chong -
1960 s
per mission
pro cur
gil ts
int ensive
invest ing
zhirinov skiy
stud ying
percent )
particip ating
coll aps
str on
recon cil
question ed
a o
f ought
3 p
ou se
nerv ous
emer ge
si ble
ro drig
max well
purch asing
lithuan ia
vul ner
ter ri
west minster
d at
f lot
tr ave
read ers
-of -
threat ening
( and
f old
in tim
sist er
share holder
comp at
k ent
jud ges
sett lers
100 m
head ing
res idence
reut ers
swe et
i ence
- u
ev ol
lic ens
ken ne
om er
up set
orche stra
000 -
five -
ad s
proceed ings
pitch er
press ed
er ies
slow ly
jose ph
strict ly
deve loper
abandon ed
bid ding
he ll
s is
the o
ro g
performan ces
ple ase
inv asion
conserv ation
des ert
inter pre
high light
000 )
li ability
associ ates
attr acted
deut sche
in y
pharmaceutical s
j es
z ens
ev alu
advis ory
pet ro
dr um
de cor
parag rap
bus y
peace keeping
comfor t
success or
author ized
j in
press ing
prosecut ors
f m
bish op
cr ude
multip le
har vest
hun ter
ang lo
art icles
discus sing
ap ple
left -
leis ure
assu red
ed in
re construction
divid ends
dep th
pr ud
hu gh
stret ch
lar ry
mag n
geor gian
dam aged
ed ward
em br
p ier
ha ul
un k
gi ants
ce l
prom pt
re iter
bulgar ia
st am
al lied
b ath
cro p
co vers
plo t
re actor
engine er
plent y
gre et
18 0
cent res
gas oline
wol f
un fair
mi ami
regul ators
op pose
hou ston
defin itely
lux ury
tour ist
v ian
that cher
re fr
me re
plat form
che aper
a a
dis s
3 50
fran c
id ge
ing u
explan ation
joint ly
ud es
un anim
cro wn
syr ian
ac es
d ol
tro it
consult ants
death s
at ically
ass ass
k ok
illu str
et a
accident s
gr ants
soph istic
host ile
contain s
ug al
de troit
ans wers
consider ably
- |
he bron
-- the
ex ists
comment ary
monop oly
ann ually
ag rees
sh an
un employed
lot tery
politic ian
hone st
mad rid
ev ans
test ed
p ending
compe ting
se c
gen e
meet s
ld p
ange ls
penal ty
k ir
sk in
camp bell
adjust ment
ish i
mountain s
barri ers
gener ate
bre ach
any body
inev itable
protest s
test imony
t g
sh aring
k ash
bever ly
integr ated
as p
to wer
off -
r ab
st en
tradition ally
demonstr ated
d ong
ast ers
regular ly
pion e
mil an
an te
so il
king dom
sy n
cze cho
de tain
e y
ber ry
z ion
replace ment
nik kei
consolid ated
ch ern
view ed
bul let
ca a
spo ken
t ang
s ons
ire ct
real ized
kenne th
enthus i
decis ive
bir d
mand ela
sho ot
un known
met als
ar son
n ag
ming ham
miss ions
( 9
war rant
p av
ter ing
anth ony
gu ess
support s
su dan
n bc
- minute
c key
my ster
k ne
gab r
acc um
m ers
watch ed
sure ly
pro cure
d al
trial s
rating s
su red
cre ative
dr ama
dis miss
us er
re bel
bru ce
ide al
us dollars
strengthen ed
k haz
frank fur
ch icken
et c
initi atives
ph ony
remo te
song s
advan ces
rout ine
bir mingham
9 bn
hit ting
transa ction
h end
bol iv
one l
pe tr
k al
process es
pr oud
in comes
$ 6
xia oping
fact ions
l ists
de regulation
g us
regard less
$ 20
t ian
dan ish
way ne
kle in
( 4
s d
n ish
just ified
r ud
coun ted
party ]
assign ed
ip t
dist ingu
war saw
not ably
a j
1 12
co ca
fab ric
depos it
ph ill
exclud ing
s ick
k iev
enjoy ed
recycl ing
home land
10 2
an gry
un ve
under taking
bare ly
wholes ale
sal t
cl ubs
conf usion
comed y
reluct ant
investig ate
phenom en
doub ted
r or
rodrig uez
anton io
del ors
ich o
p ig
ab khaz
ii i
remark able
elig ible
alumin ium
keep s
ill ing
flex ibility
bre a
sh im
oper ated
hol y
riv als
od d
pipe line
st ir
cir cle
h ata
two- thirds
her self
cl er
iv an
port s
pr ize
protect ing
---------------------------------------------------------------- -----
pro position
ar do
g ory
es cap
ariz ona
negoti ated
stri king
the tic
4 p
ac o
to ler
r ous
am in
fol k
cr a
der iv
par ks
be red
sing er
colomb ian
carri ers
rout es
fbis- af
be aring
h ence
pers pect
re ward
subject s
port ugal
ab d-
j acqu
cr yst
11 1
br ain
bour g
block ade
essential ly
in cur
b old
ap pl
spokes woman
further more
pr ay
con federation
news wire
en jo
your self
la us
clo ck
att ending
ob served
succeed ed
civ ic
st ag
dis cre
prefer red
bid s
hait i
kash mir
al o
ro of
sim ult
associ ate
lor ds
teach ing
per ce
do ck
some body
dis appointed
window s
franch ise
z ones
trust ees
well s
haz ard
feel ings
blo cks
sh aw
simult ane
obstac les
possi bilities
non- executive
rel atives
win ners
li u
adjust ed
ex posed
ind irect
gor don
be e
not ing
ga thered
profit ability
in sp
ag a
k arab
ific ations
bel grade
vi enna
fe ction
arrang ed
ill ery
jur is
sell s
moun t
off ense
s ounds
mot ors
ug g
st ip
ou tr
it ures
thor n
m ud
repe at
rough ly
susp ension
k ol
traffic kers
t ag
trad es
e pa
tal ent
gro ve
g ates
wi st
- fire
engine ers
arr ive
s z
cate gory
compar able
t aste
achieve ment
ak ed
pet ers
bul k
atlant a
den nis
consid ers
terror ists
expend itures
supp lier
suit able
( 10
tran sp
st akes
ist ol
iz z
aud it
d il
wall s
pop ul
indic ation
ni xon
en z
post ed
c art
auto matic
polit an
appe als
if ts
de valuation
inev it
north -
supp lied
gu id
tox ic
do zens
st ig
m -
decl ining
eag er
block ed
ne il
arch y
minor ities
public ity
m are
ste phen
favor ite
war ner
16 0
smugg ling
b ie
excl usive
o de
p ta
charact ers
- col
alex ander
id er
thro wn
has n
expect ing
nat west
sex ual
contro lling
des k
collect ed
dep ending
$ 50
co operate
there by
phys ic
8 p
pack aging
j azz
err or
inter ven
( 4)
hk dollars
national ist
en suring
prior ities
gradu ate
197 8
stud ied
ge l
we aring
popular ity
dict ion
dis co
co- ordin
frequ ent
distribut ed
any way
impress ive
implic ations
hans on
research ers
y as
ut ility
k on
diss ident
g ren
re ply
herit age
mar ri
hard er
de em
ad ams
explos ion
il ton
ce ment
attor neys
consult ations
pat ch
qu it
loc ations
war ren
wal king
reli able
lo d
( 5
sur gery
business man
tr im
mur ray
k ra
earth quake
bur ning
exam ine
a q
dall as
corpor ations
th o
rock et
critic ised
off shore
eli za
ban ned
mag ic
c m
ten ds
retail ing
palest ine
rece iver
achie ving
ident ify
capt ured
are st
drink ing
re creation
se cured
k itch
ren a
in nings
10 m
man chester
rel ax
subsequ ent
op ol
t ort
trans it
yemen i
ro lled
gabr iel
st ages
ham mad
-a -
armen ian
ill er
ju li
in al
ill i
ron ald
s cal
sh am
io t
chong- il
sol ic
investig ating
sadd am
acce pting
al arm
tim ing
- hour
cle ve
collaps ed
sub stance
mem ory
stead ily
flot ation
- level
ad option
au th
endor se
fail s
li kes
cour ses
ah am
tr ick
im mun
news cast
ic ide
- 9
attem pting
sophistic ated
gall ery
spirit ual
el s
mik hail
le an
frankfur t
cooper ative
abd- al-
cost -
j on
pled ged
bl in
a er
om a
comp liance
karab akh
point ing
pass ion
eng ines
tan k
sh ake
remo val
ab c
ut ilities
aff ili
ar thur
m ong
gather ing
stay ed
boost ed
in aug
bir ds
spec ies
mechan isms
ac le
ale ks
tre mend
private ly
jacqu es
demonstr ations
barcl ays
ide l
pre ference
concl ude
se mi
vill ages
de voted
incent ives
clim bed
m all
armen ia
se attle
pos sess
ch ose
se in
ast ed
d b
termin al
philipp ines
convict ion
el t
de gre
jer icho
recru it
edin burgh
ad mits
cleve land
gor az
post pon
ad ult
minister ial
ch ron
bor ne
den y
y i
b one
on ing
install ed
s ino
sco res
19 50
w ich
d ign
red un
re sum
procure ment
ped ro
n iss
bl acks
25 p
fe in
ph ones
gent le
h att
scen es
h ors
1 19
instruct ions
redun dan
inno cent
issu ing
express ion
art illery
inter medi
graph ic
igno red
volunte ers
medium- sized
- oriented
el li
goraz de
fast -
un preced
bar ry
inflation ary
dist inct
prepar ation
hid den
renew al
vik tor
na )
in ner
cor n
guid ance
a e
re verse
suspect s
accept ance
liberal isation
f ighter
ha v
gr ace
- sector
sup plement
r ug
insure rs
p ill
respect ed
unpreced ented
disappoint ing
roman ian
form ally
t ab
con tem
ll er
quarter ly
pat ri
rober ts
t ig
wish es
abo ard
i us
$ 15
ra ises
bro ok
sp ur
vulner able
on ed
venezuel a
schol ar
k ings
fac ilit
for t
con gl
hard ware
emot ional
ca )
bn )
sli de
design ated
al ia
de but
civil ians
pu b
oak land
te a
elt ine
r ated
col onel
mo sque
integr ity
sub -
suspic ion
n caa
sa ved
traged y
al ive
modern ization
pos session
t ass
launch ing
defin ition
net t
- like
paralle l
o g
z ic
cu se
mand ate
supervis or
dis closure
dist ur
p ine
jan e
ship ping
furn iture
ip ounds
introdu cing
ex ped
cast le
- down
str y
none theless
cont ing
strugg ling
per mits
la h
en de
phenomen on
oper ates
d ic
ko zy
niss an
cease -fire
g ift
75 p
jprs -t
ste wart
id s
eas ing
k as
commun ique
moment um
degre es
he y
a ide
al ing
any where
indic ates
-s ong
z er
condem ned
potential ly
last ing
congl omer
entreprene urs
cap tain
care ful
di ver
az a
- made
equip ped
ask a
sit uations
cor responding
rw anda
as ks
ad ing
hus sein
eliza beth
az e
rac es
( af
subsequ ently
ip tion
ut en
worth y
h int
project ed
flow ers
was h
car ib
ins ists
patt en
hes eltine
cur b
ur ies
short -
v ich
10 -year
si p
e cho
negoti ators
acceler ate
wonder ful
he ct
ie ga
k w
em ig
n kr
re ll
dis man
inevit ably
10 5
l is
h ide
prosecut ion
comment ed
demon strate
intent ions
request s
sa u
nin th
metro politan
pra ised
[ al-
suggest ion
ind ians
i ber
o ke
calcul ated
concentr ation
dist ort
hand ful
categor ies
anticip ated
pe te
attach ed
w ski
jo hann
mar x
accus ations
v on
but ter
fre ight
ad ults
ha ust
satis factory
ju ana
el ab
lind a
at ty
ry an
hel mut
b ren
ma o
13 )
10 4
ex haust
demonstr ation
employ er
ad am
li p
negoti ation
relig ion
-in -
mat ur
min eral
am ing
if ies
ref use
s ink
ir s
be ck
lin col
pro mot
accompl ish
m ie
marri age
perspect ive
cast ro
t st
adel ph
mid land
ar re
fe ared
dis arm
6 p
lincol n
ang ers
playoff s
buy er
pr ague
reconcil iation
ho ok
x i
fin ed
am an
whe at
flow s
be ef
me yer
kur dish
priv ile
text ile
lat via
phil adelph
sho es
c ite
ed ed
ret t
vir us
pay s
$ 7
bl ind
ch uk
mur phy
tr ies
proto col
tor rance
asy lum
ange l
arrest s
ac id
elimin ated
[ editorial
om on
legisl ators
o ta
ap ol
interview s
budget s
stre ak
lyn ch
vice- president
alban ian
auto mobile
meant ime
stor m
consult ation
fl our
slo ven
em issions
c ree
represent ation
fo x
tr ium
delay s
p n
amend ments
right- wing
im ages
re unification
lo ved
s q
paragrap h
ver dict
14 )
contain ing
r iding
ar ist
philadelph ia
ex xon
vigor ously
labor atory
m w
fas c
finding s
overwhel ming
tact ics
exam ples
j ol
coun ting
ne sty
tour ists
ari at
ch ev
in ks
ge aring
mar ines
v ista
should er
broad er
beat en
ber to
v ation
fin als
pre stig
consist ently
name ly
conver ti
is er
farm ing
char ging
campaign s
round ed
gu ate
re vers
ut on
ro e
li ances
co inc
k or
ann y
guerrill as
respect ive
jer sey
diplom at
reb ounds
teen -
wales a
elder ly
[ from
river side
in as
conne ct
reserv ations
per mitted
t wist
guate mal
direct ive
eas es
af firmed
ine z
omy r
yel low
or ter
nol ds
pet ition
y ar
cult iv
wal ter
vo iced
he t
w aves
gr im
mo ore
break through
man s
r ho
sym phony
consul ting
techn iques
t ensions
isol ated
holiday s
chern omyr
chernomyr din
free ze
draf ted
cham p
cr y
de cess
ran cho
sp ill
fa ult
expert ise
v or
t ip
ti bet
hand ic
pan ic
be k
s dp
decre ase
airport s
12 4
complain t
clear ing
pre decess
20 m
ref usal
cro ps
cir cu
war s
in ations
fi x
d ia
d imin
di ag
exem pt
weak ened
ch ips
ly on
ep is
taxpay ers
raid ers
[un attributed
serv es
surv ival
relationship s
cease fire
gu in
spec ified
arab s
athlet es
kil om
bag hd
b p
b b
de re
h iv
bur st
text iles
s of
terri ble
un doubted
field er
compon ent
progress ive
particip ated
pen n
pr ide
rich ards
la x
accur ate
$ 8
- on
ox ford
every where
counter part
experi ences
ultim ate
eas ed
touch ed
consul tan
nor we
p lead
500 m
describ es
i en
he m
neighbor ing
requ iring
g ib
exam ined
am nesty
s wi
d ent
(af p)
feren ces
cro ats
ul ating
conf ess
export ers
z ing
at ol
trium ph
carib bean
ro les
immig rants
baghd ad
( 5)
dict ator
bar r
kozy rev
smo ke
ta j
rest oration
polic emen
pre c
10 %
j ar
po le
entreprene ur
prof ound
list ing
v d
in sid
commun ists
assum ing
deploy ment
gang s
circ ulation
jun ction
univers ities
euro track
fe as
pro pose
rest ored
y on
div or
ev ac
rep lied
tor onto
pk k
camer a
in fect
( or
ib ed
birth day
present ation
dev ices
decl ines
op ard
under -
open ly
announ cer
asse m
sub stit
un ders
sy l
tun is
target ed
neg lect
ge red
st ev
sol ving
fi res
r h
produ ces
econom ically
spons or
to urs
uni form
n ard
mo on
ine f
dam ages
m ck
en voy
vict ories
hear ings
v ary
k ay
lope z
similar ly
c )
li ked
ist ical
suggest ing
ad mir
re ception
gl or
gu ided
d ian
8 %
be ating
ce iling
comm issions
lo ose
d aw
10 9
certific ates
20 -
cell s
c ater
tremend ous
per io
sign als
end ale
al bert
bre wer
deal er
with drawn
avo ided
auto motive
6 %
comp uls
cat ast
th y
perio ds
war ns
mich igan
inc umb
as pir
stan ley
bo ats
luck y
ur ge
mer gers
t aught
sci ences
deriv atives
liquid ity
nicaragu a
con fron
plen ary
isl av
are r
- rate
m af
che ese
ren ts
ro th
st aged
art istic
mur ders
y ur
prov oc
know ing
champion ships
30 m
- taking
procur ator
p au
il -song
con nor
indic ators
comp ass
m ens
train s
ai res
l ang
batt les
recommend ation
re min
comp iled
israel is
diam ond
f bi
ul ous
re ne
low s
sc ul
prepar ations
man ip
v it
recogn ize
privat ised
occas ions
approach ed
house holds
czecho slovakia
sym path
design er
10 8
tool s
wor sen
correspondent ]
cham bers
concl usions
ci ent
br illi
pe rez
gil t
ran o
k ler
aggress ion
ac ed
comb ine
th ick
rey nolds
ov a
sim i
pe res
rub ber
car ter
administr ators
color ado
re nov
mar ia
17 0
che cks
kitch en
rare ly
lin ing
p um
it udes
ph r
a then
prov es
kr av
reiter ated
tor ies
mosle ms
leon ard
3 %
kler k
borrow ings
enem ies
n ab
/ ]
[ /]
s cept
dod gers
del ight
az y
- class
sol o
forth coming
( ca)
well- known
nor iega
afghan istan
oppon ent
cle ared
mult ilateral
cent )
johann es
argu ing
break s
n ts
7 p
severe ly
man eu
al es
contract ors
u ated
t ent
12 3
- member
construct ive
( 3
9 p
ag er
interview ed
str ive
alger ia
dm 1
cost ly
cryst al
rev ival
juris diction
scen ario
wh is
sp are
volat ile
undoubted ly
fin nish
par amount
neut ral
regul ated
ch et
trip le
to s
gl endale
le af
in corpor
bureaucr acy
coll ins
zion ist
govern ors
kin kel
lt d
ac company
pe ts
b out
band s
fo ol
mer cur
re cip
disco very
col our
cli p
review s
some where
rum ors
com position
diplom acy
clash es
th -
consequ ently
not iced
$ 500
ha wa
met all
f lower
l il
11 3
corre ction
am o
pl um
que z
prov en
et ic
prospect ive
pep per
serv ants
scr ut
arbit r
du st
spect ac
cambod ian
g art
1/ 8
char tered
soph om
elab or
rup ted
double -
squ ad
je opard
10 6
f idel
j ay
prevent ed
amb itions
jack ie
ig ation
rel ating
( 19
re vision
che z
influ ential
f ant
quot as
tot alled
domin ant
hors es
stron gest
lithuan ian
high s
conspir acy
two -year
ay ing
he ath
ter ry
che ll
in ist
head line
port ugu
r he
mar shall
d ens
mo or
us s
monop ol
cre am
cust ody
favour able
satisf y
lie uten
be ars
large -scale
sw ap
aware ness
mart inez
plant ed
common wealth
dan a
o ck
o ec
ab sent
memor ial
gg ing
dum ping
us a
maintain s
postpon ed
along side
colleg es
prevent ing
lak ers
down turn
fr ight
bur bank
su san
fbis-sov -94-
pled ge
deploy ed
j en
in habit
jun k
cir cul
li k
po w
ol ly
less ly
me al
dog s
commission ed
ot t
- led
in adequate
ag ger
bul garian
c z
oec d
mar g
elector ate
2 -
w ig
lic ence
ative ly
min ers
bar gain
macro economic
( which
diag no
ma th
pre fect
barrel s
sant i
fin es
old -
ind ices
norwe gian
terr and
un acceptable
mon s
ad mission
trip s
d ates
( 0
l li
mit terrand
bu ff
ch ry
announ cing
no ise
pain t
tim ber
ict ion
cr an
strateg ies
pil ots
throw ing
inter ference
cap ability
vo ter
f fle
beaut y
taj ik
leban ese
sh out
- american
re per
ag ers
virgin ia
col umb
ran e
tough er
tem ple
bl ast
200 m
cl ay
it t
mom ents
benef ited
part -time
mar cos
stim ulate
re ci
gener ous
p eng
- point
secret ariat
theo ret
su ms
e ating
war burg
regul ator
organ ised
i )
mar i
am or
local ities
reg ards
k am
pen e
gar cia
instru ment
profession als
separ ately
load ed
(r -
mo s
athlet ics
confident ial
pitch ing
pat ent
re tal
stol en
anx ious
up grad
u ity
mit sub
( e
initi ated
ad apt
ot ic
anx i
pain ful
bon us
vis ual
municip ality
social ists
kra j
pract ically
down ing
sch ar
gl ad
wh olly
pre gn
land ing
he ights
tend ency
olog ist
applic ants
account ants
portugu ese
real ised
z hu
hor n
ger ald
3/ 8
an cient
con vey
comp ly
franco is
ange red
ac ies
ich i
re o
mitsub ishi
colon ial
print ing
deterior ation
bar s
pr on
tit les
as surance
sold ier
( 11
y -
trans mission
brand s
ill -
he rent
y n
threat en
exer cis
ge c
sa k
advoc ates
il legally
sac rif
re hab
dis eases
f ounding
har sh
ic ]
197 4
partial ly
2 %
cons ists
law makers
broker age
la bel
stu ck
po wered
gr aham
converti ble
ne ck
c v
free -
n p
farm s
vol vo
mo z
the ft
conver ted
ke ith
link ing
rio ts
fortun ate
mo le
( s
vo ices
u a
correct ly
pom ona
kno ck
dis appointment
bus es
explo re
kyo do
li hood
j up
har ry
ware house
consolid ation
santi ago
exceed ed
commun ism
ecolo gical
f et
guerrill a
pot ato
7 50
appreci ation
review ed
three -year
bom bs
auth ors
consultan cy
prevent ion
mu hammad
car go
view ers
ste ep
s me
7 /8
mand atory
ow en
philosoph y
ack ed
in stant
simultane ously
tempor arily
rel a
inspect ors
oak s
mid lands
sett ling
mid night
sil ence
ordin ance
sa il
p ds
rum ours
swim ming
stan ford
cont ents
ad verse
te c
jac ob
st a
pt on
n ights
f ing
clean up
brad ley
hatt an
- run
resour ce
read iness
trans form
shel ter
ach e
isol ation
re jection
bal let
wild life
e ze
nor theast
d ile
lev y
fl av
al located
pursu ing
ex it
( m
w ag
lieuten ant
retail er
organ ize
con sent
occasion ally
se wage
do x
win ds
uton ium
est onian
pick ing
chief s
flo ating
ific ial
fore stry
gh ali
trib un
inspe ctor
rad es
bo eing
oblig ed
mercur y
pl utonium
d c
sa x
ext ending
( a)
cl ause
c ant
challeng ed
apart ments
trig gered
un clear
com rades
fortun e
sophom ore
ast on
ator ies
bra him
less ons
exercis es
box es
du blin
et te
painting s
conv ince
press ion
transition al
ex citing
sch ro
law rence
ian ce
ch el
un identified
dis abled
ap ar
helic opt
sil ent
del ta
l uk
be ir
7 %
car bon
zh ang
al ert
foreign -
vol ks
ip ts
man hattan
b rent
r &
incent ive
com pos
stay ing
swi ft
lock ed
bl ues
helicopt ers
po cket
de fect
cred ited
dam aging
ma h
ind ict
affect ing
- 93
cont end
soviet s
wel sh
ill ness
app lies
ar ia
r ie
insp ired
ear nest
cross ing
advert ise
v s
surprising ly
& t
experiment al
4 50
inter fax
address ing
up turn
m ills
ur ging
not ion
re m
con strain
full -
cap ita
ther ap
cs ce
malaysi an
mag ist
eth ics
ded icated
xt ure
op posing
se ctions
ach es
bic y
sl ump
grad ual
alban ia
trig ger
element ary
turn er
ch ant
n ancy
perfect ly
br ut
bank er
att ain
sur render
sam uel
ev il
brig ade
one- third
air ways
thr ift
argent ine
res hu
cap it
19 75
g ust
beir ut
under mine
$ 30
sk illed
manu el
san chez
fl ash
spectac ular
u ro
krav chuk
fortun es
viol ated
el f
rat ification
wis dom
fro zen
top ic
14 th
feren t
sou l
rein force
art ificial
pe red
g ur
pleas ure
ann a
- long
log ic
ro k
program ming
br ush
ch s
dm 2
att itudes
al aska
2 nd
des ir
just ify
lloy ds
de vice
lobby ing
i brahim
recogn ised
z i
val ent
r ounds
mo il
h ap
5 /8
reg ain
north west
bor ough
b ah
dist an
om ing
per ry
tr i
design s
inhabit ants
an ium
tat ar
pro long
t is
explo it
p ess
johannes burg
explain ing
o ted
9 %
pure ly
af firm
specul ative
g ut
unve iled
k at
continu ous
sub ordin
ple a
attr acting
hav ana
propos es
de an
et ers
oh io
broad ly
bang kok
ev al
dec iding
person ality
le ak
n pc
mar sh
oblig ation
ide ology
igno re
us ively
defin e
sino -
m m
r av
meas ured
benef icial
perce ived
gard ens
success ion
enhan ced
quo ta
psych ological
patrio tic
col ony
tur moil
$ 25
pr f
temper ature
est ates
z es
ank ara
sm art
descr ibe
mult ination
to yo
athen s
ou st
bed room
g av
r ill
let ting
10 7
dat ab
ed ged
sa ke
south- east
ex plic
cre ates
blood y
x ual
conv inc
mart y
iy a
hus ay
kel ly
jprs- tot
semi -
premium s
te cs
and um
ab i
circu it
margin al
g io
al y
veter ans
ly -
mess ages
exclud ed
inc in
car tel
pay roll
compuls ory
memor andum
dir ty
hit ter
pess im
ves sels
york shire
columb ia
cypr iot
su icide
pleas ant
ak a
jean -
thr idge
print ed
weak er
surv ived
dress ed
or te
ing e
mong ol
iv o
ed u
crow ded
pra ise
wor n
class ical
ay ev
cha os
c du
( 12
re ct
ke ating
tal e
ze min
vis a
contract or
lou d
top ics
side lines
post al
cy press
on going
punish ment
bar gaining
gener ations
sh ield
aid es
journal ist
cr um
o wed
pres crip
- 20
trou bles
h man
he w
ose xual
de vast
ital ia
le ver
dr ain
z ur
licens ing
com posed
po ison
april ]
def ended
jim my
loyal ty
legitim acy
y un
ru bles
se mic
mon tre
hol es
ro sen
exer c
25 m
cl am
ne v
ort on
ten ants
j ab
bu ch
q ian
endors ed
deleg ations
out lets
ju ven
effect iveness
nor thridge
- 12
inaug ur
sk ir
subsid y
interpre ted
hon da
v ig
int l
h ran
n fl
ab dul
arr iving
install ation
gener ating
consequ ence
ch at
end -
c fr
kh mer
incur red
-- -
al- as
my th
present s
du b
la wn
good will
ro ok
fbis-af r-94-0
nat ives
d io
j ets
jordan ian
fil ing
l one
director ate
sl er
fav oured
bu ys
dign ity
------------------------------------------------------------------------ -----
export ed
typ ically
- 16
cho ices
por tray
but rus
wo ods
pene tr
th res
less on
l un
sing ing
escap ed
es c
se ed
ape st
cra ig
after -
assum ption
retain ed
an ony
treas ure
borrow ers
ir re
re development
pl ing
comment ing
stress es
nichol as
pal m
30 s
fresh man
p one
under taken
best -
aleks andr
qual ify
bu oy
hy dr
detain ed
ph an
sh in
z he
ath le
tim et
ic an
speak s
schar ping
bas in
lux em
robber y
- 15
ab bey
rus sell
fun eral
rev ive
bur ned
mat the
f ame
maf ia
surve ill
indic ating
lands cape
dif fer
on du
nig eria
ut ory
is c
fi at
down ward
compens ate
j ug
ch ing
penal ties
leon id
resol ving
da wn
b row
sup ]
clin ic
en o
ant or
don ations
lo gical
fund -
chair men
hend erson
si er
at i
dis cover
in als
constitu ency
marg aret
ste am
sub stances
at tered
stat utory
far -
mo dif
post pone
i ate
hor iz
sty les
shut tle
n af
e leg
n un
q ing
semic ondu
pe st
n ba
dr inks
ess ence
test ified
appoint ments
contin uation
gold man
pc c
eval uation
k un
ak i
un ning
surveill ance
bag s
advoc ate
m ish
pitch ed
manufact ured
dre ams
te hran
synd ic
de z
4 %
pursu ed
resu med
satell ites
en ix
contract ing
shr ink
back er
k night
we ren
scar ce
up coming
pad res
fer til
n ast
b ans
trans fers
ar sen
elimin ation
al a
fare s
met s
clean ing
europe ans
fl uct
pension ers
extre m
for gotten
char ity
town ship
interpret ation
est e
co le
$ 12
publish er
we t
constit ute
bl an
phill ips
act ress
pain ted
bel t
pen h
acqu iring
profit -taking
hait ian
set back
sk ill
f itz
refuge e
k laus
cop ies
th al
al-as ad
gre ens
in land
p ens
ho ods
fle w
jour ney
z ag
ol ive
command ers
decl are
health care
carol ina
counter parts
search ing
defic its
investig ated
par ade
apar the
rou ge
aparthe id
reporter ]
disput ed
loc ate
hum or
cell ular
ro ot
tele graph
enthusi astic
s ap
su e
luxem bourg
br is
ing le
t ide
re ich
nomin ation
inform al
ve gas
administr ator
indic ations
sem if
montre al
fu jim
moun ting
40 m
focus ing
re placing
fail ures
toyo ta
dile m
p am
app lying
matur ity
t ong
c ake
cam bridge
en abled
coun tered
ex agger
celebr ation
sur rounded
he ed
exper iments
collabor ation
ad r
asser ted
throw s
rece ipts
ose vic
l ion
when ever
compat ible
r hy
pl aza
supervis ory
rad iation
pers ian
compet ent
ma z
7 )
hugh es
ul l
e ches
austr ian
ed a
plead ed
spe eches
veget ables
free ly
i ors
nik ol
ugg ish
aud io
preser vation
six -
t ud
micro soft
impress ed
ch ir
re act
break fast
od ds
17 5
t win
consolid ate
- wide
pack ed
reser ved
rel ay
propos ing
bureaucr ats
for te
k aren
roman tic
grant ing
boy cott
question ing
ham ilton
recogn ise
grow ers
w en
por tra
ch arm
- high
sl uggish
g au
a is
quant ities
travel ing
conf used
base man
war nings
in sufficient
[ as
up ward
short ages
kne e
brilli ant
bench mark
mi xture
i bu
mil osevic
thorough ly
197 6
k it
- 1)
u ck
r im
pen ny
4 th
su ed
br un
tr in
pho enix
sub ur
ch equ
in sol
frustr ation
re calls
share holding
according ly
ham as
semin ar
youth s
accompl ished
naf ta
ali en
long time
nu ys
sweep ing
serv ic
k ab
chry sler
om s
j ama
report ]
obstac le
sen ators
fav ored
sum mary
re sem
tr acks
two- day
de ll
tr ag
mari juana
c na)
cr af
ten e
contribut ing
du ke
international ly
st rom
rein forced
do s
ing red
approach es
collect ing
som alia
equ ality
les lie
kw az
kwaz ulu
bal kans
m our
al together
cr aw
d angers
barri er
hazard ous
minim al
re treat
intim id
t went
dis played
liber als
gr ab
under writing
go s
l ac
hero in
wo o
some how
full -time
g ifts
innov ation
re med
pr c
m ultim
j ak
ac ute
20 th
car do
he res
w ort
build ers
vie jo
mortg ages
vi able
bor o
p unch
le asing
mir ror
touchdown s
$ 200
vac ation
bomb ing
slow down
lo v
dur an
ve t
ch in
de preci
ed ict
mem ories
hun g
p ink
fil es
persu aded
li van
resum ption
ov ich
min ed
capt ure
hy po
re x
intens ified
den ies
first- half
audi ences
dis appeared
pian o
immun e
provis ional
err ors
mer rill
desper ate
lic enses
conne ctions
over time
is an
cr ush
h oney
( 6
ar n
im m
sole ly
ill a
pent agon
perform ers
ent rance
hes it
though ts
the d
ox nard
li abilities
soon er
excl usively
mun ition
prof or
pro be
archite cture
draf ting
character ized
re bound
ed ia
buy -out
sp in
orient ation
citizen ship
com ic
south land
export ing
st even
si a
lend ers
threat ens
mon u
br ink
h ate
facilit ate
ral ph
- 14
influ enced
kans as
re ap
r ip
positive ly
acknow ledge
re ds
dee per
(k cna)
timet able
mar io
in mates
disman t
cp pcc
+ 1
g ged
nad ze
g ently
fourth -
emer gence
conglomer ate
march ]
- controlled
go w
- building
station ed
al location
d ip
n z
slow ed
spe ll
g ie
m ack
demonstr ators
fire fighters
sk ip
hom osexual
allow ance
en ko
or tho
gr asp
ir regular
highlight ed
im posing
en large
197 7
financial ly
rw and
at &t
im a
de vis
d h
jud ged
ant ic
12 2
spread ing
det ention
yur iy
check ed
remain der
convinc ing
scul pt
servic emen
har vey
reli ev
w ound
husay n
organiz ing
ut ter
ich uan
mat ches
peas ant
agu ay
mit chell
fu j
ship ments
desir able
bre w
light ing
ind ig
le ap
klein wort
res id
dies el
spo ts
director -general
o as
gran ada
t ens
el ite
n ip
cal if
deal ings
per ception
char gers
nur sing
she vard
ref using
view point
cent uries
ced es
coordin ator
fir ing
vol ley
( as
ecu ador
gr ip
di verse
be c
behavi our
br istol
war rants
par at
de priv
cor d
$ 40
mat ically
let t
pl ast
y ach
ear ning
pro pri
conce al
shevard nadze
assembly man
casual ties
ici ary
land ed
acceler ated
op ium
ac er
surve ys
li vest
livest ock
fujim ori
telecom s
gener ators
pro port
ust in
pr iest
adop ting
13 5
rhe tor
exist ed
russian -
sul livan
ap as
z an
drop ping
ral lied
direct ions
pack ages
d ame
wealth y
am munition
refin ery
may ]
pattern s
serge y
liby a
inter state
ate ur
cook ing
b enson
io wa
clim b
sin n
rail road
clo sures
ortho dox
d air
assess ed
b iz
south west
ch al
k l
con grat
and y
length y
belong s
design ers
last ed
50 %
at um
den ver
1 %
synd icate
ach ev
resol ute
div ide
( b)
lax o
g laxo
lect ure
deep ening
19 0
thom son
cal der
fl a
awa iting
der by
in ject
lon gest
obtain ing
qu ay
sl im
( %)
1950 s
2 25
break down
pr ag
p oul
object ions
rece ives
explic it
no where
express ing
pu bs
sque eze
ast s
batt al
wat son
tr ibut
photograph s
ul ster
yield ing
+ 0
condu ctor
ro ver
conf isc
mar ina
magaz ines
three- month
pre sum
can o
def er
stat istical
bot tle
har ass
comm ut
exem ption
patrio t
au f
high- level
intellig ent
cen sus
sau ce
w agen
k iss
pre mature
under lined
ens en
ch op
east er
-s am
m asters
mis es
music ians
act u
8 )
hu a
iz er
success ive
s ichuan
he in
belong ing
inst ability
ful filled
cher no
secre ts
cor rid
und ant
re no
dram atically
ele v
ms z
sp ark
deem ed
st ones
aud itor
er -
ign ed
pa z
vo cal
s ri
plun ged
[ word
trans formed
out lined
dilem ma
necess ity
(7 14)
appe aring
t ustin
cru ise
10 th
tatar stan
chu che
l ene
he ated
( 15
grap her
ne ts
( for
fbis- us
in ch
ia o
feat ured
le ather
ball s
cree k
fin ishing
i u
egg s
predict able
sal omon
don nell
ll ers
kno cked
under take
activ ist
f ue
deliver ies
du al
bre wers
qu er
fat al
ah mad
ad zic
un necessary
ne a
f inger
del ic
graph ical
fast est
2 20
hawa ii
an chor
197 2
ail ing
correspond ents
m ble
/ 32
15 m
olymp ics
sent ences
read just
volks wagen
consult ative
swe pt
radio active
n it
in ches
ok la
no se
function ing
are z
divers ity
ba e
ke ys
ren dered
er up
uz bek
dist ant
dan cing
h ir
check ing
f lies
tr ash
r ag
pred omin
co x
g om
( j
out sid
leg acy
dis ast
chi apas
par aguay
ut ah
confirm ation
dou g
hal if
alter natives
pe ar
do ct
in her
ne gl
negl ig
os car
re moving
merch and
guang dong
fe li
bureaucr atic
roy ce
li ver
tr ic
ian a
mo ham
- for
11 8
rock ets
match ed
reject s
predecess or
maj est
o reg
andre y
dr unk
tim ore
ol dest
preci ous
doct r
z ulu
or bit
mer ged
exhib it
ben z
national s
trad itions
ase an
abkhaz ia
- mile
sun g
main stream
pul ling
celebr ate
ex changed
real ise
lo wered
country side
( u
ent ity
comple ment
fe re
line backer
guin ness
c ous
techn ique
innov ative
chair s
olog ists
vigor ous
ab ling
al liances
pa thetic
se ct
proceed ing
ch ave
eag le
sam ple
- 17
mon tene
no ble
rela xed
sa chs
mer cedes
liter ature
watch dog
aver aging
jud ging
concer ts
au st
bound aries
moun ted
kar adzic
ban ning
st ing
bat ting
ven ice
wh ites
del hi
read s
ra pe
open er
11 4
dr ought
product ions
sh ah
educ ated
shir t
chave z
fer ry
en dow
bu en
hy per
cap abilities
high- tech
cap ist
event ual
h iring
dam as
al am
auto matically
def a
milit ia
approach ing
sen sible
san aa
industrial ists
he ating
cin em
by l
top -
distribut or
quant ity
b its
om o
cha ired
ves sel
en c
switch ing
- 11
bernard ino
rus hed
ik a
mar c
ber ger
g 7
appeal ed
d ying
r& d
lif et
decision -making
pau lo
che er
read er
tun e
t ast
io s
copy right
comput ing
un profor
capist rano
rober to
- type
v od
exam ining
bur ns
c attle
sa o
well come
inde fin
met er
p our
pre mises
is ers
in ction
bre ath
ch ase
fed er
d well
ing ton
sing les
con vert
decre ased
plant ing
spr ings
theoret ical
year- end
un rest
inc red
accompany ing
199 8
found ations
am ents
su z
dav ies
h ier
z or
ty son
vers ions
11 7
80 s
bal lots
grad es
syndic ates
conce pts
ex cuse
quiet ly
commission ers
appreci ate
l acks
deb ates
mer ge
her nand
elimin ating
allow ances
consider ations
distingu ished
27 0
if er
gam bling
exer t
loy ola
se ize
viol ating
conver gence
lin er
philip s
hol m
mal ibu
monopol ies
2 40
con cession
d ive
car to
bur ma
un ite
det ach
disarm ament
har vard
cho col
dr ives
observ ation
aret te
k ]
ig er
p iz
air bus
fron tier
damas cus
ad ap
197 3
be it
fl aw
aver aged
[ correspondent]
re mind
trag ic
recover ing
team )
domin ate
tan ker
expect ation
e ath
published ]
un successful
med iter
pol o
experi encing
incorpor ated
s its
se ld
bi ological
glo be
ur ges
ag grav
arbit ration
pe i
ut s
ill usion
abol ition
enz hen
sh enzhen
ent ities
gil bert
se cession
men em
sm ile
municipal ities
ge ar
r ue
host ages
undertaking s
im minent
cit es
on i
describ ing
re actions
reshu ffle
ro ds
re vel
restrain t
12 1
grow s
hed ge
ul ations
pe c
cre ws
o i
kil o
fun ny
ad en
b age
go -
ist ically
fl es
coach ing
cherno byl
e -
300 m
(2 13)
up grade
dec ides
col league
dr astic
defend ant
disast rous
conced ed
protest ers
cr azy
bal timore
outr age
for za
hect ares
ic ation
seem ingly
per pet
fuel s
ud ge
glas gow
des c
determin ing
re acted
time ly
da i
ov ]
st ab
ul us
ch un
am ended
gr in
w im
gr id
b art
ham mer
chu ck
arr ay
volunte er
regul ate
re mem
box ing
br ave
catch er
coordin ated
se eds
min i-
heim er
leg end
s gt
wo re
rus hing
rid ic
separ ated
per petr
rational isation
sh ame
park er
reason ably
je wel
ultim atum
v ague
st up
pal os
top ped
oth y
s lower
cal end
pet rol
depress ion
wil der
frag ile
100 %
reach es
ch ef
block ing
e motion
ash i
object s
men u
60 m
y am
3 rd
celebr ated
fle ming
im ped
pan -
( 6)
depend ence
forecast ing
line up
appl ause
explos ive
neighbor hoods
elabor ate
wid ening
gest ure
star ter
supply ing
fbis-us r-94-0
organization al
sh ining
sho cked
par am
ky r
f on
smo king
she ets
de tr
dom ing
part isan
assess ing
mun ich
mon it
divor ce
wa ited
m am
incident ally
apol is
gin s
to ys
ist er
em i
esc ort
los es
sl um
del icate
ri vers
p its
60 s
cle ment
in trig
late ly
revers ed
yong -sam
re organisation
20 %
u prising
want ing
sort s
cor on
ur anium
gram s
kur distan
re payment
kur ds
ach er
subject ed
war n
with drew
se gment
ic on
hang ing
$ 9
cig arette
conting ent
rhy th
14 1
care ers
l b
ak en
zag reb
flu ent
received ]
z lo
coup on
d ash
wood en
trad er
bal lo
rwand an
sur ances
accommod ate
adjust ments
( including
defend ants
ref uses
priv acy
bill ions
voc ational
ator ium
in spir
mor oc
fit ting
ch eng
con form
heart ed
ferent ial
- 13
sufficient ly
rena ult
re r
j ona
asser t
short fall
buil der
s mil
e str
farm er
ha st
pit ts
orche str
stop ping
am ar
issu ance
form at
peru vian
sustain able
d ah
bl air
mo red
frustr ated
kill s
ep ide
under mined
lifet ime
fore ver
ap olog
sadd le
thres hold
un ilateral
s often
monit ored
ang ola
alban ians
bar ak
( up
+ 2
mother s
ar ise
iron ically
itz ha
worry ing
400 m
tele vis
conclud es
unanim ously
25 )
shap ed
mediter rane
t uc
f ence
z hong
son y
sympath y
beach es
sp en
gy z
c d
home owners
joint -
kyr gyz
w ast
scrut iny
ban co
z ak
oreg on
en counter
-0 )
pay able
is en
il itation
epis ode
in er
jona than
lit igation
obser ve
ap pra
law suits
stress ing
r ings
dynam ic
intermedi ate
wal sh
am big
lyn n
motiv ated
peters burg
tor n
vo ys
la under
ver des
nip pon
bullet in
rook ie
back ward
s oup
c ill
- care
haw ks
forest s
tort ure
30 -year
h il
boo th
fashion ed
11 6
much -
h ud
den k
liber ty
occas ional
comple ting
inquir ies
success es
ed die
en abling
sloven ia
bob by
zed ong
pat ience
2 30
nat al
gr achev
hon ored
close st
hernand ez
cau cas
kraj ina
ic he
pre ferential
ben eath
pro claimed
super market
tor o
brid ges
new com
zur ich
gu itar
25 %
cont amin
contract ed
te ar
br as
sh orter
pur suit
budget ary
loc ally
clar ify
rehab ilitation
bil ly
fisher men
team mates
hol land
mediterrane an
$ 300
whit tier
speak ers
cl ou
ret ro
xinhu a
y itzha
er ad
cardo so
co in
ber man
fill ing
ende av
private -sector
con ferences
stev ens
th ames
but ler
t iff
scr ap
p aw
pul p
total ed
chile an
fac ulty
st um
sim p
w es
w ings
ic o
en ess
li est
zz le
depreci ation
reve als
cost- cutting
answer ing
separ ation
list ening
to dd
d ipped
an atol
min nes
r in
nomin ated
february ]
e ur
mar it
id ers
ov ic
discre tion
ex cited
dair y
abol ished
in struction
rob b
c ly
fir mer
accum ulated
ino is
me g
minnes ota
ru th
sy d
bat ter
ho ckey
ak er
min us
( usdollars
national ities
ref ers
pol ling
[ reporter]
sist ers
separ at
end angered
high lights
aran ces
attend ance
three- point
insid er
appeal ing
br yan
requ is
hope ful
frag ment
wh ar
( 17
du mp
19 40
appe arances
re actors
hu i
ab sur
emplo ys
cont acted
half time
prov oked
venezuel an
prob ation
volley ball
g ments
har mony
ch t
en rich
denk tas
dest ro
bur ied
descr iption
rest im
real ities
stop s
had n
public ations
ch and
catch ing
salv ation
insure r
bin ding
ill inois
and ers
- pacific
buen os
12 9
at -
si ber
lif fe
ro cks
contradict ions
deliber ately
y 1
datab ase
un happy
l oma
-se at
dis pens
incumb ent
bour ne
sound ed
de ck
nomin al
( to
pre mie
coordin ate
ds on
150 m
therap y
execut ion
enjo ys
ab st
spons ors
pres cr
alger ian
g ad
horiz on
kee pers
gam ble
boo ts
cr ist
assass ination
dissident s
tight ening
sum mon
bott les
deser ves
anxi ety
stu art
lay s
un s
im pet
car son
construct ed
can e
cept ions
sier ra
stro ke
ro c
sh ay
oper ative
review ing
sie mens
c bi
th- century
c ie
-s qu
intens ity
y ]
mani fe
spar ked
wi ves
bl vd
ap pet
sub tle
li an
fo oth
50 -
buch arest
flo res
con gest
sel ess
attr action
prestig e
mor atorium
[ announcer
any more
pred icts
jup pe
lim a
med al
attack ing
( p
p ard
install ations
indic ator
sell ers
chocol ate
arn old
ten se
mani fest
ref lection
three- day
pes os
ad vent
arist ide
4 -
w ines
cycl ical
mol do
latin os
sk a
prosper ous
po well
tro op
s& l
sp heres
lyon na
tot alling
dish es
absur d
cur tis
multim edia
secret aries
comp ound
indones ian
heav en
po on
tian jin
a es
gre y
( from
cho o
sho e
whar f
compos er
rat ified
reli ance
b z
rig id
scr atch
be i
kid n
ho b
rand om
sil va
de a
s ang
pier re
str ained
phr ase
n ak
present ing
candid acy
ol ds
aud itors
enjo ying
shif ted
lack ing
chain s
te as
ar ising
chur ches
loss -making
con fined
treat ies
acceler ating
neighbour ing
k rem
c res
spen cer
v atic
r ons
fas cin
ke es
enlarge ment
wide -
( f
advis e
19 68
bo ther
secretary -general
fic tion
un o
lat vian
var ied
al beit
fe ld
ident ical
bu b
actu aries
w rest
19 67
om ed
ar ians
( n
( g
k han
mark ing
un willing
h p
12 7
envis aged
respect s
ju ice
aspir ations
ven cy
witness ed
dou bles
crack down
ban ner
divers ified
s kept
cere mon
so ared
switch ed
jo an
val dez
re patri
techn ic
em per
f fed
tt es
r iley
[ s
cross ed
- be
12 m
sa int
ba iley
newly -
lo o
gl en
san ct
-in ch
dismiss al
qu et
dispos als
am ster
amster dam
cater ing
f oul
gradu ates
br ick
it os
t su
m ire
13 8
n g
mal col
ban ca
en roll
es cond
12 8
interven e
reliev ed
instruct ed
strugg led
d anny
sor ry
con scient
foun tain
redundan cies
jprs-t dd
ir ia
fore see
dis close
semicondu ctor
tact ical
cam ar
en lar
dem ol
environmental ists
-squ are
12 6
su ite
q i
re ar
j av
over haul
1993 -94
thes is
re my
avail ability
il ation
top s
limit ations
poor ly
full -year
u x
affili ated
( of
o st
men se
orte ga
indict ment
special ized
liter ally
re sur
fbis-nes -94-00
quo te
jor ge
condition al
ib ly
remem bered
kill ings
be ans
ca ve
k )
1992 -93
lin ds
contain ers
malcol m
- than
un official
okla hom
13 9
bal d
no ck
open -
ag ro
ou ch
se ars
linds ay
transl ation
prescrip tion
as surances
13 6
im mense
compet ence
encourage ment
civil ization
account ancy
project ions
re lying
inher ited
hal ted
labor atories
ak ov
myster y
shif ting
/ 16
sal mon
multination al
mon arch
iss ance
sal inas
cig are
cigare ttes
bol ster
step ping
techn ically
marit ime
mu barak
capit ol
94 )
st ating
p ical
6- 4
leg s
gu es
cr ick
pe lled
min i
confron ted
comp are
$ 18
limit ing
str aw
- croatian
cr oft
ac ing
so x
7 m)
pitts burgh
ber ke
mil d
viol ate
6- 3
dr illing
om ar
cn n
real ization
explo itation
qual ities
cu bic
liby an
mc car
all- star
qu eu
col ors
i bers
cou ples
incin nat
can al
sell er
absor b
run ner
sl am
tr ian
it i
roll s-
ial s
cam ino
inv ite
sub marine
capital ism
handic ap
10 bn
secre cy
le mon
kir k
- backed
sacrif ice
lit ter
boliv ia
war ring
wn ed
fbis-eeu -94-
ris ky
f um
c incinnat
bi as
n ac
prud ential
j man
process ed
plast ics
cus s
jo bless
13 4
mc donnell
capital isation
d af
fl tg
ail s
nor dic
en cl
foreign- funded
l ions
perman ently
agree ing
comp ares
w c
wed ding
syd ney
uk i
cast ing
as im
d ating
o sa
auto m
poll ut
6- 0
qual ifications
liter ary
brief ed
re minded
vac u
st all
13 7
bro s
brad y
res cu
f sl
to ms
blo wn
t ill
13 3
li o
abu -
shir ts
endow ment
is se
mir acle
la os
ma ur
6 50
anglo -
ann uity
fo ots
s ag
fig ured
majest y
magist rates
d ti
not or
tai pei
oklahom a
ene y
est o
1994 -
b atch
bed s
spot light
out door
bat tery
jo ke
war ri
-than -
ed er
28 0
wh ist
ci o
emphas ised
rob ust
fr ater
14 5
br ic
challeng ing
od or
krem lin
mas sa
r ash
max im
e g
port land
uzbek istan
k antor
rhetor ic
don ated
gn p
sub du
am ateur
constrain ts
nast y
in valid
19 th
subscr ibers
offer ings
respond ents
de central
acer b
ed ison
conven ient
gav iria
feat uring
butrus -
no vo
3 75
sto red
er os
at ov
ain t
pl ates
de cent
dis appear
where ver
lam b
prob able
ge ared
6- 2
wal ks
l ira
kore ans
guatemal a
in ability
cr ative
lu crative
bak u
draw s
preced ing
un usually
vin cent
ex acerb
ree lection
al fred
accor ds
conclud ing
mechan ical
jprs-tdd -94-0
kg b
left- wing
low ering
eng aging
fres no
it v
bro king
berke ley
man o
vacu um
if i
harm ful
man ila
me als
like lihood
n arr
jo ins
she er
000 bn
v w
weak ening
hand -
web ster
studio s
cincinnat i
se iz
histor ically
recru iting
lad ies
strugg les
acce pts
athle te
help ful
azerbaijan i
susp end
ag r
thr ust
cru z
imag ination
-- and
soft ball
ast ically
cy n
rand y
$ 16
virt ual
euro -
r igor
fisher ies
p ha
be tray
rolls- royce
+ 3
sun ny
c ens
not able
ship ped
t ut
it is
z im
ex ile
ex cite
favour ite
sen iors
m au
avo iding
follow ers
distribut e
out line
sym pathetic
sent encing
glo omy
detect ive
gl ance
re fur
tre ating
impet us
moor park
jail ed
belarus ian
bio graphy
ol iver
dest ag
bun destag
fil tr
l uc
every day
cle ver
re pay
mobil es
ir i
gol ds
independ ently
she ep
foots ie
h z
coordin ating
cav al
pol ar
military -
ray on
ef ul
butrus- ghali
weigh ed
year )
d aim
flo at
g is
endorse ment
ear marked
calcul ations
medi ation
49 ers
neighbour s
escond ido
mid- 1980s
host s
al- q
dis agreement
ce a
ded u
red ist
( see
jun gle
yan kees
child hood
contain er
air s
tal ented
to y
boost ing
national ity
5 50
believ ing
ag greg
st amp
pic ks
mo ck
ch ats
ling ton
first- quarter
n c
lu cas
pr ints
f c
subdu ed
compet itor
plann ers
awa ited
sub urban
recru ited
secur ing
non profit
aim ing
lic ences
en berg
train er
cli ff
30 -
du ck
te ars
prec ision
portfolio s
et be
scr ipt
str and
co vent
tud jman
where by
or al
des ired
crash ed
il iation
- linked
turn out
watch es
guang zhou
milit ant
ant i
ten nes
o &
left ist
19 69
iv als
( 16
le eds
19 30s
ad minist
kar l
high ways
ship ment
host ility
slow ing
bos si
man power
ire z
bicy cle
de port
am man
od a
ang le
6- 1
execut ed
gar age
constitu encies
four -year
calend ar
ap parat
( 18
set ts
small -
te t
partnership s
cook ed
co sm
mis leading
w and
lin ers
sun set
spe ar
bau m
go vic
merchand ise
med io
d as
medic ines
cre st
ram irez
po ts
- by
ac s
gro cer
pl ug
tribut e
newscast ]
jac ent
re organization
reluct ance
sup pose
ric a
ban esto
langu ages
ener get
1 000
start ers
deliver ing
sque ez
cur ve
ad jacent
acade m
- by-
art a
stup id
eleg ant
k ak
ro ses
h iz
repair s
continu ity
appreci ated
unit a
in av
daim ler
nag or
azer i
advan cing
mig uel
l ust
[ national
greg or
f dp
taiwan ese
po ised
cred ible
re tr
brit tan
ci ar
-se eded
raid s
ti res
rif le
v int
plun ge
fore most
21 st
chap man
rail ways
general s
ne c
port able
persist ent
prohib ited
night mare
val er
group ing
north rop
presum ably
evalu ate
deser ve
cur tain
cou pled
manag es
z ha
gu iding
ray mond
halif ax
state wide
launder ing
g ome
tr ump
administ ered
ali ke
clim bing
- 18
publish ers
vig il
z inc
eth ical
wi e
vi o
kee per
d j
clement e
p se
respon ses
choo sing
travel ers
prompt ly
ih iro
p ump
war fare
d ad
tennes see
nic kel
victor ia
lif ts
industrial ised
spect rum
par ity
vatic an
ld g
milit ants
sing ers
less er
30 1
ic ism
pt ions
mor ale
sk op
stic ks
ad venture
me mo
9 )
br at
sign atures
organ ic
prolong ed
inf ant
av ing
mat su
char ities
tra -
bust er
bo il
sid ed
tax -
attr actions
95 )
air plane
smooth ly
en countered
bat ted
dis cour
pl ight
kid nap
after wards
bern stein
character istic
- israeli
sul tan
mo ody
assem bled
transfer ring
unanim ous
quay le
r ong
preced ent
equ itable
eve rett
flo ated
z man
pal mer
st ub
bz w
tr au
ass ists
bet ting
hun ger
sp ends
ge off
stra it
lon rho
rop he
phil harmon
st aging
t ir
emphas ize
it ated
bl ank
dev on
broadcast s
l isa
lyonna is
stabil ization
sand inist
vac ant
dir t
me ciar
redundan cy
s mel
este em
broad way
sudan ese
alle vi
reci pe
stem s
j m
dod ger
[ the
6- foot
m fn
ke te
catast rophe
taxpay er
down s
dro ps
11 m
mer it
third- quarter
rev ital
re im
pow der
white hall
cl oud
( b
qu int
im ply
- benz
massa chu
sp ic
lay ing
in put
pan aman
o ch
col in
clin ical
january ]
inter fere
not ified
13 1
pat ron
safe guards
dis patch
con science
evol ution
bun d
2 60
nig er
ab str
l az
tro pical
pakistan i
auto mobiles
counter -
k iy
r f
f ib
dis gu
kill er
super intend
ded uct
ho v
ul ates
national ly
shak espe
tajik istan
r p
blow s
elli ott
oc c
ath a
en du
lay er
aust in
lan es
th a
gall ons
season ally
ac ious
sk et
weight ed
g ling
ore r
strain s
con firms
re bell
intens ify
inter bank
portra it
nig el
up hold
ual a
pat ric
os lo
un cle
li ar
tor res
massachu setts
scr am
is ons
[ n
mig ration
brut al
coun cill
(7 )
jes us
substit ute
wall ace
le ster
mult i
re build
stat ute
ar ct
market place
re ra
is al
id al
- born
po et
br y
ic or
gu o
philipp ine
mut ually
emplo ying
hel m
st iff
s g
not re
integr ate
preser ving
young sters
sam ples
mist aken
it ative
pron ounced
speed ing
ste reo
um bre
din ing
place ment
battal ion
ap or
ji had
them es
conven ience
cor rupt
de struct
different ly
borrow ed
time -
go ve
gr as
b d
wor ship
class ified
cost ing
frank ly
concentr ating
distribut ors
ident ification
domin ican
fer r
j as
breed ing
om an
z u
rid ge
g um
jack et
dist r
conscious ness
national ism
vi ed
gall eries
cur ious
70 m
- acre
tr apped
sp ie
insist ing
catal ogue
law son
mur dered
understand s
h iding
mor ihiro
read ily
tun a
ri que
un de
hero es
as er
dist inction
ou ard
bon uses
greet ed
new man
unexpected ly
ab dall
oun ces
predict ions
e man
dist ress
cance led
ed ouard
gen es
decl aring
b ldg
feas ible
pill ar
h ag
6 m)
f ay
n t
tr ace
we ed
architect ural
access ible
seal ed
rest oring
ali ens
bes ide
incl ined
shakespe are
abol ish
vis itor
affect s
tele phones
ik ers
middle -
scient ist
scre ening
host ed
[ r
understand able
o& y
hi ke
ingle wood
ric o
st ef
weak en
al v
tight en
paw lak
spr ay
retal iation
bud apest
lam bert
etbe govic
ug ly
indig en
accommod ation
ow ski
ow ing
car b
bre wing
nor ms
- 2)
gib son
- billion
omin ium
dan cers
river a
r ia
op ted
prov iders
et t
tur bul
l p
75 m
u ff
destro ying
6 25
ever -
p her
su ited
-- a
cond ominium
spr ink
licens ed
iz etbegovic
ch ung
insist ence
personal ities
op poses
re building
jud iciary
suspic ious
green span
fl ames
us age
yas ir
los ers
3 m)
physic ians
sy mp
finan ci
will ie
indian a
continu ously
test ify
p ip
ingred ients
tr acy
dest abil
enlar ged
abdall ah
4 m)
r ack
ib es
util ization
co at
comp act
intellectual s
le ton
kin nock
w itz
gr iff
har to
rid den
go ta
glo om
p unt
bul lets
pick up
bab ies
pre jud
all an
ed itors
ign ment
li able
stock holm
al berto
bl end
tig ers
den ounced
fund- raising
apparat us
vo wed
-------------------------------------------------------- --
column s
res ent
gome z
fulfill ing
negoti ator
since re
p ile
ie c
pred icting
under going
m of
pe arson
piz za
f its
que bec
strip ped
ni kov
m ast
san ction
mes h
ad ors
kick ed
campaign ing
y l
aw ful
cro s
doctr ine
mag net
we in
travel ed
extrem ists
k uala
w ary
b unch
hier archy
slo gans
jewel ry
ell is
worsen ing
ex emp
fron ts
scholar ship
pris ons
high- ranking
live ly
bal ances
rif les
sov a
po pe
author ised
gove tt
alam itos
re lied
recorded ]
tr ap
ans on
sa ins
rad ar
der ived
ul um
pe g
ach o
197 1
po e
mus cle
ne at
[ z
07 1
qual ifying
w re
pro stit
mic key
le m
ho stage
c ular
cler k
shif ts
hu b
a el
- minded
maced onian
se an
organiz ers
excite ment
fundament ally
up held
gre ene
recruit ment
dismant ling
n hs
la o
( at
par ad
all- time
condem n
dr if
ser bo
ds z
under pin
ad minister
mont ana
fat ah
camer as
w ah
swe at
sim pson
la be
mus h
heard ]
geo graphical
ham p
bur ton
rit ual
ar mored
ocean side
- 22
au then
old- fashioned
is i
document ary
dictator ship
ck ets
row land
ste ering
scand inav
ad he
18 th
constit utes
ice land
p ist
inst inct
de mean
confl icting
after ward
volat ility
g pa
upgrad ing
afford able
t ended
reser vo
re versal
occup y
low- income
counsel ing
bre ast
gu er
volunt arily
simp lif
sains bury
h iro
bur dens
suf fers
might y
ram p
xt on
ian o
he brew
scre ens
ty -
ind ul
he arts
ul ent
p ierce
sol ar
jprs-tot -94-0
spie gel
hom er
dest ination
cont am
cup s
k ap
roll s
t ighter
incl usion
-off s
restrict ive
and o
hon our
embarrass ing
atch i
cly de
feed ing
val en
pup pet
car n
refr ain
ab uses
istan bul
str iving
war heads
le ans
ob struct
ba o
chats worth
short stop
ed wards
fe lon
ir y
authen tic
com prising
contam ination
form id
b fr
- 90
ign oring
d are
ty re
carl ton
bomb ay
st if
la ura
dress ing
reim bur
gu ar
ash ing
drug -
k ath
- 19
pe stic
uk )
t ub
spot ted
subsid ised
transl ated
mot ives
ann on
po ons
at ric
mar in
shell s
20 s
cr uel
al ar
is o
be ers
in herent
sch a
physic ian
13 2
bid ders
new sm
asia -pacific
reveal ing
saddle back
constitu ent
fe ud
dete cted
cens or
explo ded
philharmon ic
rel ess
regist r
add y
gom ery
sleep ing
prov oke
craf ts
civil ized
hand er
smu g
car r
ak ers
tribun al
cycl es
s b
lum pur
nom ine
h m
co co
do cket
form ulated
half -year
her al
later al
un ted
tee th
c su
-up s
fried man
mont gomery
new -
199 9
b av
congress men
comb ining
vis as
evident ly
re structure
spir its
indigen ous
occur s
should n
law ful
bl aze
symbol ic
long- distance
for bid
collect ions
mer its
depriv ed
select ive
cur ric
pa vel
chen ko
bur m
sign ature
plan et
fo w
iy ah
infect ed
b ite
ce met
doubt ful
po o
h ij
f ty
alv arez
ali yev
to ss
st om
vill a
k are
champ ions
fernand ez
haw k
corrid or
ful fil
contamin ated
ma id
ab ide
d res
vide os
(c )
o on
ign or
han oi
a ire
burm ese
pre fers
accus ing
confisc ated
hint ed
ben nett
trail s
stret ched
in stances
june ]
formid able
dis agree
le ases
dere k
mongol ia
as sure
h atch
fbis-lat -94-10
w ished
ex cise
surv iv
ster o
in fan
av ed
ro ph
fri day
hol i
holi day
holi days
min n
grand e
consist ing
en forced
union ist
lo ver
( 26
ar ose
reven ge
extre mist
six -month
u ate
adr ian
k ad
out -of-
up heav
me c
who ever
government -
chron ic
am y
rece ivers
virt ue
stim ulus
national ists
far- reaching
umbre lla
sur ged
lon a
fsl n
po orer
excl ude
so ber
regul ating
anony mous
m aps
harris on
(d )
cow boys
present ly
the ses
non sense
k ig
mat o
t wel
islav a
inter rupted
deleg ate
gradu ated
gay dar
circ ular
occup ational
con n
nut r
al tered
reform ing
environment ally
b -
cul ver
le ch
ch lor
ast ron
h ers
fr y
under mining
jacob s
ham burg
( with
for ged
j ah
fue lled
serbo -croatian
lo ving
dis rupt
14 4
t se
tz ky
gre tzky
nom ura
mon itors
deep en
jol la
cor ona
pun ished
address es
absor bed
architect s
az iz
ver ing
$ 17
sup porter
habit at
brat islava
jeff rey
potato es
first- round
car lo
d kr
- pound
ag ne
ol iv
$ 60
pl er
ori oles
den ying
hur ry
if p
nutr ition
tem pt
b mw
p ies
ac cent
out going
renov ation
chir ac
wr apped
- page
bu ro
k amp
wag ner
or n
merch ants
row s
st i
after- tax
i ated
ben jam
acknowled ges
un just
back bench
after math
sand y
re affirmed
un fortunate
grass -
juven ile
so s
unde restim
lo op
hand some
skop je
off end
hong kong
hun gry
magn itude
fbis-weu -94-10
iz ers
defer red
w ade
pir ates
wy n
k line
na ive
gr ate
r t
fil ip
gy m
s lop
cl ing
daw son
+ 4
guard ian
has an
back ers
x u
per secut
3 60
po ckets
bc ci
encl ave
m im
heath row
3 20
s ne
car p
engage ment
exceed s
withdraw ing
osa ka
tang ible
escal ation
self- determination
gu zman
scarce ly
embr ace
thor ne
outr ight
sac red
nagor no-
sal ih
bar on
ent rust
ile ver
(8 )
re insurance
assass in
mck in
g ig
rio t
pregn ant
important ly
referen ces
2 /
ont ario
marx ist
t les
ha us
sens it
al- din
ab ad
en do
graph ics
to ile
bar ce
protest ed
anatol iy
wh ip
un covered
er od
sh ine
ment ally
trave llers
liqu or
pione er
char lie
fo k
2 10
po ster
down grad
- 92
gar bage
adequ ately
ital ians
supposed ly
en acted
stand point
matthe ws
co hes
co hen
prin cess
p istol
yon hap
ko so
ro gers
super markets
fran cs
$ 150
ny a
veget able
decre es
ling er
b ast
van ia
eu v
aw ak
super -
hour ly
co v
iv able
instit utes
land mark
19 45
season al
un ilever
gu ine
tal es
per former
- west
k um
16 5
devast ating
dis plays
maneu vers
pup pets
$2 50
respon ds
res ched
dead lock
raf ael
benjam in
stay s
wid ow
convict ions
feas ibility
af ore
k not
re mit
slo gan
question able
rebell ion
cr us
sub marines
arr ing
ar rog
ur gently
nicaragu an
du g
cance ll
edition )
barce lona
pot ent
mc donald
prevail ing
ste al
pa ve
80 m
bes ie
cont ention
can non
belong ed
vari eties
go re
-col lar
f id
nic he
bro oks
je well
sab ot
camar illo
safeguard ing
convers ations
low- cost
meaning ful
ken ya
contem pl
griff ith
hab its
conscient iously
comfort ably
mineral s
import ing
cam acho
ado x
par adox
sc attered
em s
ink atha
distingu ish
she f
transp aren
int if
n ians
d augh
sub mission
m ason
le hman
catast roph
o ven
ren ted
pa )
sm alle
fe ver
( not
hun gar
superintend ent
tax i
cert ification
constit uted
ane ous
is co
defin ite
erup ted
g at
man ual
smalle st
so ap
tre u
- 40
council woman
ap ples
good -
transparen cy
crow ds
m g
enhan cing
f usion
process or
ca fe
ri x
reject ing
n orton
fair fax
chem ist
s can
restr ained
id f
b ian
den omin
8 50
bl az
advoc ated
remin der
clin ics
j ason
just ices
wood land
mid st
survey ed
pat ro
ger ry
safe ly
admir al
end less
meas uring
ab rupt
fing ers
would -be
el le
john ny
re dem
- 91
robb ins
l ung
head lines
pessim istic
en forcing
c ind
ko sova
patri arch
mor av
ar on
al do
prom ul
load ing
sham ir
l ent
4 -a
p ud
sc ared
ex otic
sum mar
genuine ly
gr a
numer ical
ffr 3
assist ed
gall on
value -
18 m
ho over
au ctions
shr ug
nap les
scept ical
destruct ive
yach t
afric ans
convey ed
pre text
st atic
re members
he fty
nagorno- karabakh
lu ther
refr iger
measure ment
il le
lock er
air planes
kig ali
( 20
manife sto
carto on
sa atchi
be sto
n im
hand ing
z ene
num bered
integr al
jak arta
35 m
si um
fru its
cul min
ar in
motor cycle
j ing
our a
ts b
ar id
department al
r ific
- makers
k ang
dead ly
complain ing
re c
power gen
have l
certific ate
ren s
se gun
h off
e er
sh y
8 75
near -
imag in
like wise
gl ory
spec ify
gentle men
lack ed
can ary
fundament als
vo id
happ iness
all- share
second- quarter
trian gle
alarm ing
preser ved
ver bal
s ack
assign ment
y az
bu ena
-94-00 8
w au
dre x
conserv ancy
id an
moz art
40 %
should ers
ol f
uncertain ties
dis counts
treu hand
ther mal
( 14
pol es
nz dollars
ly ric
ge e
es co
ay o
pe uge
phys ically
prag matic
qu il
br ack
peuge ot
st ap
19 65
dio x
anne x
au de
gen etic
concer ted
stra its
seven -
cas set
late -
int act
c iller
win ding
g c
in jection
inaugur ation
imm unity
weakness es
stabil ize
sie ge
re ign
tex ts
flo ors
open ness
sen ds
19 64
vic ious
v ick
ense mble
h ints
glor ious
trust ee
critic isms
msz p
la bels
note book
protect ive
5 m)
class room
excell ency
pa ired
procurator ial
mus sen
mar ie
resist ed
tan jug
cult ures
se jm
v acc
sher man
dia z
k ron
ac custom
si o
over -the-
subscr iption
do t
koso vo
cance l
draw ings
f ights
il ly
nut s
por k
l ings
ater ally
g lim
sl aughter
boom ing
du ff
cit rus
per t
3 30
robber ies
patro ls
temper atures
su t
tur b
uck y
re wards
zo o
fluct uations
year- on
accustom ed
s& p
infan try
dis integration
ras mussen
- 21
arre ars
pitch ers
congress man
listen ers
de vote
just ification
w reck
ad vers
y sp
ic it
launch es
nev ada
an no
in ]
treasure r
trans mit
ust er
re marked
( an
70 s
ur gency
one- time
hungar ians
aggress ively
c unning
lock heed
sdp j
pro min
fbis-chi -94-10
hol o
ain s
met res
ij a
run ners
moroc co
aggress or
segun do
x ian
rel inqu
ig ate
d ine
illustr ated
ex tends
re fe
ap pre
star k
twel ve
sing led
morris on
un le
so aring
post- war
cran ston
indirect ly
public -sector
new ton
har old
summon ed
st alled
am pi
v ivid
ch eney
stra uss
cas ino
skir ts
year-on -year
liberal ization
valen cia
ming ton
land o
curric ulum
mt g
patric ia
bent sen
f ills
in herit
police man
over see
exceed ing
rup ting
im prison
[ eu
afore mentioned
rac ism
demonstr ates
bar red
japan -u
emer ges
har per
sme ll
food stuff
pre tor
ov an
l akes
deb ated
consist ency
hel en
red -
supervis ed
under cover
tr av
fle e
capital ist
kab ul
polit buro
desper ately
15 5
spl end
rel ent
ma i
- speaking
af fection
run way
resolute ly
stem ming
earnest ly
k hal
wat ts
t ips
-col a
boss es
pretor ia
stub born
divers ification
tap es
value- added
touch ing
list ened
wau kee
mil waukee
inde b
come back
celebr ating
11 th
com ings
panaman ian
fasc ist
cent ered
comp ton
daugh ters
ca the
cla ire
indeb ted
reg imes
h ack
special ty
pal e
tr io
ab er
ib a
mesh kov
pl agu
qu ad
per ot
emig ration
cl ut
ich en
kuwait i
dis ruption
14 8
cad bury
ir rit
ard ed
imp lies
pup ils
seld om
haw thorne
wid en
gar lic
[eu ]
bur ger
j p
spr int
function al
gather s
f ond
ho d
predomin antly
fidel ity
car pet
b oun
wal d
re treated
revol t
pat ents
park ed
jail s
strength s
envis ages
dis counted
ra iley
ex tradition
congest ion
ten ant
kilom eters
dest ined
fashion able
govern ed
um en
mary land
rich mond
ven ue
k od
colleg iate
su ther
prestig ious
-94-00 7
abstr act
cris es
p v
17 m
per tain
censor ship
opt ical
vari able
pl a
cl are
neglect ed
cape l
k home
( yonhap
my ers
- 24
al pha
chor us
fro st
naz i
( uk)
sw aps
b m
ly ons
ar co
res a
me lo
av iv
ric ardo
capital s
v and
indefin itely
last -minute
sh akh
19 66
mid t
circul ated
flow ing
ig e
8 m)
cur tail
cli f
af fl
w itch
to mato
outsid ers
3 40
cut backs
gl enn
andre ws
sell -off
ther ine
ci ampi
(yonhap )
lia ison
except ions
1994- 95
serv icing
run -up
ag oura
newcom ers
london -based
or leans
assum ptions
r bis
resort s
ia e
cross- border
ro sa
west side
sd su
ac as
cance lled
sc ure
union ]
pap andre
am ple
happ ily
fr ames
rev ived
in ds
exp ires
motor ists
approv ing
to uring
team mate
drum s
ob scure
franch ises
sl aying
fin est
de -
tur f
ci ble
to sh
crick et
jane iro
ste red
sport ing
warri ors
chairman ship
sp aces
semif inals
we i
flag s
hor ror
fol ks
assum es
cast er
dis semin
s no
union ists
cont ended
nad ir
bel fast
defend ers
accur ately
sho ok
in appropriate
magn ific
con junction
mem bran
liquid ation
fok ker
lo ves
en sured
detr iment
ear liest
gr if
off s
exception ally
dis advantage
m ask
sz dsz
ro de
( about
grate ful
gr u
to wers
cr am
12 th
mar gar
co- operative
mis demean
may er
se af
u er
li z
ni fe
dynam ics
champ agne
papandre ou
eag les
br ass
ele ven
refin ing
smo g
ste aling
ol i
pu er
mill an
miss is
cathe dr
f )
l ud
las mo
ratio s
rele ases
[ la
sub committee
cemet ery
do ch
clou ds
rat ify
ar ous
over-the- counter
tum bled
be a
t us
mon ks
$ 35
second- largest
order ly
celebr ations
im pris
amaz ing
fant asy
over t
x -
grocer y
se wer
shay kh
14 9
& g
hunt ers
missis sip
agr arian
dim ension
ad here
suther land
ent e
fe )
pain ter
comm only
shef field
tele kom
up s
brea thing
prom pting
sc out
court room
distort ed
sa ab
co penh
dis pat
l of
in sur
attribut able
al ain
mc c
strateg ist
diam on
wal t
motor ola
coun ters
uk h
$ 22
1 m)
mississip pi
impris onment
ch uan
retain ing
high- speed
th s
+ 6
ge y
ac cuse
m ira
ut ing
ire l
sa voy
2 m)
discrimin atory
k c
ibrahim i
photo grapher
d w
shooting s
b ounced
there after
out law
ver sus
ach i
sil vio
dian e
incred ible
ridic ulous
appropri ately
clar ification
monu ment
je remy
broad en
defin itive
honor able
l ago
reper tory
order ing
pe y
clip pers
copenh agen
-square -foot
mon archy
p ren
thr ifts
enroll ment
zha o
fac to
vint age
church ill
requis ite
appl aud
laugh ing
par i
d itch
jo kes
celebr ity
transport ed
sp or
promul g
immig rant
ft -a
pu c
r il
arct ic
inef ficient
sing h
mac ao
life -
in do
motor way
ot to
sk aya
is sa
o zone
w ounds
+ 5
dem irel
biz arre
am bul
em pt
v ain
as c
add icts
re po
ram on
grav ity
li ps
l ur
loc ating
suspic ions
[announcer ]
twent y
edu ard
ce ased
n gu
tro phy
( it
short comings
rock y
confront ations
ez ln
work shop
tent ative
squeez ed
dur able
coca -cola
buoy ant
har dest
sn ap
c ats
pass port
on do
land lords
ise um
col iseum
st un
absent ee
compan ion
jur ors
gen o
19 62
gill es
hel mets
drex el
opol it
bal kan
b hut
ju lie
guil t
un aware
fav ors
wonder ing
bul ld
clar ified
$ 400
be ts
fbis-af r
29 0
parad ise
ecolo gy
tr iv
15 %
f ou
it ary
victor ian
sa fer
high land
th ie
exhaust ed
15 )
- market
reform ed
mano euv
ban ana
16 m
in fer
bor g
se ly
s ke
exerc ised
single- family
sw an
in os
k nife
popul ist
freedom s
margin ally
enn ifer
dis charge
exhib itions
sa i
t bil
document ed
grass- roots
relax ation
24 -hour
mart ial
consul ted
kent ucky
subur b
remark ably
lum ber
father s
fr action
hel sink
ian i
hum ili
j ennifer
un realistic
fred er
exerc ising
un ting
drag ged
t l
king ton
ul ative
un reasonable
dis satisfaction
l ula
stom ach
bro ch
l omb
kr ay
dis asters
p oured
montene gro
ble ak
un comfortable
less ness
auditor ium
popul ations
inter n
t ac
ha f
od es
du plic
fo ss
aw k
r ut
m cl
( 13
or a
f ug
e up
puer to
the le
bon es
cal trans
louis iana
imper ative
prud ent
extensive ly
w to
conver ting
l ighter
ig el
co ch
ev asion
joint- stock
commit ting
bu thele
asser tion
tit ans
dis sent
collect or
f ren
sh en
un h
euro -s
modif ied
comprehensive ly
el lo
vital ity
account ability
spread s
irregular ities
euro tunnel
250 m
eros ion
af fluent
de vil
we ir
mo squ
sp y
lu f
k emp
oil -
liver pool
as da
total ing
clam ation
n ant
arch ives
con voy
appre h
right ly
edu ardo
pract ition
air d
an as
l af
igh test
ici aries
m k
ox y
nor d
c ac
me h
ch ess
syl vania
air -
ind if
45 m
delight ed
revis e
plo ts
explos ives
fourth- quarter
state- run
week ends
given ]
retain s
sav age
batt led
arm ies
in ser
cred ential
special ly
toler ance
warm ing
abkhaz ian
sh eng
high- quality
faith ful
stip ulated
- al-din
she lling
symbol s
moz am
on ov
pear l
ul ted
g ior
hon dur
confess ed
ro v
30 %
embass ies
sal ad
[ le
pian ist
benef iciaries
il ia
ante lope
pig s
il ion
anticip ation
an ic
balan cing
dow ney
christ ine
14 m
applic able
pe cu
cent ric
distur bing
ret iring
pray er
ear l
ho are
termin als
rigor ous
en burg
tu be
recip ients
en act
christ ians
alumin um
us -
em u
land fill
re consider
seiz ure
admit ting
vice- chairman
non- proliferation
in flow
v endors
main frame
for bes
detect ives
richards on
explo ited
bio technology
shak en
pos sessions
motiv ation
-in- law
straight forward
mi red
bul lish
bu ds
pre su
fascin ating
soci o
dou bling
human s
plain tiff
ir rig
l ance
hal ved
dul l
trail er
efficient ly
27 5
p d
de i
bu zz
mar cus
em be
n /
re paid
col um
county wide
** *
id le
pen a
dock lands
plagu ed
el ess
foodstuff s
( i
tack ling
gl ades
ch ol
cal c
bud d
comp ress
case y
600 m
up wards
brad ford
ath on
str as
c ence
land er
moldo va
guard ed
prec inct
at ivity
sum it
scand als
dest iny
turn round
( this
---------------- --------
embarrass ment
clar a
im position
jan i
do le
longer -term
insol vency
l me
euro-s cept
helsink i
explos ions
/ or
chand ler
tru ce
harass ment
domin ation
exagger ated
buthele zi
m ity
h ort
clos es
sk ies
import ers
thanks giving
her on
al t
18 5
wi eld
id y
cea uses
complex ity
cross- country
le ased
was hed
invent ed
felon y
im o
che ch
kov ac
contradict ory
dis content
accur acy
cr unch
be es
af ri
for ge
an ov
orient al
se f
trib es
recording s
tem pted
bo a
red undant
establish ments
market -
14 2
bl at
car ls
class ics
glass es
whis ky
hz ds
700 m
ans as
trave lling
conceal ed
our i
inv iting
cle arer
ne o-
aver ages
shrink ing
7 -
ear ns
the ories
respect able
photo s
appra isal
et ics
jum ping
belief s
inter section
ph on
theat ers
tr um
altern ate
gu ild
bhut to
deterior ating
man ned
an ita
st ok
proceed ed
dum ped
salvador an
vary ing
sim mons
sof ia
inf >
penn sylvania
recomm ends
her man
appe ll
medium -term
y ama
a aron
sabot age
am ic
imperial ists
di um
-94-00 4
sur f
ga ul
3 -a
dis c
sales man
er ne
c ade
lo vers
psy chi
dun can
tr icks
view ing
deliber ations
pack ard
co des
splend id
v aux
fbis-chi -94-
sl ice
dis rupted
$ 19
expl oring
arr ives
r tz
sur prises
critic ize
photo graphy
serv s
le st
imprison ed
water house
up date
commercial s
12 -
assemb lies
fundamental ist
panel s
notor ious
lomb ard
p /
las er
har bour
bl unt
sal im
don ors
sign alled
jewell ery
explan ations
cor ne
and res
si b
trib al
theat rical
ceauses cu
in sured
th wart
stras bourg
interven ed
his panic
contem pt
home -
valu ations
symp toms
ru ble
youn gest
b ible
ar ro
9 m)
shakh ray
dr ied
per ip
remed y
arm strong
and reas
premie re
be au
foresee able
- back
i encies
bo v
co herent
o res
ir responsible
pled ges
s acked
size able
poo rest
cancell ation
don ation
rac kete
ind a
total s
abandon ing
nas da
le vied
kne es
conven e
takeover s
af p
bo gota
ner ve
emot ions
socio economic
occ ident
ach ed
shop pers
entrepreneur ial
ver ge
deliber ate
toler ate
tbil isi
distribut ing
h ither
board ing
j ia
milit ar
conce ived
pil kington
ark ansas
boliv ian
es sex
chall enger
an thro
analy ze
fr inge
cou ver
fi ber
van couver
hin der
c ans
wh ir
new castle
ra i
mar s
fl an
- language
sa iling
tables poons
amb ition
ed ited
out fielder
us air
que ens
we iss
dig it
o o
bah rain
le igh
ot ti
elect ro
ar ov
long- standing
k ho
ph oned
che a
re pub
pop ulated
k is
in um
1990 -91
d n
op ers
synd icated
hon ors
defend er
string ent
hero ic
go- ahead
dis posed
one- day
amoun ting
resched ul
distinct ive
diamon ds
calc ulation
we ars
mor ality
sp ills
r aft
nur se
tit led
yield ed
l ure
rena issance
30 )
load s
in hib
administr ations
protest ing
poe try
s well
am ph
erne sto
at ro
ne arest
kov ]
tie m
prison er
chev ron
int ers
transp arent
found ers
ul tra-
spir al
imp asse
hal e
ma them
lob b
b ree
pon t
un popular
gr aff
peace -
ch ard
fre do
ma hon
con cil
il aterally
into ler
condition ing
adjust ing
cali ber
tig er
mort ar
cinem a
( same
is ations
special ised
e h
z in
ing en
ot c
be ats
k op
- control
ur ry
d ess
excl usion
un equ
d )
i q
re mun
feli pe
ow es
rang es
sculpt ure
social ly
su ing
non proliferation
rhyth m
he mis
advertise ments
museum s
teas poon
guarantee ing
coach ed
rug by
account able
appet ite
bald win
my an
hondur as
al- tur
her zo
conven ed
doming uez
( who
th under
tak em
pract icing
pro pon
inef fect
jo z
v ars
catastroph ic
court es
won dered
coinc idence
geoff rey
nas a
lands cap
sh aking
shout ed
on na
t arm
-94-00 2
gar ris
log istics
select ing
is ha
jan et
icor p
cit icorp
d art
bay ev
car makers
fein stein
ci le
flu id
supplement ary
pecu liar
lan ka
( ct
proport ional
shel f
13 m
fr am
14 7
ident ifying
crush ed
- looking
it ous
vari ations
t ical
qu akes
sec ular
pre y
car ing
shar if
red ondo
de vol
supervis e
ut most
assess ments
dub bed
cool ing
rul ers
compe lling
succeed s
n iel
er able
cre ativity
iam en
e re
over throw
ngu yen
un stable
invent ory
trust ed
mid way
travel s
under go
fow ler
re pression
collect ors
ment ality
al ab
entrust ed
ha iled
tact ic
d wind
bris k
sponsor ship
target ing
tr am
direct ives
az tecs
pr izes
khome ini
bo ot
contest ed
en i
tarm ac
key nes
ent ers
en tour
th ouse
infl icted
coup ons
heavy weight
presid ium
ri y
herzo g
n ity
ph nom
ban glades
an cies
valer iy
no stal
ab du
plat inum
re ts
im balance
zz i
o ter
sch ild
grand father
prohib it
gol an
privile ge
fbis-sov -94-10
l ace
c ive
r ors
one -year
philip pe
75 )
ash down
loo sen
art ic
shout ing
ru bric
dis pose
blood shed
rel ate
speed s
san e
mil ton
in junction
el vis
ob jection
smug gl
sand wich
bless ing
secret ly
cost umes
mexic ans
kyrgyz stan
imp lied
d led
g aps
smith kline
incumb ents
il ies
persu ading
pet ty
intrig u
re location
/ day
de ple
human ity
rac ist
20 10
recycl ed
rod t
entour age
colo sio
200 1
domin ance
ch ick
[ sentence
ne wh
wheel s
rob i
embarrass ed
news letter
add iction
[ docket
bi ased
port illo
dis solved
en compass
local s
slo bod
advis ing
$ 13
le i
ab used
televis ed
k auf
ste ph
flav or
guatemal an
bi ke
rele asing
cit i
tr acted
par cel
sh annon
mar athon
18 )
l om
album s
bid der
25 bn
kan er
mor se
pl ess
em ission
un e
out dated
un ilaterally
com prises
hurd les
sur rendered
contin ually
ch ub
membran e
coll ision
br ibes
takem ura
prosecut ed
ab b
co y
r ides
assa ults
re open
[un identified
man kind
sil k
19 48
provoc ative
1993 )
ho k
lay ers
black mail
but ton
compar isons
zim bab
zimbab we
ar ises
govern ance
tal ents
tur tles
mal es
d read
miss ouri
ambass adors
pe ers
ad mire
an za
dimin ished
mid day
sl ack
teen- agers
$ 600
gaz eta
fy rom
caucas us
sax ony
hither to
m ca
ar row
o we
document ation
ban que
treat ments
b apt
ber k
s ]
a ul
3 80
(same )
cert ified
deep -
b ats
mit i
he els
kilom et
ffr 1
f itted
sil berman
somet ime
wil shire
h )
cu bs
morav ci
cur ry
embar ked
caution ed
pres ided
20 2
crit er
myan mar
pre ston
ball ah
h ac
out break
day -to
light ly
demonstr ating
missi ble
full -scale
cho reo
pr av
gun men
dis card
day-to -day
roberts on
over coming
stam ps
il o
investig ator
schedul es
worth while
al gar
gilles pie
applic ant
ri pe
indian apolis
fulfill ment
gn i
occident al
hamp shire
nam ents
tight ly
ent rench
jprs- nea
der ick
neglig ence
cu bans
ship yard
att i
st arring
wy oming
w aged
father land
mand arin
- 29
al-tur abi
in sect
myster ious
cal ab
s way
brief case
u to
u ci
adequ acy
-year -
fixed -
st airs
sumit omo
alleg ation
up beat
devis ed
object ed
lis bon
it ate
fe ather
awk ward
book ed
anticip ate
industrial s
allevi ate
excell ence
vi br
ho e
card iff
br iber
in dispens
lit re
ten ure
confirm ing
naz ar
hiz ballah
sil icon
epide mic
discrimin ate
fran ces
over head
be cker
block buster
w asted
zed illo
correct ed
div iding
credential s
ex chequ
exchequ er
sh ita
preced ed
inspir ation
care s
fair ness
g host
favour s
( by
r pr
lot te
1991 -92
ash es
j ess
iraq is
[ v
ve ts
craw ford
oz awa
ol l
tro y
mon o
( t
a ided
ir ony
con e
hut ch
- 3)
bo k
l iness
conf using
scr ip
sto le
[ p
receiver ship
card inal
< /
spokes men
normal ization
four -day
adap ted
i atory
author ization
100 )
consu med
defic iency
ral lies
quar tet
fran co-
cla uses
si an
par aly
coin cide
u ously
pad re
un -
ob sess
to w
pe el
jav ier
4 20
( 22
confidence -building
in- house
comment ators
rit os
constitu ents
al fredo
command ing
hit ler
re places
in corporate
ch arts
southeast ern
cathedr al
wa igel
contradict ion
prepar atory
he al
back up
jprs- ten
conce ivable
j al
e ly
wide- ranging
- russian
indic ted
reno wned
lim ous
ch ad
citi bank
ay atol
sym po
bet ty
schol ars
indispens able
- 23
rif kind
---------------------------------------- -------
15 1
in justice
inter rog
super power
se mit
id ad
di ary
ear s
courtes y
lik ud
accus ation
( tanjug
mccar thy
stock brokers
develop s
me adow
ul ously
cont ends
buff alo
l ut
free man
94 &hyph
process ors
n en
bour se
ting ham
be re
bub ble
f im
stu ffed
p ino
dist rust
wi reless
diox ide
juli o
f en
inspect ed
life guard
ic z
aggreg ate
af i
---------------------------------------- -
wi ped
50 s
surv iving
per -
valid ity
exp ired
oun der
turk men
k ul
br ake
gate way
tempt ation
jes se
catal ina
depress ing
rob bed
bry ant
card inals
wish ing
substant ive
phas ed
str ic
param ilit
out spoken
honor ary
boo ster
stabil izing
t ions
coinc ided
bless ed
pu zz
misdemean or
dis courage
con spic
particip ant
certain ty
hu dson
gre ed
k ane
comment ator
lone ly
perpet ual
ou k
pl ural
jo el
che ers
com ex
in ward
id his
tro l
chur kin
must ang
hu ang
initi ate
christ ie
tack led
v iv
ud ed
manager ial
direct ing
g -7
pre ferences
mur doch
san to
dr ift
ind ign
pur ple
mal one
shot gun
match ing
un predictable
dr astically
pe ck
contr a
at ri
geor g
hor ri
acqu ain
s ig
defin ing
tak er
f ancy
al igned
privat ized
prefect ure
du ly
h ul
in fection
dis placed
out set
compat riots
mur dere
50 bn
briber y
form ulate
f ake
100 -
port ions
princip als
confron ting
ex pelled
publish es
vars ity
al lot
mac minn
v ance
ale ene
ore rs
lab orers
burden ed
out lays
know -
commun al
niel sen
unders co
ric an
redu ces
comp aq
reci pro
shake -up
and /or
rul ings
out let
grif fin
defa ult
sab ah
fierce ly
sympo sium
v ouch
shap ing
md f
(ct k)
ros si
char itable
ad er
greg ory
re processing
la ender
focus es
energet ic
ter med
brit ann
manufact ures
hs bc
ct s
medi ator
mi yaz
de vi
q iao
redem ption
inde mn
maur ice
oust ed
i op
pf en
ifi able
distur bed
so pr
hope fully
start -up
reli ability
ca utions
bell s
im pover
armen ians
fright ening
olog ically
occup ancy
exempt ions
tes co
diver ted
rab bit
legal ity
prescr ibed
bar ing
as i
en -
contr as
pav ilion
influ ences
le aked
se ated
conglomer ates
l ender
general e
no bel
o leg
magnific ent
analy zed
fast- growing
boy cot
er nest
retro spect
proport ions
ilies cu
dark ness
spr aw
lot us
blue print
peak s
colum bus
le o
system atic
mort ality
slip ping
encour ages
ob it
da x
earth quakes
chop ped
thro at
t ile
$ 14
jo aqu
3- mo
sh and
( on
sp ate
gr ie
hu an
sand in
john ston
pione ering
geo graphic
ac cession
parli aments
ck ers
plum met
whit bread
privile ges
weigh ing
bill ed
ak ashi
centre -
wit t
san tos
inter val
mi th
desc end
shir ley
own ing
ur i
ch im
u li
ro oted
alleg ing
law -
don or
once -
z ie
sanct uary
public -
ern st
medio banca
ob serving
fle eing
f ang
on o
reper cuss
compar ative
------------------------------------------------ -----
coron er
cer ritos
o bey
occup ying
rob ain
research er
echo ed
plant ations
serious ness
m um
half way
ra o
tall inn
md ale
sub vers
ambig uous
subur bs
sum mers
ced e
dist urban
disturban ces
wall er
v ince
height ened
in visible
investig ative
lan caster
dil uted
may ors
hone sty
app liances
bin -
or ov
------------------------------------------------------------------------ ----
ly le
pool s
con sol
repatri ation
curren ce
he ge
str ings
elig ibility
consum ing
girl friend
al ek
17 th
wid ened
plat forms
pe ps
refin ed
- winning
subordin ate
- sharing
n hl
sh ok
ass ort
appropri ated
one- off
s eng
19 49
$ 75
di x
life style
oxy gen
k rist
se ism
bout ros
cle ans
provoc ation
-- in
bell a
po v
slow -
spr aying
ro card
besie ged
am en
uni forms
di xon
w t
over due
ach ing
alab ama
we ls
upgrad ed
design ate
mon de
grand mother
medi ators
b k
real izing
won ders
emper or
mans ion
z ap
ide als
post war
bo thered
erod ed
gold berg
greet ings
exhib its
mec ca
pal mdale
sit uated
tra itor
ru ined
let te
hay es
infr inge
3 70
de eds
cov ina
te p
portray ed
host ilities
hein z
re en
al f
1 -0
y r
exp orter
ca therine
cow boy
criter ion
ble w
extr act
od om
cultiv ation
smil ing
account ant
as besto
commission ing
ok ing
sr p
fbis-weu -94-11
f lip
in complete
teen- ager
kn it
sensit ivity
lu b
re hear
re opened
kr as
yun nan
princip ally
command s
-than- expected
self- rule
g lit
vaux hall
reform ers
zh eng
$ 11
in ity
her bert
pe er
j agu
israeli -
l ament
dive st
em ir
10 p
reservo ir
- e
- cut
alcohol ic
sole te
ob solete
un resolved
pfen nig
dis pers
blue -
au ster
- tv
organ ise
fool ish
al ley
matthe w
ma ha
ci ous
bar n
ep ic
20 bn
x y
tr act
800 m
marked ly
co ats
-year- olds
ded ication
haz ards
auster ity
bru ins
dis agreed
cur bs
prevail ed
dim ensions
u o
phenom ena
califor nians
schro eder
ram os
shim bun
mar co
technic ians
maz da
sl ain
journal ism
recreation al
consolid ating
mal ath
malath ion
prev ents
sch we
middle -class
- economic
som ali
occur ring
libr aries
disman tle
forbid den
turn around
dis appearance
m gm
en rolled
ic ut
fl urry
en vision
rackete ering
miyaz awa
en light
blow ing
nikol ay
struct ured
hab ra
bal boa
cooper atives
wilder ness
play wright
lun che
13 th
haw kins
calder a
han k
advis es
discour aged
(d pa)
na j
lo ren
dor othy
ext ort
07 1-
nazar bayev
short s
complex es
ga o
nov a
em bro
north- south
m ise
tur ing
patriot ism
al ice
proced ural
ic l
t ul
fr act
cole man
mo sa
ou x
quot es
fore front
hen ley
me than
19 61
ban quet
ku z
ge ological
f let
av on
19 5
fin invest
jen kins
0 %
- elect
ten berg
v c
intim ate
cres cent
repercuss ions
traf algar
boro ss
br d
r pf
us )
wolf gang
25 -
being s
color ful
tu cker
aston ishing
sa ves
over sight
( he
com prise
in door
psych ology
frater nal
roth schild
cr ying
we ights
narrow ed
grab bed
rival ry
cl aud
h ilton
pan or
analys es
sp ont
ps br
jud y
am pton
ant it
satisf ying
uls ion
kat z
cre en
pe ach
h ain
rex rodt
ce tin
stron gh
vern on
am ir
prov ider
cur s
three- quarters
million )
iz ations
(9 )
west lake
dens ity
[ name
ne p
emotion ally
i ac
south- west
tab lo
ho y
real ism
kap lan
hat red
condem nation
will is
app rent
sch u
f s
postpone ment
ces ar
pun itive
ti ers
f -16
sw ind
do se
e b
gau ge
kin son
l 1
------------------------------------------------ ------
sho ots
predecess ors
recomm ending
north- east
j ard
matsu shita
crow ding
t ire
a days
industrial ized
don na
om buds
tiem po
categor ically
compar atively
ham pered
b red
o od
ud f
al ys
sac rific
tsu to
length s
w agon
back drop
pain s
cock tail
ced ed
stim ulating
greg ation
batter ies
alleg es
sil ly
cir cus
stal in
hi kes
r att
lo gging
extr av
ch is
(tanjug )
60 %
opolit ical
juli an
phys ics
dun kel
ple x
land lord
then -
embar k
cr acks
dis agreements
privile ged
trin idad
access ories
contro ller
amo to
marx ism
no d
now adays
centr ist
pun ct
glor ia
histor ian
j ag
comb ines
dis band
dur ation
synd rome
dr ill
rid ers
stef an
amaz on
redist ribut
hall s
all ah
cket t
offend ers
et sk
mon roe
at ics
sp ouse
pass ports
for -
c if
declar ations
individ ually
dis continued
g if
os ity
arch bishop
trans forming
se gments
fundamental ists
prote in
evac uation
eup hor
what so
whatso ever
rad ically
arous ed
work place
fertil izer
by- election
casual ty
monte rey
ch asing
chemist ry
assa il
aqu ino
repe al
well- being
tsuto mu
tun g
ex pose
hu go
tunis ia
( down
se ito
wood row
bo re
k hun
s worn
al on
col lar
ste er
er man
blo om
lod ge
re financing
siber ia
pro tracted
parliament arians
ayatol lah
shin seito
em ph
dimin ish
roman ce
fer gus
ill es
pro- democracy
tit an
simultane ous
w d
a ik
met ap
ric hest
d us
id i
(11 )
subscr ibed
cent red
catal yst
we hr
ch ill
z ay
ry b
c af
manip ulation
har a
f ah
wim bled
fr g
op pen
connect ing
bu ckey
15 p
ar ra
ru in
bar ber
s acks
frank lin
prospect us
forces ]
crack ed
con voys
cor dial
qu es
sh ado
inter action
orig ins
vouch ers
sacrif ices
ye gor
her ce
tre ats
tour naments
communic ate
1989 -90
de fl
un settled
cohes ion
patrio ts
york -based
ab ra
z oning
claud ia
interim s
s ights
gonz ales
wimbled on
srp ska
stip ulates
recru its
pat rons
bo ck
specific ations
hur dle
raid er
l ump
90 s
n ay
flo wn
mother land
ty ing
instru mental
f fer
brand ed
petro chemical
sh run
l ash
cu b
mercedes -benz
g low
past e
revol ts
medic are
cl out
t ant
suz uki
live lihood
[ de
str icken
b act
hon duran
en as
g ag
lo we
-for -
sl ate
ro ster
brewer y
r ans
deter rent
gr af
inv igor
eu ble
scha euble
duff y
en ve
14 3
fun ct
90 %
(10 )
g our
per ing
year- round
bo gg
-- that
me te
s as
announ ces
ber mud
la un
over heads
us m-
che chen
philosoph ical
trol ley
- only
2 -0
o ve
med ian
mit su
sh ade
shado wed
stor ms
awa it
ou ter
90 m
vir tues
circul ating
euro bond
anti- semit
ko wski
23 5
( w
ko vic
sli ps
shel ves
im proves
vac lav
remun eration
ft c
deep ened
4 40
second ly
met ic
spur red
final e
legend ary
academ ics
yitzha k
bre tt
em bod
wi pe
royal ties
trans atlantic
ceremon ies
nol an
fruit ful
fare well
bi que
col ours
bar be
f ier
wel comes
cous in
ecolo g
form ations
(e fe)
in sky
cust od
( 6-
mountain ous
compass ion
zhe jiang
terr ain
hospital ized
side line
r jr
clar ity
flo ck
furn ace
stick ing
si zes
19 56
ay ama
cla es
rad i
ad ze
bat tered
shok hin
mot ions
pre cip
comp aring
notice able
bed rooms
lo qu
zene ca
dis proportion
l ich
tr ibe
- game
al er
o pel
pum ped
seek ers
narrow ly
sex ually
integr ating
maha thir
ac io
pc s
15 4
na i
cl aw
ne ill
fr iction
char lotte
15 8
le ice
s la
h of
10 )
jun ta
[ commentary
money -
au ld
most ar
22 m
+ 7
[ m
mo th
3 25
it ives
her ald
tam pa
do y
good man
semif inal
ser ial
t ate
nasda q
banglades h
qu ir
resign ing
design ing
kauf man
prejud ice
david son
comp ounded
lunche on
nun n
fig ur
sur faced
moravci k
bar ric
un lawful
january -
2 -1
3 -0
al armed
grand children
f eng
trans late
mozam bique
br ien
inaug ural
ult z
kin der
mal a
frustr ating
poul try
p ors
cli que
vert ical
neut r
live ]
slobod an
bas il
spo il
ole ks
recon cile
ant y
sp at
2 11
mass acres
fraud ulent
gas -
south western
ou traged
under writers
at ar
un specified
as co
